{
  "version": "1.0",
  "truncation": null,
  "padding": null,
  "added_tokens": [
    {
      "id": 0,
      "content": "<pad>",
      "single_word": false,
      "lstrip": false,
      "rstrip": false,
      "normalized": false,
      "special": true
    },
    {
      "id": 1,
      "content": "<unk>",
      "single_word": false,
      "lstrip": false,
      "rstrip": false,
      "normalized": false,
      "special": true
    }
  ],
  "normalizer": null,
  "pre_tokenizer": {
    "type": "Whitespace"
  },
  "post_processor": null,
  "decoder": null,
  "model": {
    "type": "BPE",
    "dropout": null,
    "unk_token": null,
    "continuing_subword_prefix": null,
    "end_of_word_suffix": null,
    "fuse_unk": false,
    "byte_fallback": false,
    "ignore_merges": false,
    "vocab": {
      "<pad>": 0,
      "<unk>": 1,
      "'": 2,
      "0": 3,
      "1": 4,
      "2": 5,
      "3": 6,
      "4": 7,
      "5": 8,
      "6": 9,
      "7": 10,
      "8": 11,
      "9": 12,
      "a": 13,
      "b": 14,
      "c": 15,
      "d": 16,
      "e": 17,
      "f": 18,
      "g": 19,
      "h": 20,
      "i": 21,
      "j": 22,
      "k": 23,
      "l": 24,
      "m": 25,
      "n": 26,
      "o": 27,
      "p": 28,
      "q": 29,
      "r": 30,
      "s": 31,
      "t": 32,
      "u": 33,
      "v": 34,
      "w": 35,
      "x": 36,
      "y": 37,
      "z": 38,
      "ʙ": 39,
      "щ": 40,
      "є": 41,
      "і": 42,
      "ґ": 43,
      "ҙ": 44,
      "ң": 45,
      "ү": 46,
      "ұ": 47,
      "һ": 48,
      "ә": 49,
      "ӯ": 50,
      "ᴠ": 51,
      "ᴡ": 52,
      "ᴢ": 53,
      "ma": 54,
      "an": 55,
      "di": 56,
      "sh": 57,
      "ga": 58,
      "ya": 59,
      "da": 60,
      "or": 61,
      "la": 62,
      "ra": 63,
      "ek": 64,
      "si": 65,
      "zor": 66,
      "ch": 67,
      "li": 68,
      "ti": 69,
      "yo": 70,
      "shi": 71,
      "ju": 72,
      "ekan": 73,
      "juda": 74,
      "mat": 75,
      "ar": 76,
      "yax": 77,
      "yoq": 78,
      "yaxshi": 79,
      "ka": 80,
      "ta": 81,
      "oy": 82,
      "fa": 83,
      "am": 84,
      "in": 85,
      "zu": 86,
      "sifa": 87,
      "er": 88,
      "man": 89,
      "ke": 90,
      "rax": 91,
      "su": 92,
      "raxmat": 93,
      "lo": 94,
      "gan": 95,
      "sa": 96,
      "ish": 97,
      "chi": 98,
      "ni": 99,
      "ol": 100,
      "ib": 101,
      "lar": 102,
      "im": 103,
      "yoqdi": 104,
      "yam": 105,
      "va": 106,
      "on": 107,
      "ku": 108,
      "en": 109,
      "bo": 110,
      "gap": 111,
      "ham": 112,
      "ki": 113,
      "zur": 114,
      "sifati": 115,
      "rah": 116,
      "rahmat": 117,
      "dim": 118,
      "nar": 119,
      "qi": 120,
      "joy": 121,
      "ishla": 122,
      "mas": 123,
      "yu": 124,
      "gi": 125,
      "ajoy": 126,
      "tli": 127,
      "per": 128,
      "ajoyib": 129,
      "zi": 130,
      "judayam": 131,
      "bu": 132,
      "dan": 133,
      "kan": 134,
      "uzu": 135,
      "super": 136,
      "mu": 137,
      "qa": 138,
      "ldi": 139,
      "men": 140,
      "tta": 141,
      "ro": 142,
      "un": 143,
      "za": 144,
      "uzum": 145,
      "bi": 146,
      "to": 147,
      "xi": 148,
      "madi": 149,
      "so": 150,
      "vo": 151,
      "te": 152,
      "keldi": 153,
      "cha": 154,
      "ket": 155,
      "sifatli": 156,
      "tu": 157,
      "ina": 158,
      "menga": 159,
      "ko": 160,
      "lek": 161,
      "sulo": 162,
      "roy": 163,
      "mi": 164,
      "royli": 165,
      "sulot": 166,
      "na": 167,
      "st": 168,
      "mar": 169,
      "ye": 170,
      "chiroyli": 171,
      "alo": 172,
      "ydi": 173,
      "pu": 174,
      "siya": 175,
      "manga": 176,
      "qu": 177,
      "lay": 178,
      "xam": 179,
      "lekin": 180,
      "ber": 181,
      "katta": 182,
      "emas": 183,
      "tav": 184,
      "yap": 185,
      "ba": 186,
      "market": 187,
      "no": 188,
      "che": 189,
      "ganim": 190,
      "puli": 191,
      "narxi": 192,
      "arzi": 193,
      "tib": 194,
      "laman": 195,
      "narsa": 196,
      "arz": 197,
      "lib": 198,
      "ras": 199,
      "tavsiya": 200,
      "hi": 201,
      "puliga": 202,
      "at": 203,
      "mah": 204,
      "ri": 205,
      "de": 206,
      "uch": 207,
      "yapti": 208,
      "dek": 209,
      "oldim": 210,
      "al": 211,
      "tez": 212,
      "siz": 213,
      "lan": 214,
      "pa": 215,
      "mahsulot": 216,
      "oq": 217,
      "lari": 218,
      "yok": 219,
      "kaz": 220,
      "ladi": 221,
      "kache": 222,
      "uchun": 223,
      "kor": 224,
      "lgan": 225,
      "kachest": 226,
      "kon": 227,
      "mda": 228,
      "mad": 229,
      "otli": 230,
      "otlich": 231,
      "chiq": 232,
      "umu": 233,
      "ssa": 234,
      "wi": 235,
      "gina": 236,
      "ja": 237,
      "arzon": 238,
      "qulay": 239,
      "be": 240,
      "umuman": 241,
      "qilaman": 242,
      "qo": 243,
      "mo": 244,
      "ran": 245,
      "oldi": 246,
      "kut": 247,
      "bir": 248,
      "omad": 249,
      "le": 250,
      "tar": 251,
      "marketga": 252,
      "max": 253,
      "yoqti": 254,
      "sifatiga": 255,
      "sifat": 256,
      "sha": 257,
      "mer": 258,
      "rasmda": 259,
      "me": 260,
      "kich": 261,
      "hidi": 262,
      "ur": 263,
      "kina": 264,
      "ini": 265,
      "maydi": 266,
      "yet": 267,
      "bor": 268,
      "kun": 269,
      "assa": 270,
      "raz": 271,
      "pro": 272,
      "kachestvo": 273,
      "ganimdan": 274,
      "maxsulot": 275,
      "larga": 276,
      "zar": 277,
      "akan": 278,
      "narxiga": 279,
      "zakaz": 280,
      "razmer": 281,
      "rak": 282,
      "yaxwi": 283,
      "ud": 284,
      "kichkina": 285,
      "uzumga": 286,
      "kum": 287,
      "hamma": 288,
      "she": 289,
      "assalo": 290,
      "yuk": 291,
      "zarya": 292,
      "may": 293,
      "arziydi": 294,
      "bol": 295,
      "oli": 296,
      "bosh": 297,
      "ishlashi": 298,
      "qat": 299,
      "kotta": 300,
      "zga": 301,
      "ot": 302,
      "yoqmadi": 303,
      "yan": 304,
      "imga": 305,
      "sov": 306,
      "yokdi": 307,
      "ay": 308,
      "chik": 309,
      "yur": 310,
      "lik": 311,
      "ne": 312,
      "ss": 313,
      "mga": 314,
      "ha": 315,
      "zorakan": 316,
      "assalomu": 317,
      "oz": 318,
      "mayapti": 319,
      "dara": 320,
      "san": 321,
      "rasmdagi": 322,
      "daraja": 323,
      "fon": 324,
      "otlichno": 325,
      "yuq": 326,
      "boladi": 327,
      "sin": 328,
      "00": 329,
      "xo": 330,
      "yetib": 331,
      "oo": 332,
      "narx": 333,
      "darajada": 334,
      "yekan": 335,
      "kla": 336,
      "do": 337,
      "xidi": 338,
      "tele": 339,
      "ori": 340,
      "pros": 341,
      "re": 342,
      "tir": 343,
      "yah": 344,
      "maz": 345,
      "uncha": 346,
      "sini": 347,
      "uddi": 348,
      "ing": 349,
      "gandim": 350,
      "se": 351,
      "day": 352,
      "bera": 353,
      "oyla": 354,
      "bola": 355,
      "qil": 356,
      "faqat": 357,
      "soat": 358,
      "ho": 359,
      "ok": 360,
      "chiqdi": 361,
      "mazza": 362,
      "boshqa": 363,
      "rangi": 364,
      "pi": 365,
      "roq": 366,
      "var": 367,
      "yara": 368,
      "buyur": 369,
      "yum": 370,
      "tma": 371,
      "po": 372,
      "kin": 373,
      "yana": 374,
      "ursan": 375,
      "bdi": 376,
      "sal": 377,
      "shni": 378,
      "yon": 379,
      "ginal": 380,
      "kattakon": 381,
      "telefon": 382,
      "mon": 383,
      "is": 384,
      "kasi": 385,
      "tush": 386,
      "kutganimdan": 387,
      "zaryad": 388,
      "lishi": 389,
      "xa": 390,
      "ey": 391,
      "kunda": 392,
      "sifatsiz": 393,
      "rosa": 394,
      "kiy": 395,
      "rr": 396,
      "qay": 397,
      "gli": 398,
      "klass": 399,
      "ovo": 400,
      "ursand": 401,
      "yahshi": 402,
      "ji": 403,
      "iw": 404,
      "ishi": 405,
      "tovar": 406,
      "arzidi": 407,
      "ancha": 408,
      "oyda": 409,
      "vap": 410,
      "vi": 411,
      "sovga": 412,
      "kel": 413,
      "masla": 414,
      "tida": 415,
      "ichi": 416,
      "laga": 417,
      "mba": 418,
      "qilib": 419,
      "madim": 420,
      "yin": 421,
      "yarasha": 422,
      "foyda": 423,
      "kichik": 424,
      "ishlamadi": 425,
      "ozi": 426,
      "alay": 427,
      "ari": 428,
      "immat": 429,
      "alaykum": 430,
      "bomba": 431,
      "shu": 432,
      "naya": 433,
      "yumsh": 434,
      "qiz": 435,
      "kur": 436,
      "gri": 437,
      "yomon": 438,
      "uz": 439,
      "yek": 440,
      "dda": 441,
      "lin": 442,
      "imi": 443,
      "ishlat": 444,
      "yi": 445,
      "kam": 446,
      "rang": 447,
      "qan": 448,
      "bitta": 449,
      "tan": 450,
      "kottakon": 451,
      "yetkaz": 452,
      "masa": 453,
      "brak": 454,
      "top": 455,
      "qol": 456,
      "buyurtma": 457,
      "niy": 458,
      "berish": 459,
      "rasmdagidek": 460,
      "mum": 461,
      "vaq": 462,
      "uy": 463,
      "miz": 464,
      "xamma": 465,
      "kar": 466,
      "nor": 467,
      "ru": 468,
      "beraman": 469,
      "yabdi": 470,
      "dagi": 471,
      "qoy": 472,
      "mos": 473,
      "xursand": 474,
      "et": 475,
      "qimmat": 476,
      "otlichnaya": 477,
      "we": 478,
      "xuddi": 479,
      "iwla": 480,
      "siga": 481,
      "kachestva": 482,
      "sam": 483,
      "rkan": 484,
      "larkan": 485,
      "kerak": 486,
      "aley": 487,
      "vchi": 488,
      "maza": 489,
      "qoldi": 490,
      "ob": 491,
      "yetkazib": 492,
      "tish": 493,
      "cham": 494,
      "tilgan": 495,
      "aleykum": 496,
      "prosta": 497,
      "eri": 498,
      "hammasi": 499,
      "larim": 500,
      "bul": 501,
      "lab": 502,
      "tur": 503,
      "bop": 504,
      "hat": 505,
      "ishlayapti": 506,
      "magan": 507,
      "qaytar": 508,
      "fek": 509,
      "bilan": 510,
      "boldi": 511,
      "judda": 512,
      "ishlatib": 513,
      "kutganim": 514,
      "shun": 515,
      "ik": 516,
      "yumshoq": 517,
      "sup": 518,
      "tti": 519,
      "lish": 520,
      "sotu": 521,
      "sum": 522,
      "hammaga": 523,
      "10": 524,
      "mumkin": 525,
      "taf": 526,
      "gani": 527,
      "ishlamayapti": 528,
      "nima": 529,
      "och": 530,
      "olib": 531,
      "larni": 532,
      "lat": 533,
      "imli": 534,
      "beri": 535,
      "original": 536,
      "gil": 537,
      "vapshe": 538,
      "sen": 539,
      "maslahat": 540,
      "edi": 541,
      "otki": 542,
      "sotuvchi": 543,
      "lagan": 544,
      "marta": 545,
      "dm": 546,
      "deb": 547,
      "qor": 548,
      "endi": 549,
      "ona": 550,
      "sizlarga": 551,
      "vaqtida": 552,
      "kelmadi": 553,
      "rossa": 554,
      "olgan": 555,
      "kat": 556,
      "aa": 557,
      "aqa": 558,
      "hamyon": 559,
      "supper": 560,
      "tafsiya": 561,
      "razmeri": 562,
      "prosto": 563,
      "du": 564,
      "sfa": 565,
      "yaxshimas": 566,
      "ligi": 567,
      "oye": 568,
      "niq": 569,
      "kop": 570,
      "mus": 571,
      "ochi": 572,
      "dar": 573,
      "tura": 574,
      "xol": 575,
      "ali": 576,
      "sumka": 577,
      "ef": 578,
      "glar": 579,
      "vashe": 580,
      "bolishi": 581,
      "masakan": 582,
      "togri": 583,
      "yen": 584,
      "rasi": 585,
      "nau": 586,
      "ammo": 587,
      "shir": 588,
      "oro": 589,
      "bizga": 590,
      "tadi": 591,
      "ovozi": 592,
      "il": 593,
      "norm": 594,
      "mal": 595,
      "oyna": 596,
      "ov": 597,
      "ut": 598,
      "arkan": 599,
      "pasi": 600,
      "kulay": 601,
      "ganda": 602,
      "buladi": 603,
      "um": 604,
      "sti": 605,
      "rat": 606,
      "oylaganimdan": 607,
      "huddi": 608,
      "uzi": 609,
      "materi": 610,
      "noye": 611,
      "ski": 612,
      "pti": 613,
      "tasi": 614,
      "yokti": 615,
      "naushni": 616,
      "tacha": 617,
      "ak": 618,
      "voti": 619,
      "votti": 620,
      "yekdi": 621,
      "zo": 622,
      "mayman": 623,
      "uu": 624,
      "midi": 625,
      "inishi": 626,
      "min": 627,
      "alma": 628,
      "korsa": 629,
      "bar": 630,
      "issi": 631,
      "yoqimli": 632,
      "go": 633,
      "chiqmadi": 634,
      "buni": 635,
      "met": 636,
      "rabo": 637,
      "iz": 638,
      "ishlari": 639,
      "mani": 640,
      "pul": 641,
      "af": 642,
      "tin": 643,
      "lash": 644,
      "ush": 645,
      "ve": 646,
      "rabota": 647,
      "yuz": 648,
      "rasm": 649,
      "fi": 650,
      "th": 651,
      "taman": 652,
      "arzimaydi": 653,
      "yengil": 654,
      "zaryadi": 655,
      "ishlar": 656,
      "spasi": 657,
      "zir": 658,
      "suv": 659,
      "toza": 660,
      "naushnik": 661,
      "joyi": 662,
      "qilgan": 663,
      "olgandim": 664,
      "moq": 665,
      "gidek": 666,
      "tel": 667,
      "past": 668,
      "ovoz": 669,
      "dam": 670,
      "lekn": 671,
      "chexol": 672,
      "almash": 673,
      "effek": 674,
      "sena": 675,
      "adi": 676,
      "kru": 677,
      "ix": 678,
      "bara": 679,
      "ver": 680,
      "nega": 681,
      "dimi": 682,
      "pe": 683,
      "qulo": 684,
      "ter": 685,
      "rabotayet": 686,
      "ani": 687,
      "afsu": 688,
      "uzuk": 689,
      "arid": 690,
      "chotki": 691,
      "ci": 692,
      "fe": 693,
      "kutganimdek": 694,
      "oni": 695,
      "spasibo": 696,
      "rim": 697,
      "kilaman": 698,
      "eng": 699,
      "qizimga": 700,
      "ixcham": 701,
      "baraka": 702,
      "narxiyam": 703,
      "langan": 704,
      "lani": 705,
      "glimga": 706,
      "otlichnoye": 707,
      "keyin": 708,
      "issiq": 709,
      "rivo": 710,
      "unchalik": 711,
      "rivoj": 712,
      "bozor": 713,
      "hamyonbop": 714,
      "fta": 715,
      "nars": 716,
      "ker": 717,
      "yubor": 718,
      "xammasi": 719,
      "olish": 720,
      "qildim": 721,
      "giz": 722,
      "goo": 723,
      "hali": 724,
      "xil": 725,
      "latda": 726,
      "choq": 727,
      "ichida": 728,
      "korinishi": 729,
      "oldik": 730,
      "100": 731,
      "narsekan": 732,
      "edim": 733,
      "nu": 734,
      "yor": 735,
      "larimga": 736,
      "almashtir": 737,
      "kov": 738,
      "mni": 739,
      "ortacha": 740,
      "tor": 741,
      "kruto": 742,
      "good": 743,
      "diy": 744,
      "xiz": 745,
      "xoro": 746,
      "kay": 747,
      "kra": 748,
      "xat": 749,
      "olishni": 750,
      "yop": 751,
      "salo": 752,
      "pod": 753,
      "oyin": 754,
      "berishdi": 755,
      "od": 756,
      "vor": 757,
      "it": 758,
      "ce": 759,
      "zaka": 760,
      "chka": 761,
      "kachestvasi": 762,
      "materiali": 763,
      "bil": 764,
      "shib": 765,
      "tek": 766,
      "afsus": 767,
      "lariga": 768,
      "qanday": 769,
      "upa": 770,
      "singan": 771,
      "ul": 772,
      "qora": 773,
      "tami": 774,
      "ishilaga": 775,
      "tavar": 776,
      "ayt": 777,
      "sotuvchiga": 778,
      "op": 779,
      "ech": 780,
      "yapdi": 781,
      "tushdi": 782,
      "lam": 783,
      "ishladi": 784,
      "chin": 785,
      "yapman": 786,
      "tak": 787,
      "ming": 788,
      "bun": 789,
      "ketdi": 790,
      "ox": 791,
      "dik": 792,
      "orginal": 793,
      "ip": 794,
      "mayabdi": 795,
      "dax": 796,
      "sotib": 797,
      "yaxshikan": 798,
      "pri": 799,
      "yoz": 800,
      "son": 801,
      "malo": 802,
      "zal": 803,
      "dir": 804,
      "roz": 805,
      "sfati": 806,
      "ishlatish": 807,
      "doim": 808,
      "ir": 809,
      "ishga": 810,
      "aksiya": 811,
      "stav": 812,
      "nik": 813,
      "kiz": 814,
      "ct": 815,
      "shat": 816,
      "kir": 817,
      "kilib": 818,
      "kaga": 819,
      "amo": 820,
      "buna": 821,
      "qaytarib": 822,
      "shuncha": 823,
      "korin": 824,
      "ozgina": 825,
      "kil": 826,
      "har": 827,
      "ikki": 828,
      "000": 829,
      "bob": 830,
      "mazali": 831,
      "til": 832,
      "miman": 833,
      "qul": 834,
      "sifatiyam": 835,
      "buzi": 836,
      "quloq": 837,
      "tara": 838,
      "idi": 839,
      "zakazim": 840,
      "tim": 841,
      "tiq": 842,
      "gir": 843,
      "yat": 844,
      "oddiy": 845,
      "kiyim": 846,
      "us": 847,
      "sho": 848,
      "narhi": 849,
      "shirin": 850,
      "bersin": 851,
      "moqchi": 852,
      "sizlar": 853,
      "vapwe": 854,
      "dka": 855,
      "batar": 856,
      "kutgan": 857,
      "ishlarizga": 858,
      "zircha": 859,
      "sno": 860,
      "soch": 861,
      "xarid": 862,
      "shim": 863,
      "gini": 864,
      "yn": 865,
      "manglar": 866,
      "boshka": 867,
      "allo": 868,
      "etaman": 869,
      "ii": 870,
      "sila": 871,
      "upakov": 872,
      "ochib": 873,
      "qib": 874,
      "qina": 875,
      "vat": 876,
      "shunchaki": 877,
      "radi": 878,
      "lekum": 879,
      "maga": 880,
      "yab": 881,
      "uyla": 882,
      "yopish": 883,
      "bolalar": 884,
      "bittasi": 885,
      "yup": 886,
      "effekti": 887,
      "tiyin": 888,
      "lov": 889,
      "pas": 890,
      "udob": 891,
      "rasimda": 892,
      "maslaxat": 893,
      "vku": 894,
      "qop": 895,
      "gizga": 896,
      "biroz": 897,
      "judaham": 898,
      "mahsulotni": 899,
      "ishlarin": 900,
      "far": 901,
      "lka": 902,
      "buldi": 903,
      "xammaga": 904,
      "daxshat": 905,
      "kilgan": 906,
      "bn": 907,
      "aka": 908,
      "mam": 909,
      "tuga": 910,
      "nati": 911,
      "limga": 912,
      "yozi": 913,
      "jamo": 914,
      "kre": 915,
      "raxmet": 916,
      "glim": 917,
      "ank": 918,
      "bolsa": 919,
      "hidiga": 920,
      "rasa": 921,
      "yog": 922,
      "ganimdek": 923,
      "qabul": 924,
      "shunaqa": 925,
      "ide": 926,
      "rek": 927,
      "vawe": 928,
      "yuv": 929,
      "arzimi": 930,
      "foydasi": 931,
      "salom": 932,
      "rakan": 933,
      "arzan": 934,
      "tiyinga": 935,
      "lamiz": 936,
      "ketti": 937,
      "sinib": 938,
      "ee": 939,
      "taroq": 940,
      "tka": 941,
      "dab": 942,
      "bunaqa": 943,
      "hursand": 944,
      "zik": 945,
      "ota": 946,
      "ca": 947,
      "uv": 948,
      "kn": 949,
      "maqul": 950,
      "gu": 951,
      "olaman": 952,
      "zoo": 953,
      "tr": 954,
      "rozi": 955,
      "yokmadi": 956,
      "boshqacha": 957,
      "sur": 958,
      "xox": 959,
      "kerakli": 960,
      "xizmat": 961,
      "sp": 962,
      "buyurt": 963,
      "kora": 964,
      "nimaga": 965,
      "kol": 966,
      "udim": 967,
      "masdan": 968,
      "beji": 969,
      "kani": 970,
      "fet": 971,
      "holatda": 972,
      "oylagan": 973,
      "jamoa": 974,
      "qara": 975,
      "je": 976,
      "tugri": 977,
      "narxda": 978,
      "very": 979,
      "farzan": 980,
      "judaxam": 981,
      "foydali": 982,
      "qizi": 983,
      "masi": 984,
      "biz": 985,
      "bejirim": 986,
      "ishon": 987,
      "qiy": 988,
      "ishlashiga": 989,
      "ozim": 990,
      "xali": 991,
      "jon": 992,
      "zoor": 993,
      "kemadi": 994,
      "kere": 995,
      "ideal": 996,
      "narxga": 997,
      "pla": 998,
      "kichikroq": 999,
      "gozal": 1000,
      "12": 1001,
      "zakas": 1002,
      "stoy": 1003,
      "rasmdagidan": 1004,
      "ochen": 1005,
      "chli": 1006,
      "ketarkan": 1007,
      "kelgan": 1008,
      "ishlamaydi": 1009,
      "haqi": 1010,
      "soatga": 1011,
      "niga": 1012,
      "oyoq": 1013,
      "berdi": 1014,
      "nozik": 1015,
      "rok": 1016,
      "kom": 1017,
      "zorrr": 1018,
      "yosh": 1019,
      "lati": 1020,
      "ome": 1021,
      "tishi": 1022,
      "gun": 1023,
      "sham": 1024,
      "hid": 1025,
      "fect": 1026,
      "buyurtmani": 1027,
      "yot": 1028,
      "shin": 1029,
      "ibdi": 1030,
      "alekum": 1031,
      "ram": 1032,
      "assala": 1033,
      "maxsulotni": 1034,
      "oglimga": 1035,
      "bolmaydi": 1036,
      "uchi": 1037,
      "tik": 1038,
      "qildi": 1039,
      "tga": 1040,
      "ge": 1041,
      "musta": 1042,
      "turarkan": 1043,
      "yir": 1044,
      "degi": 1045,
      "yib": 1046,
      "oyi": 1047,
      "vak": 1048,
      "qalin": 1049,
      "ada": 1050,
      "rost": 1051,
      "kordim": 1052,
      "dona": 1053,
      "as": 1054,
      "gon": 1055,
      "hida": 1056,
      "yangi": 1057,
      "stavka": 1058,
      "for": 1059,
      "shka": 1060,
      "mato": 1061,
      "yahwi": 1062,
      "foni": 1063,
      "xar": 1064,
      "chasi": 1065,
      "bolar": 1066,
      "foydalan": 1067,
      "olganim": 1068,
      "korsatilgan": 1069,
      "danam": 1070,
      "ilo": 1071,
      "diza": 1072,
      "tob": 1073,
      "chikdi": 1074,
      "juddayam": 1075,
      "vkusno": 1076,
      "ng": 1077,
      "qilish": 1078,
      "rasvo": 1079,
      "bolib": 1080,
      "ishlamay": 1081,
      "pun": 1082,
      "ishlangan": 1083,
      "pay": 1084,
      "ley": 1085,
      "thank": 1086,
      "sla": 1087,
      "co": 1088,
      "char": 1089,
      "zurakan": 1090,
      "oyinchoq": 1091,
      "lip": 1092,
      "kal": 1093,
      "quv": 1094,
      "atir": 1095,
      "zorr": 1096,
      "bow": 1097,
      "arzimidi": 1098,
      "15": 1099,
      "shina": 1100,
      "fakat": 1101,
      "bugun": 1102,
      "alohida": 1103,
      "oldin": 1104,
      "siniq": 1105,
      "natija": 1106,
      "lama": 1107,
      "qilgandim": 1108,
      "xidiga": 1109,
      "tiniq": 1110,
      "isi": 1111,
      "kitob": 1112,
      "nis": 1113,
      "ishlayabdi": 1114,
      "bal": 1115,
      "assalom": 1116,
      "koz": 1117,
      "ayniq": 1118,
      "moqchiman": 1119,
      "liq": 1120,
      "buzu": 1121,
      "sez": 1122,
      "qilmayman": 1123,
      "qin": 1124,
      "turadi": 1125,
      "xodim": 1126,
      "alloh": 1127,
      "udar": 1128,
      "kelib": 1129,
      "xamyon": 1130,
      "yozilgan": 1131,
      "ayniqsa": 1132,
      "hech": 1133,
      "yol": 1134,
      "krem": 1135,
      "vol": 1136,
      "yar": 1137,
      "meni": 1138,
      "yupqa": 1139,
      "jamoasiga": 1140,
      "stva": 1141,
      "kichkin": 1142,
      "chiqar": 1143,
      "bozordan": 1144,
      "vse": 1145,
      "balan": 1146,
      "tezda": 1147,
      "ishlatsa": 1148,
      "kabe": 1149,
      "quloqchin": 1150,
      "hol": 1151,
      "bermayman": 1152,
      "nisba": 1153,
      "sz": 1154,
      "dey": 1155,
      "mati": 1156,
      "vash": 1157,
      "nun": 1158,
      "kormadim": 1159,
      "wa": 1160,
      "bermiman": 1161,
      "tirib": 1162,
      "joyida": 1163,
      "dala": 1164,
      "eka": 1165,
      "qolgan": 1166,
      "tarkan": 1167,
      "oynak": 1168,
      "ora": 1169,
      "qattiq": 1170,
      "sovgaga": 1171,
      "yemas": 1172,
      "ovoldim": 1173,
      "2ta": 1174,
      "ulan": 1175,
      "zin": 1176,
      "nat": 1177,
      "upakovka": 1178,
      "nisbatan": 1179,
      "oson": 1180,
      "shok": 1181,
      "yul": 1182,
      "ishlatishga": 1183,
      "mamnun": 1184,
      "fo": 1185,
      "og": 1186,
      "zaryadka": 1187,
      "assalamu": 1188,
      "ishlash": 1189,
      "nej": 1190,
      "ichidan": 1191,
      "tufta": 1192,
      "sidan": 1193,
      "qilin": 1194,
      "tushmadi": 1195,
      "keladi": 1196,
      "telefonga": 1197,
      "bowqa": 1198,
      "sim": 1199,
      "massa": 1200,
      "tomo": 1201,
      "tezkor": 1202,
      "gim": 1203,
      "lu": 1204,
      "qizim": 1205,
      "xursandman": 1206,
      "shikar": 1207,
      "kic": 1208,
      "mushu": 1209,
      "boladimi": 1210,
      "fut": 1211,
      "pka": 1212,
      "ketgan": 1213,
      "bormi": 1214,
      "air": 1215,
      "ich": 1216,
      "pr": 1217,
      "kot": 1218,
      "mazasi": 1219,
      "lon": 1220,
      "mayin": 1221,
      "glimda": 1222,
      "ishlavotti": 1223,
      "kul": 1224,
      "bulishi": 1225,
      "mayda": 1226,
      "tinga": 1227,
      "vob": 1228,
      "kraso": 1229,
      "malol": 1230,
      "futbol": 1231,
      "mahsulotga": 1232,
      "medi": 1233,
      "skidka": 1234,
      "bek": 1235,
      "mol": 1236,
      "eken": 1237,
      "yeken": 1238,
      "dor": 1239,
      "uzun": 1240,
      "kutkan": 1241,
      "dagidek": 1242,
      "20": 1243,
      "aj": 1244,
      "sek": 1245,
      "perfect": 1246,
      "qanaqa": 1247,
      "maskan": 1248,
      "inglar": 1249,
      "yil": 1250,
      "kro": 1251,
      "ginali": 1252,
      "baland": 1253,
      "olmadim": 1254,
      "kopi": 1255,
      "bemalol": 1256,
      "pods": 1257,
      "lkn": 1258,
      "qar": 1259,
      "kunga": 1260,
      "ning": 1261,
      "щe": 1262,
      "lariyam": 1263,
      "musor": 1264,
      "ketadi": 1265,
      "viy": 1266,
      "baho": 1267,
      "hoh": 1268,
      "musr": 1269,
      "fis": 1270,
      "bosa": 1271,
      "es": 1272,
      "the": 1273,
      "vaktida": 1274,
      "ila": 1275,
      "ishilarga": 1276,
      "vashshe": 1277,
      "normal": 1278,
      "mdan": 1279,
      "yori": 1280,
      "shar": 1281,
      "qoyil": 1282,
      "almashtirib": 1283,
      "yaxsh": 1284,
      "hozircha": 1285,
      "pep": 1286,
      "toy": 1287,
      "ishlati": 1288,
      "chiqti": 1289,
      "lmadi": 1290,
      "yopi": 1291,
      "oxsha": 1292,
      "onam": 1293,
      "barcha": 1294,
      "digan": 1295,
      "lagandek": 1296,
      "metr": 1297,
      "zv": 1298,
      "tash": 1299,
      "sav": 1300,
      "kod": 1301,
      "sfatli": 1302,
      "tasha": 1303,
      "ishlaydi": 1304,
      "chida": 1305,
      "unaqa": 1306,
      "berib": 1307,
      "qoray": 1308,
      "kaytar": 1309,
      "rostan": 1310,
      "efek": 1311,
      "chot": 1312,
      "shik": 1313,
      "tuw": 1314,
      "alda": 1315,
      "bolsin": 1316,
      "kursa": 1317,
      "kattaroq": 1318,
      "shampun": 1319,
      "ishlab": 1320,
      "yumshok": 1321,
      "tomoni": 1322,
      "qis": 1323,
      "soz": 1324,
      "uzim": 1325,
      "karob": 1326,
      "xorosho": 1327,
      "yal": 1328,
      "boli": 1329,
      "gich": 1330,
      "kimmat": 1331,
      "kutganimdanam": 1332,
      "11": 1333,
      "yaxw": 1334,
      "imiz": 1335,
      "but": 1336,
      "pax": 1337,
      "yumshoqqina": 1338,
      "ligini": 1339,
      "etib": 1340,
      "vet": 1341,
      "effekt": 1342,
      "kizimga": 1343,
      "gin": 1344,
      "rib": 1345,
      "ranglari": 1346,
      "zooor": 1347,
      "boy": 1348,
      "zam": 1349,
      "magandim": 1350,
      "ishlamas": 1351,
      "uzoq": 1352,
      "tam": 1353,
      "raxmad": 1354,
      "los": 1355,
      "oldm": 1356,
      "ishlamayabdi": 1357,
      "olin": 1358,
      "beradi": 1359,
      "shuni": 1360,
      "mumkinmas": 1361,
      "ilti": 1362,
      "ang": 1363,
      "mag": 1364,
      "laydi": 1365,
      "silaga": 1366,
      "rilgan": 1367,
      "uylaganimdan": 1368,
      "inchi": 1369,
      "material": 1370,
      "afsuslan": 1371,
      "dabdala": 1372,
      "iloji": 1373,
      "ishlavoti": 1374,
      "55": 1375,
      "and": 1376,
      "qolarkan": 1377,
      "mazzali": 1378,
      "zaryadkasi": 1379,
      "lishdi": 1380,
      "asal": 1381,
      "olcham": 1382,
      "nafis": 1383,
      "javob": 1384,
      "narhiga": 1385,
      "zon": 1386,
      "delka": 1387,
      "omela": 1388,
      "db": 1389,
      "odam": 1390,
      "tini": 1391,
      "nice": 1392,
      "bermadi": 1393,
      "ganimda": 1394,
      "aytilgan": 1395,
      "ln": 1396,
      "nam": 1397,
      "sil": 1398,
      "sir": 1399,
      "ime": 1400,
      "mart": 1401,
      "zaryat": 1402,
      "vaqt": 1403,
      "mustah": 1404,
      "50": 1405,
      "az": 1406,
      "you": 1407,
      "qiyin": 1408,
      "bilin": 1409,
      "bass": 1410,
      "ciroyli": 1411,
      "iltimos": 1412,
      "eshi": 1413,
      "koldi": 1414,
      "kopro": 1415,
      "mustahkam": 1416,
      "olishga": 1417,
      "ishlaringizga": 1418,
      "futbolka": 1419,
      "aridim": 1420,
      "bundan": 1421,
      "bra": 1422,
      "ux": 1423,
      "gar": 1424,
      "otkir": 1425,
      "xu": 1426,
      "mada": 1427,
      "gakan": 1428,
      "maxsulotga": 1429,
      "aytgan": 1430,
      "ekran": 1431,
      "larda": 1432,
      "berdim": 1433,
      "tira": 1434,
      "larini": 1435,
      "alba": 1436,
      "olila": 1437,
      "aylan": 1438,
      "idek": 1439,
      "mm": 1440,
      "ola": 1441,
      "olmanglar": 1442,
      "ajoyip": 1443,
      "sezi": 1444,
      "yomonmas": 1445,
      "ruch": 1446,
      "yer": 1447,
      "ishonchli": 1448,
      "kim": 1449,
      "qdi": 1450,
      "yoo": 1451,
      "keti": 1452,
      "bergan": 1453,
      "komp": 1454,
      "uglimga": 1455,
      "vot": 1456,
      "sev": 1457,
      "tibdi": 1458,
      "birinchi": 1459,
      "xozircha": 1460,
      "iwlat": 1461,
      "gimga": 1462,
      "osh": 1463,
      "sina": 1464,
      "chok": 1465,
      "topi": 1466,
      "av": 1467,
      "esa": 1468,
      "kota": 1469,
      "qoladi": 1470,
      "idish": 1471,
      "ser": 1472,
      "tori": 1473,
      "ravi": 1474,
      "sig": 1475,
      "superrr": 1476,
      "vom": 1477,
      "jona": 1478,
      "ishlama": 1479,
      "xolatda": 1480,
      "smart": 1481,
      "gayam": 1482,
      "kup": 1483,
      "hafta": 1484,
      "rangidan": 1485,
      "rosayam": 1486,
      "matosi": 1487,
      "mamnunman": 1488,
      "qili": 1489,
      "para": 1490,
      "haqiqat": 1491,
      "nejniy": 1492,
      "arginal": 1493,
      "best": 1494,
      "tanlov": 1495,
      "shikarno": 1496,
      "pepsi": 1497,
      "harid": 1498,
      "layman": 1499,
      "hidiyam": 1500,
      "urtacha": 1501,
      "mumkun": 1502,
      "farzandim": 1503,
      "fka": 1504,
      "lak": 1505,
      "tekshir": 1506,
      "tugab": 1507,
      "xodimlariga": 1508,
      "kutkanim": 1509,
      "turi": 1510,
      "airpods": 1511,
      "tok": 1512,
      "qoniq": 1513,
      "dostavka": 1514,
      "karta": 1515,
      "uzilib": 1516,
      "tip": 1517,
      "ishni": 1518,
      "lardan": 1519,
      "jiyan": 1520,
      "sekin": 1521,
      "jmi": 1522,
      "om": 1523,
      "sm": 1524,
      "siy": 1525,
      "yoki": 1526,
      "shiq": 1527,
      "xid": 1528,
      "sovka": 1529,
      "zakazimni": 1530,
      "albatta": 1531,
      "1ta": 1532,
      "joni": 1533,
      "koy": 1534,
      "konglimda": 1535,
      "yilgan": 1536,
      "barakali": 1537,
      "batarey": 1538,
      "poq": 1539,
      "ty": 1540,
      "unadi": 1541,
      "qog": 1542,
      "olishi": 1543,
      "yabti": 1544,
      "garan": 1545,
      "kame": 1546,
      "tab": 1547,
      "rassa": 1548,
      "bolardi": 1549,
      "sya": 1550,
      "kazi": 1551,
      "maska": 1552,
      "rasmdaka": 1553,
      "duz": 1554,
      "sto": 1555,
      "toldi": 1556,
      "oludim": 1557,
      "sani": 1558,
      "1kunda": 1559,
      "ton": 1560,
      "choy": 1561,
      "qiladi": 1562,
      "biza": 1563,
      "tovarni": 1564,
      "len": 1565,
      "kuy": 1566,
      "sovg": 1567,
      "quvvat": 1568,
      "dib": 1569,
      "ishdi": 1570,
      "narmal": 1571,
      "bilmadim": 1572,
      "yulduz": 1573,
      "ten": 1574,
      "kala": 1575,
      "one": 1576,
      "qotib": 1577,
      "uni": 1578,
      "mala": 1579,
      "klas": 1580,
      "ichidagi": 1581,
      "ykan": 1582,
      "ekanu": 1583,
      "olma": 1584,
      "chet": 1585,
      "buyurtmamni": 1586,
      "doq": 1587,
      "kimga": 1588,
      "gacha": 1589,
      "kurinishi": 1590,
      "sve": 1591,
      "chiqib": 1592,
      "holda": 1593,
      "kutilgan": 1594,
      "taro": 1595,
      "buzuq": 1596,
      "kabel": 1597,
      "xech": 1598,
      "daka": 1599,
      "hu": 1600,
      "oila": 1601,
      "orqa": 1602,
      "mudda": 1603,
      "tushib": 1604,
      "baxo": 1605,
      "udobniy": 1606,
      "xamyonbop": 1607,
      "lmagan": 1608,
      "qb": 1609,
      "kak": 1610,
      "buyum": 1611,
      "musur": 1612,
      "vizor": 1613,
      "ushla": 1614,
      "sog": 1615,
      "bolajon": 1616,
      "larimni": 1617,
      "tarafi": 1618,
      "chidasa": 1619,
      "30": 1620,
      "der": 1621,
      "ozga": 1622,
      "oglim": 1623,
      "lim": 1624,
      "gidan": 1625,
      "gel": 1626,
      "ishli": 1627,
      "kurat": 1628,
      "telefoni": 1629,
      "ikkin": 1630,
      "hamyonbob": 1631,
      "zori": 1632,
      "gilo": 1633,
      "sot": 1634,
      "quri": 1635,
      "kattagina": 1636,
      "uchib": 1637,
      "krasi": 1638,
      "aro": 1639,
      "turibdi": 1640,
      "gur": 1641,
      "gandan": 1642,
      "eski": 1643,
      "berishi": 1644,
      "kutganimdanda": 1645,
      "yuzimga": 1646,
      "ishlaringa": 1647,
      "sta": 1648,
      "voob": 1649,
      "lanib": 1650,
      "oylagandim": 1651,
      "buzildi": 1652,
      "farzand": 1653,
      "aso": 1654,
      "pol": 1655,
      "pon": 1656,
      "mashina": 1657,
      "cho": 1658,
      "shiga": 1659,
      "olsa": 1660,
      "kura": 1661,
      "dizayn": 1662,
      "nan": 1663,
      "ql": 1664,
      "razmerga": 1665,
      "ikkinchi": 1666,
      "ler": 1667,
      "lasa": 1668,
      "amiz": 1669,
      "nim": 1670,
      "muammo": 1671,
      "sovun": 1672,
      "red": 1673,
      "boldim": 1674,
      "rarkan": 1675,
      "chun": 1676,
      "taq": 1677,
      "manda": 1678,
      "chidam": 1679,
      "olmadi": 1680,
      "telefonni": 1681,
      "berildi": 1682,
      "omadi": 1683,
      "xl": 1684,
      "kech": 1685,
      "mahsulo": 1686,
      "uje": 1687,
      "ishlata": 1688,
      "madm": 1689,
      "pulga": 1690,
      "butun": 1691,
      "garanti": 1692,
      "br": 1693,
      "yakan": 1694,
      "mang": 1695,
      "toliq": 1696,
      "olishim": 1697,
      "ishlashlari": 1698,
      "qlaman": 1699,
      "ishlami": 1700,
      "bolmadi": 1701,
      "bulsa": 1702,
      "oyiq": 1703,
      "thanks": 1704,
      "kickina": 1705,
      "bekor": 1706,
      "usti": 1707,
      "ladimi": 1708,
      "choynak": 1709,
      "maxsulo": 1710,
      "gizni": 1711,
      "yordam": 1712,
      "reklama": 1713,
      "qorayib": 1714,
      "yoqadi": 1715,
      "muman": 1716,
      "nabor": 1717,
      "qolyapti": 1718,
      "daz": 1719,
      "tiri": 1720,
      "yoni": 1721,
      "bolarkan": 1722,
      "etibor": 1723,
      "etu": 1724,
      "kk": 1725,
      "mini": 1726,
      "niki": 1727,
      "sob": 1728,
      "uuuu": 1729,
      "ax": 1730,
      "oooo": 1731,
      "tanlagan": 1732,
      "kelibdi": 1733,
      "koproq": 1734,
      "loyiq": 1735,
      "ogan": 1736,
      "dayam": 1737,
      "chon": 1738,
      "tiga": 1739,
      "ishlarkan": 1740,
      "minga": 1741,
      "olmayapti": 1742,
      "shiy": 1743,
      "vaw": 1744,
      "zak": 1745,
      "bergandim": 1746,
      "yetkazi": 1747,
      "bittada": 1748,
      "larin": 1749,
      "bomidi": 1750,
      "yetadi": 1751,
      "rasmdegi": 1752,
      "uvdim": 1753,
      "olganimga": 1754,
      "yaroq": 1755,
      "silar": 1756,
      "jaq": 1757,
      "qoya": 1758,
      "ozini": 1759,
      "televizor": 1760,
      "oylaganimdek": 1761,
      "ishlatyapman": 1762,
      "ksi": 1763,
      "uyin": 1764,
      "voman": 1765,
      "rasmdagiday": 1766,
      "xoh": 1767,
      "real": 1768,
      "yekti": 1769,
      "buyurtmam": 1770,
      "zvrat": 1771,
      "par": 1772,
      "chu": 1773,
      "qadoq": 1774,
      "chiroylik": 1775,
      "dog": 1776,
      "ummuman": 1777,
      "azgina": 1778,
      "tekshirib": 1779,
      "ayo": 1780,
      "if": 1781,
      "tt": 1782,
      "yni": 1783,
      "sida": 1784,
      "kalon": 1785,
      "lok": 1786,
      "narsam": 1787,
      "marketdan": 1788,
      "noqulay": 1789,
      "minnat": 1790,
      "qopqo": 1791,
      "qaraganda": 1792,
      "kalta": 1793,
      "chidamli": 1794,
      "fle": 1795,
      "uja": 1796,
      "ven": 1797,
      "xona": 1798,
      "yarim": 1799,
      "gandi": 1800,
      "oqar": 1801,
      "qizib": 1802,
      "turdi": 1803,
      "sar": 1804,
      "xush": 1805,
      "yaxshiroq": 1806,
      "kecha": 1807,
      "qaz": 1808,
      "xida": 1809,
      "pad": 1810,
      "konfet": 1811,
      "atak": 1812,
      "oka": 1813,
      "rar": 1814,
      "yuzni": 1815,
      "dorman": 1816,
      "dazmol": 1817,
      "14": 1818,
      "aja": 1819,
      "ful": 1820,
      "tda": 1821,
      "chroyli": 1822,
      "narsani": 1823,
      "quru": 1824,
      "kley": 1825,
      "qimi": 1826,
      "lini": 1827,
      "ollo": 1828,
      "qalam": 1829,
      "sochi": 1830,
      "qolimga": 1831,
      "kurdim": 1832,
      "kamchi": 1833,
      "jaqsi": 1834,
      "dra": 1835,
      "ska": 1836,
      "tilib": 1837,
      "ishlatilgan": 1838,
      "stik": 1839,
      "tozala": 1840,
      "xizmati": 1841,
      "asosiy": 1842,
      "garantiya": 1843,
      "ega": 1844,
      "rangini": 1845,
      "minut": 1846,
      "priyat": 1847,
      "bman": 1848,
      "ilgan": 1849,
      "ogri": 1850,
      "wo": 1851,
      "orniga": 1852,
      "like": 1853,
      "zurrr": 1854,
      "kok": 1855,
      "padar": 1856,
      "xidiyam": 1857,
      "sovgasi": 1858,
      "ach": 1859,
      "dur": 1860,
      "vati": 1861,
      "bervor": 1862,
      "del": 1863,
      "1010": 1864,
      "magazin": 1865,
      "krasota": 1866,
      "ruchka": 1867,
      "kuni": 1868,
      "tushun": 1869,
      "olo": 1870,
      "shdi": 1871,
      "gapyoq": 1872,
      "nasa": 1873,
      "aloxida": 1874,
      "deyilgan": 1875,
      "merka": 1876,
      "udm": 1877,
      "olilar": 1878,
      "plast": 1879,
      "kamera": 1880,
      "vawwe": 1881,
      "xaridim": 1882,
      "qimat": 1883,
      "moshina": 1884,
      "shundan": 1885,
      "shunday": 1886,
      "shti": 1887,
      "raxma": 1888,
      "lot": 1889,
      "bog": 1890,
      "miydi": 1891,
      "hajmi": 1892,
      "bolalarga": 1893,
      "korsat": 1894,
      "moqda": 1895,
      "gilof": 1896,
      "olganimdan": 1897,
      "degidek": 1898,
      "gra": 1899,
      "tikilgan": 1900,
      "jud": 1901,
      "toq": 1902,
      "aaa": 1903,
      "sezmadim": 1904,
      "imei": 1905,
      "ponravi": 1906,
      "wat": 1907,
      "ishlataman": 1908,
      "bizaga": 1909,
      "asosiysi": 1910,
      "sn": 1911,
      "yaxwikan": 1912,
      "sochni": 1913,
      "ezi": 1914,
      "ildi": 1915,
      "vu": 1916,
      "sifatga": 1917,
      "berarkan": 1918,
      "ozidan": 1919,
      "buzilib": 1920,
      "konglimdagidek": 1921,
      "au": 1922,
      "achin": 1923,
      "hone": 1924,
      "ishda": 1925,
      "undan": 1926,
      "teg": 1927,
      "narsasi": 1928,
      "lariz": 1929,
      "ishlatdim": 1930,
      "sfat": 1931,
      "onamga": 1932,
      "olinglar": 1933,
      "el": 1934,
      "oydan": 1935,
      "zirak": 1936,
      "rogi": 1937,
      "quy": 1938,
      "klassno": 1939,
      "sfatiga": 1940,
      "kno": 1941,
      "sor": 1942,
      "mana": 1943,
      "love": 1944,
      "chegir": 1945,
      "promo": 1946,
      "qoydim": 1947,
      "ixchamgina": 1948,
      "ah": 1949,
      "iy": 1950,
      "las": 1951,
      "yoqim": 1952,
      "chiqa": 1953,
      "bas": 1954,
      "yurishga": 1955,
      "ochilgan": 1956,
      "yuzim": 1957,
      "massaj": 1958,
      "40": 1959,
      "oladi": 1960,
      "qoq": 1961,
      "svet": 1962,
      "vori": 1963,
      "sib": 1964,
      "kipri": 1965,
      "chiroylikan": 1966,
      "borakan": 1967,
      "chikmadi": 1968,
      "sela": 1969,
      "hozir": 1970,
      "ajo": 1971,
      "kuchli": 1972,
      "ganimga": 1973,
      "rangli": 1974,
      "dovol": 1975,
      "kutganimday": 1976,
      "ochki": 1977,
      "stvasi": 1978,
      "eto": 1979,
      "silarga": 1980,
      "aroq": 1981,
      "imba": 1982,
      "koramiz": 1983,
      "hodim": 1984,
      "tmadim": 1985,
      "rossayam": 1986,
      "tasir": 1987,
      "aniq": 1988,
      "xoxlagan": 1989,
      "bon": 1990,
      "jat": 1991,
      "oda": 1992,
      "muh": 1993,
      "mir": 1994,
      "alka": 1995,
      "jaksi": 1996,
      "qoli": 1997,
      "kundan": 1998,
      "ooo": 1999,
      "mazasiga": 2000,
      "doimgidek": 2001,
      "yashi": 2002,
      "tiki": 2003,
      "tokilib": 2004,
      "mela": 2005,
      "sovu": 2006,
      "yarawa": 2007,
      "tekis": 2008,
      "laganimdek": 2009,
      "tagi": 2010,
      "saq": 2011,
      "kutib": 2012,
      "milo": 2013,
      "hiz": 2014,
      "koringani": 2015,
      "qoniqar": 2016,
      "ogandim": 2017,
      "narh": 2018,
      "soa": 2019,
      "pir": 2020,
      "kurin": 2021,
      "magni": 2022,
      "narmalni": 2023,
      "iwi": 2024,
      "laganim": 2025,
      "soqol": 2026,
      "havo": 2027,
      "batare": 2028,
      "rasimdagidek": 2029,
      "tika": 2030,
      "bomaydi": 2031,
      "qilishi": 2032,
      "narsalar": 2033,
      "arzim": 2034,
      "aynan": 2035,
      "net": 2036,
      "narxlari": 2037,
      "dokon": 2038,
      "vide": 2039,
      "barchaga": 2040,
      "qopqogi": 2041,
      "nma": 2042,
      "pra": 2043,
      "wga": 2044,
      "xkam": 2045,
      "tilayman": 2046,
      "ekanda": 2047,
      "kace": 2048,
      "kanday": 2049,
      "zalo": 2050,
      "teli": 2051,
      "ketar": 2052,
      "oziyam": 2053,
      "malen": 2054,
      "haqiqiy": 2055,
      "charcha": 2056,
      "bla": 2057,
      "gre": 2058,
      "digi": 2059,
      "yaq": 2060,
      "tiyn": 2061,
      "pulimga": 2062,
      "sovetu": 2063,
      "unchali": 2064,
      "sotuvchilarga": 2065,
      "yogi": 2066,
      "buy": 2067,
      "chap": 2068,
      "mok": 2069,
      "kichkinagina": 2070,
      "usb": 2071,
      "voobщe": 2072,
      "hamda": 2073,
      "tomon": 2074,
      "mila": 2075,
      "degan": 2076,
      "qot": 2077,
      "anchadan": 2078,
      "sovetuyu": 2079,
      "25": 2080,
      "pam": 2081,
      "ladim": 2082,
      "yotibdi": 2083,
      "zapax": 2084,
      "toch": 2085,
      "ketyapti": 2086,
      "oqib": 2087,
      "alish": 2088,
      "ble": 2089,
      "mak": 2090,
      "val": 2091,
      "mikra": 2092,
      "iwlamadi": 2093,
      "mustaxkam": 2094,
      "adash": 2095,
      "topila": 2096,
      "yaroqsiz": 2097,
      "ex": 2098,
      "sari": 2099,
      "das": 2100,
      "xira": 2101,
      "miy": 2102,
      "bez": 2103,
      "ozimga": 2104,
      "salfet": 2105,
      "ikkita": 2106,
      "olchami": 2107,
      "daqa": 2108,
      "tas": 2109,
      "vau": 2110,
      "aloo": 2111,
      "arzimas": 2112,
      "qoyib": 2113,
      "bozorda": 2114,
      "kildim": 2115,
      "farq": 2116,
      "komplek": 2117,
      "wu": 2118,
      "galati": 2119,
      "lah": 2120,
      "tal": 2121,
      "talab": 2122,
      "gapyo": 2123,
      "ishlayapdi": 2124,
      "bulib": 2125,
      "kiyib": 2126,
      "uyga": 2127,
      "its": 2128,
      "yabman": 2129,
      "chegirma": 2130,
      "olar": 2131,
      "oqi": 2132,
      "sk": 2133,
      "archa": 2134,
      "nadi": 2135,
      "arziydigan": 2136,
      "pomada": 2137,
      "karobka": 2138,
      "18": 2139,
      "uc": 2140,
      "chan": 2141,
      "safar": 2142,
      "xato": 2143,
      "qulogi": 2144,
      "iphone": 2145,
      "arzimedi": 2146,
      "zan": 2147,
      "makul": 2148,
      "kiya": 2149,
      "yuzga": 2150,
      "menda": 2151,
      "rov": 2152,
      "tug": 2153,
      "ayni": 2154,
      "rezin": 2155,
      "qoydi": 2156,
      "almashtirsa": 2157,
      "idishi": 2158,
      "plo": 2159,
      "ketib": 2160,
      "qirilgan": 2161,
      "birak": 2162,
      "som": 2163,
      "qilsam": 2164,
      "duyu": 2165,
      "kkur": 2166,
      "shov": 2167,
      "vab": 2168,
      "biy": 2169,
      "kotar": 2170,
      "otkaz": 2171,
      "rangiyam": 2172,
      "tasiri": 2173,
      "suvga": 2174,
      "sinab": 2175,
      "parashok": 2176,
      "ap": 2177,
      "uvchi": 2178,
      "masu": 2179,
      "yali": 2180,
      "yapmiz": 2181,
      "kongil": 2182,
      "likni": 2183,
      "uylagan": 2184,
      "telfon": 2185,
      "tashakkur": 2186,
      "muhimi": 2187,
      "malenkiy": 2188,
      "tiynga": 2189,
      "13": 2190,
      "lma": 2191,
      "mish": 2192,
      "yak": 2193,
      "yasi": 2194,
      "vop": 2195,
      "originali": 2196,
      "soatda": 2197,
      "rasim": 2198,
      "yolgon": 2199,
      "uk": 2200,
      "chek": 2201,
      "rrrr": 2202,
      "bulmaydi": 2203,
      "shunaka": 2204,
      "blu": 2205,
      "den": 2206,
      "fun": 2207,
      "ksiya": 2208,
      "kras": 2209,
      "umi": 2210,
      "zurr": 2211,
      "mush": 2212,
      "yokimli": 2213,
      "korib": 2214,
      "bel": 2215,
      "kurmadim": 2216,
      "iwlawi": 2217,
      "negadir": 2218,
      "termos": 2219,
      "kabeli": 2220,
      "qilingan": 2221,
      "mushuk": 2222,
      "savdo": 2223,
      "ftar": 2224,
      "mapti": 2225,
      "uzumdan": 2226,
      "stek": 2227,
      "quali": 2228,
      "qogan": 2229,
      "rasimdagi": 2230,
      "com": 2231,
      "gen": 2232,
      "skiy": 2233,
      "ekanku": 2234,
      "ingi": 2235,
      "suyuq": 2236,
      "qip": 2237,
      "sizga": 2238,
      "yaxwimas": 2239,
      "bolalarim": 2240,
      "soatni": 2241,
      "foydasini": 2242,
      "issiqqina": 2243,
      "qizil": 2244,
      "vomman": 2245,
      "bb": 2246,
      "idan": 2247,
      "ly": 2248,
      "lami": 2249,
      "zoraka": 2250,
      "chozi": 2251,
      "tiradi": 2252,
      "muo": 2253,
      "koni": 2254,
      "otka": 2255,
      "bilindi": 2256,
      "tri": 2257,
      "qilarkan": 2258,
      "ishlatmadim": 2259,
      "bita": 2260,
      "aldab": 2261,
      "zakazlarim": 2262,
      "lashga": 2263,
      "xoroshiy": 2264,
      "upakovkasi": 2265,
      "efekti": 2266,
      "dr": 2267,
      "oji": 2268,
      "ogir": 2269,
      "plan": 2270,
      "tv": 2271,
      "daftar": 2272,
      "chq": 2273,
      "buk": 2274,
      "muro": 2275,
      "pudra": 2276,
      "otmagan": 2277,
      "aaaa": 2278,
      "yoru": 2279,
      "tamiga": 2280,
      "farzandimga": 2281,
      "quality": 2282,
      "ili": 2283,
      "lya": 2284,
      "poro": 2285,
      "dastavka": 2286,
      "orna": 2287,
      "saba": 2288,
      "tog": 2289,
      "narxlar": 2290,
      "bolalarimga": 2291,
      "poddelka": 2292,
      "hursandman": 2293,
      "dizayni": 2294,
      "karobkasi": 2295,
      "minnatdorman": 2296,
      "pamper": 2297,
      "oyga": 2298,
      "kanfet": 2299,
      "menduyu": 2300,
      "qolib": 2301,
      "udo": 2302,
      "0000": 2303,
      "boshqalarga": 2304,
      "ichiga": 2305,
      "linglar": 2306,
      "kutganimiz": 2307,
      "yozib": 2308,
      "batareka": 2309,
      "fan": 2310,
      "por": 2311,
      "mashin": 2312,
      "shek": 2313,
      "ken": 2314,
      "boshi": 2315,
      "quti": 2316,
      "bay": 2317,
      "pulim": 2318,
      "yuqori": 2319,
      "dostav": 2320,
      "ovozlari": 2321,
      "isit": 2322,
      "essiz": 2323,
      "xudi": 2324,
      "fleshka": 2325,
      "steklo": 2326,
      "oc": 2327,
      "rish": 2328,
      "sme": 2329,
      "tra": 2330,
      "kelarkan": 2331,
      "qidir": 2332,
      "buladimi": 2333,
      "sos": 2334,
      "tuk": 2335,
      "pulini": 2336,
      "togrisi": 2337,
      "issik": 2338,
      "afsuski": 2339,
      "koraman": 2340,
      "sobga": 2341,
      "ujas": 2342,
      "surat": 2343,
      "yetarkan": 2344,
      "maysiz": 2345,
      "anchaga": 2346,
      "kizim": 2347,
      "zorrrr": 2348,
      "kotakon": 2349,
      "kalonka": 2350,
      "kiprik": 2351,
      "organ": 2352,
      "kachi": 2353,
      "ishlame": 2354,
      "mikro": 2355,
      "his": 2356,
      "oylaganim": 2357,
      "holati": 2358,
      "iwlatib": 2359,
      "kayf": 2360,
      "xoxlagandek": 2361,
      "haqiqatdan": 2362,
      "ayolimga": 2363,
      "zanji": 2364,
      "ingichka": 2365,
      "23": 2366,
      "ban": 2367,
      "fen": 2368,
      "nol": 2369,
      "usha": 2370,
      "voy": 2371,
      "zza": 2372,
      "sif": 2373,
      "det": 2374,
      "yani": 2375,
      "bolad": 2376,
      "qaytarmoqchiman": 2377,
      "korsatish": 2378,
      "normalno": 2379,
      "kursatilgan": 2380,
      "chunki": 2381,
      "mn": 2382,
      "omenduyu": 2383,
      "tni": 2384,
      "qizalo": 2385,
      "bumaydi": 2386,
      "somga": 2387,
      "tarif": 2388,
      "shapka": 2389,
      "mayka": 2390,
      "bolajoni": 2391,
      "udobni": 2392,
      "batareykasi": 2393,
      "quruq": 2394,
      "plastmassa": 2395,
      "planshe": 2396,
      "marketka": 2397,
      "moshin": 2398,
      "oling": 2399,
      "maslaha": 2400,
      "fekt": 2401,
      "sotuv": 2402,
      "zakaza": 2403,
      "ishlatishni": 2404,
      "pampers": 2405,
      "gram": 2406,
      "hush": 2407,
      "tol": 2408,
      "litr": 2409,
      "yom": 2410,
      "bomadi": 2411,
      "joylari": 2412,
      "bular": 2413,
      "superr": 2414,
      "biri": 2415,
      "biram": 2416,
      "arzirkan": 2417,
      "qilsa": 2418,
      "barib": 2419,
      "kichkinaroq": 2420,
      "45": 2421,
      "glik": 2422,
      "him": 2423,
      "iga": 2424,
      "spo": 2425,
      "vno": 2426,
      "raq": 2427,
      "xitoy": 2428,
      "bering": 2429,
      "paket": 2430,
      "bolamga": 2431,
      "oziga": 2432,
      "yumsho": 2433,
      "ratsiya": 2434,
      "kaytarib": 2435,
      "uxsha": 2436,
      "yetkazildi": 2437,
      "yaqshi": 2438,
      "3ta": 2439,
      "cu": 2440,
      "orta": 2441,
      "siyam": 2442,
      "kara": 2443,
      "zakol": 2444,
      "madik": 2445,
      "qolamiz": 2446,
      "xolos": 2447,
      "uzimga": 2448,
      "ikkala": 2449,
      "berilgan": 2450,
      "issiqina": 2451,
      "bunga": 2452,
      "qogoz": 2453,
      "poroshok": 2454,
      "pen": 2455,
      "teri": 2456,
      "zer": 2457,
      "olmaydi": 2458,
      "musir": 2459,
      "vozvrat": 2460,
      "martta": 2461,
      "ligiga": 2462,
      "rekomenduyu": 2463,
      "promokod": 2464,
      "ucun": 2465,
      "tsa": 2466,
      "kepti": 2467,
      "chiman": 2468,
      "rahma": 2469,
      "tosh": 2470,
      "des": 2471,
      "bollarimga": 2472,
      "xaqi": 2473,
      "xolda": 2474,
      "rasmdegidek": 2475,
      "kozoynak": 2476,
      "great": 2477,
      "maslahatim": 2478,
      "kle": 2479,
      "ll": 2480,
      "pan": 2481,
      "lashi": 2482,
      "chiroq": 2483,
      "narkan": 2484,
      "gichi": 2485,
      "chalar": 2486,
      "qolar": 2487,
      "qozon": 2488,
      "shak": 2489,
      "sinte": 2490,
      "turar": 2491,
      "omelar": 2492,
      "chotkiy": 2493,
      "xaridimdan": 2494,
      "baribir": 2495,
      "24": 2496,
      "gor": 2497,
      "oya": 2498,
      "olamiz": 2499,
      "wer": 2500,
      "tiy": 2501,
      "kata": 2502,
      "kelishi": 2503,
      "kelishdi": 2504,
      "laring": 2505,
      "buli": 2506,
      "hil": 2507,
      "mayli": 2508,
      "qolda": 2509,
      "qaytarildi": 2510,
      "efekt": 2511,
      "90": 2512,
      "bti": 2513,
      "tay": 2514,
      "chizi": 2515,
      "qachon": 2516,
      "let": 2517,
      "yonmadi": 2518,
      "kutgandan": 2519,
      "oylagandan": 2520,
      "rostanam": 2521,
      "croyli": 2522,
      "lyu": 2523,
      "xursan": 2524,
      "oyim": 2525,
      "inter": 2526,
      "ong": 2527,
      "teshik": 2528,
      "kofe": 2529,
      "podar": 2530,
      "yonmayapti": 2531,
      "pulti": 2532,
      "yirtilgan": 2533,
      "qismi": 2534,
      "choklari": 2535,
      "kutkanimdan": 2536,
      "hizmat": 2537,
      "cok": 2538,
      "mcha": 2539,
      "lad": 2540,
      "suri": 2541,
      "mitti": 2542,
      "res": 2543,
      "klasss": 2544,
      "kopga": 2545,
      "oylaganimdanam": 2546,
      "yorqin": 2547,
      "oppoq": 2548,
      "quvvati": 2549,
      "pryam": 2550,
      "redmi": 2551,
      "funksiya": 2552,
      "lta": 2553,
      "simi": 2554,
      "zorekan": 2555,
      "tabi": 2556,
      "olmas": 2557,
      "qigandim": 2558,
      "giya": 2559,
      "bur": 2560,
      "sof": 2561,
      "larizga": 2562,
      "sangiz": 2563,
      "ling": 2564,
      "kachestvasiga": 2565,
      "turib": 2566,
      "ting": 2567,
      "yengilgina": 2568,
      "kichkinekan": 2569,
      "ajayib": 2570,
      "dovolen": 2571,
      "16": 2572,
      "kichi": 2573,
      "chalik": 2574,
      "bermaydi": 2575,
      "produ": 2576,
      "ista": 2577,
      "iwlamayapti": 2578,
      "senu": 2579,
      "qarli": 2580,
      "votdi": 2581,
      "qimiman": 2582,
      "wow": 2583,
      "hodimlariga": 2584,
      "sposi": 2585,
      "2marta": 2586,
      "aga": 2587,
      "akurat": 2588,
      "zni": 2589,
      "kishiga": 2590,
      "temir": 2591,
      "narsalari": 2592,
      "mahsulotlar": 2593,
      "reme": 2594,
      "xafta": 2595,
      "tanla": 2596,
      "uyna": 2597,
      "berilmadi": 2598,
      "ishlaring": 2599,
      "yoshli": 2600,
      "krasofka": 2601,
      "jiyanimga": 2602,
      "bank": 2603,
      "kg": 2604,
      "omat": 2605,
      "rdi": 2606,
      "dak": 2607,
      "chang": 2608,
      "tili": 2609,
      "kupi": 2610,
      "notogri": 2611,
      "rasmi": 2612,
      "sep": 2613,
      "ligidan": 2614,
      "udobno": 2615,
      "plastik": 2616,
      "smartfon": 2617,
      "krasivo": 2618,
      "maxsuloti": 2619,
      "ad": 2620,
      "ck": 2621,
      "elek": 2622,
      "uglim": 2623,
      "xtida": 2624,
      "zang": 2625,
      "shisha": 2626,
      "keli": 2627,
      "baquvvat": 2628,
      "not": 2629,
      "narsalarim": 2630,
      "yumw": 2631,
      "bilma": 2632,
      "asli": 2633,
      "video": 2634,
      "salfetka": 2635,
      "asalo": 2636,
      "fsiya": 2637,
      "ulab": 2638,
      "anti": 2639,
      "yopti": 2640,
      "amga": 2641,
      "gandek": 2642,
      "yuri": 2643,
      "yedi": 2644,
      "rasmga": 2645,
      "dep": 2646,
      "mot": 2647,
      "kutmagandim": 2648,
      "tarok": 2649,
      "tarozi": 2650,
      "yetmadi": 2651,
      "yurib": 2652,
      "krasovka": 2653,
      "yirtilib": 2654,
      "kottaro": 2655,
      "kros": 2656,
      "omadilani": 2657,
      "nmaga": 2658,
      "oor": 2659,
      "prek": 2660,
      "xx": 2661,
      "mayapdi": 2662,
      "orginali": 2663,
      "chniy": 2664,
      "kamga": 2665,
      "qilar": 2666,
      "yut": 2667,
      "qur": 2668,
      "shadi": 2669,
      "bollarim": 2670,
      "tirdi": 2671,
      "pichoq": 2672,
      "rrr": 2673,
      "ishin": 2674,
      "bulsin": 2675,
      "korsatilgandek": 2676,
      "paypoq": 2677,
      "iwilaga": 2678,
      "60": 2679,
      "ml": 2680,
      "qancha": 2681,
      "kabi": 2682,
      "inga": 2683,
      "aloqa": 2684,
      "dosh": 2685,
      "qizlarimga": 2686,
      "uyda": 2687,
      "akkurat": 2688,
      "rivojini": 2689,
      "stoit": 2690,
      "yumwoq": 2691,
      "prekras": 2692,
      "lk": 2693,
      "vib": 2694,
      "malekum": 2695,
      "yaqin": 2696,
      "tiful": 2697,
      "sak": 2698,
      "ishchi": 2699,
      "qilamiz": 2700,
      "bist": 2701,
      "mizga": 2702,
      "sifatsz": 2703,
      "qayta": 2704,
      "qani": 2705,
      "qolga": 2706,
      "uuu": 2707,
      "kutgandek": 2708,
      "qopqoq": 2709,
      "sps": 2710,
      "qiziqarli": 2711,
      "yopil": 2712,
      "sezildi": 2713,
      "avval": 2714,
      "ishlamayapdi": 2715,
      "xushboy": 2716,
      "ajoib": 2717,
      "telifon": 2718,
      "ikan": 2719,
      "jo": 2720,
      "nn": 2721,
      "pman": 2722,
      "wunaqa": 2723,
      "lakan": 2724,
      "kuchi": 2725,
      "yuqa": 2726,
      "konglim": 2727,
      "birga": 2728,
      "narxini": 2729,
      "qaytara": 2730,
      "edik": 2731,
      "ciqdi": 2732,
      "qarab": 2733,
      "stoyki": 2734,
      "natijasi": 2735,
      "tushunmadim": 2736,
      "sariq": 2737,
      "ojiz": 2738,
      "oma": 2739,
      "maq": 2740,
      "makar": 2741,
      "chini": 2742,
      "zuur": 2743,
      "sifatida": 2744,
      "qila": 2745,
      "nal": 2746,
      "beau": 2747,
      "oth": 2748,
      "rez": 2749,
      "tirish": 2750,
      "pastroq": 2751,
      "paxta": 2752,
      "sevimli": 2753,
      "guruch": 2754,
      "zakazala": 2755,
      "kib": 2756,
      "ochiq": 2757,
      "oganimga": 2758,
      "uri": 2759,
      "van": 2760,
      "vasi": 2761,
      "kildi": 2762,
      "mun": 2763,
      "pushti": 2764,
      "tavfsiya": 2765,
      "kottagina": 2766,
      "lingan": 2767,
      "rangda": 2768,
      "zoooor": 2769,
      "kereli": 2770,
      "qildik": 2771,
      "xamyonbob": 2772,
      "menimcha": 2773,
      "chetko": 2774,
      "farzandlarimga": 2775,
      "kamchilik": 2776,
      "beautiful": 2777,
      "jal": 2778,
      "yla": 2779,
      "mav": 2780,
      "yozu": 2781,
      "tasav": 2782,
      "zulta": 2783,
      "olmagan": 2784,
      "vaщe": 2785,
      "kuyib": 2786,
      "muz": 2787,
      "tuldi": 2788,
      "bazi": 2789,
      "kunglimda": 2790,
      "bolmas": 2791,
      "ozroq": 2792,
      "yarashdi": 2793,
      "power": 2794,
      "buyurtmalarim": 2795,
      "karop": 2796,
      "effect": 2797,
      "mingga": 2798,
      "bunday": 2799,
      "sizlarmi": 2800,
      "boliwi": 2801,
      "chiqadi": 2802,
      "kongildagidek": 2803,
      "blueto": 2804,
      "cti": 2805,
      "otib": 2806,
      "xshi": 2807,
      "liga": 2808,
      "shibdi": 2809,
      "just": 2810,
      "kafo": 2811,
      "keng": 2812,
      "olsam": 2813,
      "bolishdi": 2814,
      "chaga": 2815,
      "tukilib": 2816,
      "quley": 2817,
      "malu": 2818,
      "kilgandim": 2819,
      "stoykiy": 2820,
      "batareyka": 2821,
      "qoniqarli": 2822,
      "shovqin": 2823,
      "egi": 2824,
      "n1": 2825,
      "xon": 2826,
      "yaxshisi": 2827,
      "ishdan": 2828,
      "uzumda": 2829,
      "bervori": 2830,
      "nosoz": 2831,
      "tezligi": 2832,
      "arzonroq": 2833,
      "rezulta": 2834,
      "qayer": 2835,
      "razmeriyam": 2836,
      "uzuklar": 2837,
      "shimcha": 2838,
      "uylagandim": 2839,
      "guzal": 2840,
      "plas": 2841,
      "farzandlarim": 2842,
      "19": 2843,
      "6r": 2844,
      "amaz": 2845,
      "gul": 2846,
      "hay": 2847,
      "kt": 2848,
      "sra": 2849,
      "lass": 2850,
      "kalin": 2851,
      "chiz": 2852,
      "kuyu": 2853,
      "ishlamidi": 2854,
      "teshi": 2855,
      "chikti": 2856,
      "bolam": 2857,
      "vapshi": 2858,
      "fir": 2859,
      "farqi": 2860,
      "ab": 2861,
      "ayol": 2862,
      "bl": 2863,
      "ih": 2864,
      "olarkan": 2865,
      "uzga": 2866,
      "juday": 2867,
      "insof": 2868,
      "sakan": 2869,
      "imni": 2870,
      "kuydi": 2871,
      "sifatini": 2872,
      "narxidan": 2873,
      "deyar": 2874,
      "aldim": 2875,
      "yetb": 2876,
      "tani": 2877,
      "olibman": 2878,
      "utkir": 2879,
      "pult": 2880,
      "pasta": 2881,
      "nimagadir": 2882,
      "hohlagan": 2883,
      "etiborli": 2884,
      "boglan": 2885,
      "vabshe": 2886,
      "murojat": 2887,
      "fik": 2888,
      "ssi": 2889,
      "daje": 2890,
      "ekn": 2891,
      "juna": 2892,
      "mater": 2893,
      "manim": 2894,
      "kegin": 2895,
      "ajoyb": 2896,
      "nomer": 2897,
      "nout": 2898,
      "vari": 2899,
      "berishga": 2900,
      "shunga": 2901,
      "yarmi": 2902,
      "ekrani": 2903,
      "mahsuloti": 2904,
      "amazing": 2905,
      "deyarli": 2906,
      "bras": 2907,
      "haridim": 2908,
      "pkasi": 2909,
      "spir": 2910,
      "mabdi": 2911,
      "lada": 2912,
      "zormas": 2913,
      "yaxshimasakan": 2914,
      "ami": 2915,
      "sung": 2916,
      "unga": 2917,
      "bili": 2918,
      "tola": 2919,
      "inadi": 2920,
      "rik": 2921,
      "shaya": 2922,
      "yetqaz": 2923,
      "kachestvosi": 2924,
      "ochilib": 2925,
      "haftada": 2926,
      "hudi": 2927,
      "this": 2928,
      "wdi": 2929,
      "masha": 2930,
      "shga": 2931,
      "layapti": 2932,
      "rali": 2933,
      "ketibdi": 2934,
      "rahmad": 2935,
      "ketmaydi": 2936,
      "quvat": 2937,
      "hisobga": 2938,
      "tirmadi": 2939,
      "boshqasi": 2940,
      "olganda": 2941,
      "yengi": 2942,
      "godar": 2943,
      "suvni": 2944,
      "ciq": 2945,
      "yotgan": 2946,
      "adashib": 2947,
      "korsatilganidek": 2948,
      "foiz": 2949,
      "kopir": 2950,
      "olishilani": 2951,
      "achki": 2952,
      "zakolka": 2953,
      "malumot": 2954,
      "17": 2955,
      "asa": 2956,
      "gb": 2957,
      "yaxshiyu": 2958,
      "takuyu": 2959,
      "niya": 2960,
      "kilish": 2961,
      "ishlamoqda": 2962,
      "yuter": 2963,
      "giday": 2964,
      "parat": 2965,
      "maxsulotlar": 2966,
      "singlimga": 2967,
      "xozir": 2968,
      "zaryadchik": 2969,
      "kelmaydi": 2970,
      "turmas": 2971,
      "oynasi": 2972,
      "bunaka": 2973,
      "oxshaydi": 2974,
      "telefonimga": 2975,
      "ollox": 2976,
      "talabga": 2977,
      "planshet": 2978,
      "sposibo": 2979,
      "kekan": 2980,
      "of": 2981,
      "sni": 2982,
      "uta": 2983,
      "щi": 2984,
      "anca": 2985,
      "isha": 2986,
      "bosin": 2987,
      "ketmas": 2988,
      "allah": 2989,
      "pija": 2990,
      "zaryadlash": 2991,
      "arzidigan": 2992,
      "norma": 2993,
      "tishga": 2994,
      "hatto": 2995,
      "barakasini": 2996,
      "tavarni": 2997,
      "eee": 2998,
      "bolajonlar": 2999,
      "ozgar": 3000,
      "sovuq": 3001,
      "qilishim": 3002,
      "blagodar": 3003,
      "39": 3004,
      "mne": 3005,
      "pp": 3006,
      "zda": 3007,
      "ladan": 3008,
      "yooo": 3009,
      "yug": 3010,
      "solib": 3011,
      "vosi": 3012,
      "marketda": 3013,
      "maxsu": 3014,
      "razmerlari": 3015,
      "qiludim": 3016,
      "zaryadnik": 3017,
      "yuborishi": 3018,
      "balzam": 3019,
      "zaryatkasi": 3020,
      "eshiti": 3021,
      "oshxona": 3022,
      "bri": 3023,
      "ez": 3024,
      "oh": 3025,
      "rin": 3026,
      "shidi": 3027,
      "taglik": 3028,
      "sayam": 3029,
      "oluvdim": 3030,
      "zakasi": 3031,
      "yetip": 3032,
      "alooo": 3033,
      "beriw": 3034,
      "razmerini": 3035,
      "oliw": 3036,
      "olishin": 3037,
      "sindi": 3038,
      "pochka": 3039,
      "xaki": 3040,
      "foydasiz": 3041,
      "rasmdi": 3042,
      "arzimiydi": 3043,
      "ziraklar": 3044,
      "yoqimsiz": 3045,
      "komplekt": 3046,
      "sintetika": 3047,
      "agar": 3048,
      "srogi": 3049,
      "voldim": 3050,
      "vur": 3051,
      "ort": 3052,
      "taga": 3053,
      "fati": 3054,
      "keyn": 3055,
      "ishlarga": 3056,
      "kist": 3057,
      "ment": 3058,
      "unca": 3059,
      "kodi": 3060,
      "yetar": 3061,
      "rishi": 3062,
      "klasno": 3063,
      "qande": 3064,
      "yetkazishdi": 3065,
      "telga": 3066,
      "malomerka": 3067,
      "boshkacha": 3068,
      "quloqchinlar": 3069,
      "upakovkada": 3070,
      "sveti": 3071,
      "qoyarkan": 3072,
      "olloh": 3073,
      "bonus": 3074,
      "tikilishi": 3075,
      "dastaf": 3076,
      "manimcha": 3077,
      "38": 3078,
      "asi": 3079,
      "he": 3080,
      "my": 3081,
      "ura": 3082,
      "uza": 3083,
      "mash": 3084,
      "yator": 3085,
      "chni": 3086,
      "yogakan": 3087,
      "judaa": 3088,
      "yoqd": 3089,
      "key": 3090,
      "kupro": 3091,
      "bitasi": 3092,
      "tolov": 3093,
      "kosme": 3094,
      "bermoqchiman": 3095,
      "otlichniy": 3096,
      "qimmatroq": 3097,
      "turmaydi": 3098,
      "fekti": 3099,
      "pect": 3100,
      "natijasini": 3101,
      "padarka": 3102,
      "vopshe": 3103,
      "boshida": 3104,
      "bluetooth": 3105,
      "1tasi": 3106,
      "ifor": 3107,
      "vis": 3108,
      "zorga": 3109,
      "kach": 3110,
      "kegan": 3111,
      "qigan": 3112,
      "xia": 3113,
      "chiqari": 3114,
      "chiqarkan": 3115,
      "xolati": 3116,
      "masaj": 3117,
      "1000": 3118,
      "malomer": 3119,
      "buzilgan": 3120,
      "yuvib": 3121,
      "chotka": 3122,
      "mumkunmas": 3123,
      "knopka": 3124,
      "belgi": 3125,
      "respect": 3126,
      "makaron": 3127,
      "32": 3128,
      "ela": 3129,
      "ukamga": 3130,
      "ingiz": 3131,
      "keta": 3132,
      "imda": 3133,
      "zakazni": 3134,
      "yekmadi": 3135,
      "yuborib": 3136,
      "podvo": 3137,
      "daxwat": 3138,
      "qiyshiq": 3139,
      "hidli": 3140,
      "cool": 3141,
      "muddati": 3142,
      "sfatsiz": 3143,
      "batareya": 3144,
      "charchamanglar": 3145,
      "rezinka": 3146,
      "aman": 3147,
      "xoli": 3148,
      "rad": 3149,
      "kadan": 3150,
      "taba": 3151,
      "imdan": 3152,
      "giga": 3153,
      "musi": 3154,
      "tova": 3155,
      "chehol": 3156,
      "otgan": 3157,
      "poch": 3158,
      "xafa": 3159,
      "yahshikan": 3160,
      "lagayam": 3161,
      "kurib": 3162,
      "qana": 3163,
      "qaytardim": 3164,
      "aytgandim": 3165,
      "aksiyalar": 3166,
      "ikkilan": 3167,
      "slabiy": 3168,
      "mushugim": 3169,
      "tuwdi": 3170,
      "ezilib": 3171,
      "elektr": 3172,
      "ihcham": 3173,
      "pish": 3174,
      "xta": 3175,
      "z6r": 3176,
      "daman": 3177,
      "orga": 3178,
      "vaya": 3179,
      "kizi": 3180,
      "qal": 3181,
      "sotish": 3182,
      "miq": 3183,
      "yeb": 3184,
      "mes": 3185,
      "maykan": 3186,
      "unchamas": 3187,
      "boshqasini": 3188,
      "kurtka": 3189,
      "tanlo": 3190,
      "dagilarga": 3191,
      "chamga": 3192,
      "darrov": 3193,
      "xoroshaya": 3194,
      "kayfi": 3195,
      "upako": 3196,
      "niksa": 3197,
      "spar": 3198,
      "nejni": 3199,
      "mushugimga": 3200,
      "silliq": 3201,
      "ishlirkan": 3202,
      "sabab": 3203,
      "xay": 3204,
      "maro": 3205,
      "katti": 3206,
      "chigi": 3207,
      "soti": 3208,
      "bermayapti": 3209,
      "urniga": 3210,
      "zakazimi": 3211,
      "bolmayapti": 3212,
      "ayniksa": 3213,
      "berar": 3214,
      "xavo": 3215,
      "qaytib": 3216,
      "ishlatvoman": 3217,
      "sumkaga": 3218,
      "effe": 3219,
      "uzidan": 3220,
      "ishlariga": 3221,
      "iiii": 3222,
      "sarga": 3223,
      "ishingizga": 3224,
      "pijama": 3225,
      "blagodaryu": 3226,
      "gh": 3227,
      "jok": 3228,
      "xb": 3229,
      "ylar": 3230,
      "yasa": 3231,
      "sama": 3232,
      "kuz": 3233,
      "qilo": 3234,
      "ishlamasakan": 3235,
      "stan": 3236,
      "bolgan": 3237,
      "kiyin": 3238,
      "tovarga": 3239,
      "qanda": 3240,
      "naushnikni": 3241,
      "nuq": 3242,
      "vordi": 3243,
      "mikrafoni": 3244,
      "cute": 3245,
      "materyali": 3246,
      "yetqazib": 3247,
      "aat": 3248,
      "horo": 3249,
      "lga": 3250,
      "lmaydi": 3251,
      "ortiq": 3252,
      "vashi": 3253,
      "kuch": 3254,
      "qilip": 3255,
      "yutu": 3256,
      "bulgan": 3257,
      "muzi": 3258,
      "zadi": 3259,
      "chay": 3260,
      "miga": 3261,
      "shakar": 3262,
      "borib": 3263,
      "yurish": 3264,
      "set": 3265,
      "xamasi": 3266,
      "ariginal": 3267,
      "buldim": 3268,
      "tort": 3269,
      "taraf": 3270,
      "oylaganmdan": 3271,
      "servis": 3272,
      "ujasnoye": 3273,
      "himoya": 3274,
      "yuribman": 3275,
      "rezina": 3276,
      "500": 3277,
      "cotki": 3278,
      "lb": 3279,
      "pl": 3280,
      "sred": 3281,
      "raman": 3282,
      "yaxshiga": 3283,
      "oyl": 3284,
      "zuu": 3285,
      "ganman": 3286,
      "chiro": 3287,
      "vazvrat": 3288,
      "uzummarket": 3289,
      "ketmadi": 3290,
      "qurib": 3291,
      "beryapti": 3292,
      "bersam": 3293,
      "zarkan": 3294,
      "zaryatka": 3295,
      "keld": 3296,
      "ishlatvomman": 3297,
      "vaqtga": 3298,
      "dagidan": 3299,
      "kattarok": 3300,
      "ushlab": 3301,
      "yubordim": 3302,
      "shiringina": 3303,
      "allox": 3304,
      "rasayam": 3305,
      "yuvish": 3306,
      "jamoasi": 3307,
      "qalingina": 3308,
      "hohlagandek": 3309,
      "kompyuter": 3310,
      "malades": 3311,
      "hushboy": 3312,
      "tabiiy": 3313,
      "krossovka": 3314,
      "boyi": 3315,
      "id": 3316,
      "otir": 3317,
      "qim": 3318,
      "sora": 3319,
      "yogli": 3320,
      "taqib": 3321,
      "chib": 3322,
      "chixol": 3323,
      "kis": 3324,
      "mening": 3325,
      "ketkaz": 3326,
      "stvo": 3327,
      "note": 3328,
      "defekt": 3329,
      "ladigan": 3330,
      "moshni": 3331,
      "tushti": 3332,
      "ozida": 3333,
      "berite": 3334,
      "naushniklar": 3335,
      "almashtirish": 3336,
      "ustida": 3337,
      "qisqa": 3338,
      "afsuslanmadim": 3339,
      "kutilganidek": 3340,
      "ara": 3341,
      "don": 3342,
      "guz": 3343,
      "hursan": 3344,
      "joq": 3345,
      "mya": 3346,
      "os": 3347,
      "pat": 3348,
      "sori": 3349,
      "uda": 3350,
      "din": 3351,
      "dah": 3352,
      "ekdi": 3353,
      "kap": 3354,
      "kast": 3355,
      "ishgan": 3356,
      "olmay": 3357,
      "olmasa": 3358,
      "vauv": 3359,
      "end": 3360,
      "yuu": 3361,
      "yuvi": 3362,
      "zarar": 3363,
      "sochiq": 3364,
      "sifatlik": 3365,
      "qovoti": 3366,
      "razmerda": 3367,
      "pishir": 3368,
      "qoysa": 3369,
      "samsung": 3370,
      "onaviy": 3371,
      "korinishiga": 3372,
      "yupqar": 3373,
      "jonat": 3374,
      "yaltira": 3375,
      "namlan": 3376,
      "kamchiligi": 3377,
      "olardim": 3378,
      "ploxo": 3379,
      "batarekasi": 3380,
      "mashinka": 3381,
      "zanjir": 3382,
      "ishlaringga": 3383,
      "asalomu": 3384,
      "zuuur": 3385,
      "ilib": 3386,
      "ici": 3387,
      "kl": 3388,
      "sga": 3389,
      "vin": 3390,
      "xmat": 3391,
      "xal": 3392,
      "lif": 3393,
      "arginali": 3394,
      "kanaka": 3395,
      "zat": 3396,
      "tov": 3397,
      "togir": 3398,
      "xir": 3399,
      "kachestven": 3400,
      "qoshimcha": 3401,
      "norozi": 3402,
      "ovoldik": 3403,
      "qopol": 3404,
      "zamonaviy": 3405,
      "5555": 3406,
      "jonimga": 3407,
      "soati": 3408,
      "mokchiman": 3409,
      "aloqaga": 3410,
      "marotaba": 3411,
      "cq": 3412,
      "dgan": 3413,
      "qoldim": 3414,
      "ula": 3415,
      "wor": 3416,
      "judaya": 3417,
      "manli": 3418,
      "sura": 3419,
      "suvi": 3420,
      "chiroy": 3421,
      "much": 3422,
      "uzummarketga": 3423,
      "bilamiz": 3424,
      "korinadi": 3425,
      "birdan": 3426,
      "maydigan": 3427,
      "aytma": 3428,
      "gligi": 3429,
      "topdim": 3430,
      "duxi": 3431,
      "sumkacha": 3432,
      "illi": 3433,
      "rasmdek": 3434,
      "skidkada": 3435,
      "sezilmadi": 3436,
      "sevdim": 3437,
      "turipti": 3438,
      "toldir": 3439,
      "qaytaraman": 3440,
      "dastafka": 3441,
      "34": 3442,
      "gov": 3443,
      "jen": 3444,
      "kolgan": 3445,
      "qish": 3446,
      "slar": 3447,
      "xur": 3448,
      "shva": 3449,
      "gavno": 3450,
      "dav": 3451,
      "erib": 3452,
      "imkoni": 3453,
      "yoqdii": 3454,
      "maslo": 3455,
      "buyir": 3456,
      "mul": 3457,
      "tugi": 3458,
      "koja": 3459,
      "beringlar": 3460,
      "arzir": 3461,
      "metal": 3462,
      "yetmayapti": 3463,
      "chikib": 3464,
      "yip": 3465,
      "berishmadi": 3466,
      "qoyi": 3467,
      "kutganimde": 3468,
      "dushi": 3469,
      "umman": 3470,
      "telni": 3471,
      "foto": 3472,
      "priyatniy": 3473,
      "knopkasi": 3474,
      "mikrafon": 3475,
      "kleyi": 3476,
      "olishingizni": 3477,
      "spark": 3478,
      "bg": 3479,
      "balo": 3480,
      "lsya": 3481,
      "oyok": 3482,
      "ryuk": 3483,
      "yati": 3484,
      "orzon": 3485,
      "tiv": 3486,
      "ekanraxmat": 3487,
      "raxmatt": 3488,
      "olmoqchiman": 3489,
      "vay": 3490,
      "kuv": 3491,
      "joyib": 3492,
      "gide": 3493,
      "ziyo": 3494,
      "bularkan": 3495,
      "ketvoti": 3496,
      "mik": 3497,
      "hich": 3498,
      "aller": 3499,
      "yetmaydi": 3500,
      "zaryati": 3501,
      "bolla": 3502,
      "qolyabdi": 3503,
      "qoyilgan": 3504,
      "qaytarsam": 3505,
      "kattaro": 3506,
      "skid": 3507,
      "tilyator": 3508,
      "sizlardan": 3509,
      "foydalanib": 3510,
      "yulduzcha": 3511,
      "aromat": 3512,
      "milota": 3513,
      "yuborishibdi": 3514,
      "effecti": 3515,
      "22": 3516,
      "99": 3517,
      "amas": 3518,
      "ahi": 3519,
      "oyog": 3520,
      "pre": 3521,
      "ron": 3522,
      "uzur": 3523,
      "dit": 3524,
      "boya": 3525,
      "yuzi": 3526,
      "muka": 3527,
      "kocha": 3528,
      "qoshib": 3529,
      "narxlarda": 3530,
      "podosh": 3531,
      "ranggi": 3532,
      "iwlati": 3533,
      "ishlamayaptiku": 3534,
      "almaw": 3535,
      "ulgur": 3536,
      "ullas": 3537,
      "narhiyam": 3538,
      "moshinaga": 3539,
      "kacestvasi": 3540,
      "alishtirib": 3541,
      "rezultat": 3542,
      "noutbuk": 3543,
      "80": 3544,
      "eti": 3545,
      "ogi": 3546,
      "lamas": 3547,
      "lil": 3548,
      "yoqku": 3549,
      "yaxshii": 3550,
      "takan": 3551,
      "zuda": 3552,
      "sushi": 3553,
      "nie": 3554,
      "olcha": 3555,
      "bermas": 3556,
      "narsaga": 3557,
      "lanmagan": 3558,
      "pamada": 3559,
      "laridan": 3560,
      "qosh": 3561,
      "assalomalekum": 3562,
      "chikar": 3563,
      "nexia": 3564,
      "dogi": 3565,
      "tirsa": 3566,
      "yanayam": 3567,
      "xajmi": 3568,
      "klassniy": 3569,
      "ishlatolmadim": 3570,
      "bulmadi": 3571,
      "ganidim": 3572,
      "berila": 3573,
      "almashtirsam": 3574,
      "yilga": 3575,
      "bosayam": 3576,
      "kursat": 3577,
      "yakshi": 3578,
      "bolajonim": 3579,
      "mittigina": 3580,
      "product": 3581,
      "kafolat": 3582,
      "shvabra": 3583,
      "ryukzak": 3584,
      "class": 3585,
      "ner": 3586,
      "sli": 3587,
      "uma": 3588,
      "shlan": 3589,
      "shotka": 3590,
      "orzu": 3591,
      "lag": 3592,
      "yosti": 3593,
      "ishle": 3594,
      "book": 3595,
      "topa": 3596,
      "tochka": 3597,
      "tokilgan": 3598,
      "tegi": 3599,
      "tut": 3600,
      "kolarkan": 3601,
      "emaskan": 3602,
      "bad": 3603,
      "sifatigayam": 3604,
      "melar": 3605,
      "bormadi": 3606,
      "bolaga": 3607,
      "klassss": 3608,
      "vaqti": 3609,
      "tinniq": 3610,
      "prikol": 3611,
      "ikkilanib": 3612,
      "vkus": 3613,
      "yuvganda": 3614,
      "foydalanish": 3615,
      "olganimda": 3616,
      "ulanmayapti": 3617,
      "yopiw": 3618,
      "superrrr": 3619,
      "poluchi": 3620,
      "really": 3621,
      "ponravilos": 3622,
      "yoqimtoy": 3623,
      "magnit": 3624,
      "kutganimizdan": 3625,
      "shekilli": 3626,
      "tayyor": 3627,
      "tanlovi": 3628,
      "noroziman": 3629,
      "2chi": 3630,
      "33": 3631,
      "ger": 3632,
      "ig": 3633,
      "lyan": 3634,
      "qlar": 3635,
      "qon": 3636,
      "qari": 3637,
      "svo": 3638,
      "dada": 3639,
      "yonarkan": 3640,
      "kada": 3641,
      "tali": 3642,
      "oylik": 3643,
      "vauu": 3644,
      "bos": 3645,
      "chali": 3646,
      "bersa": 3647,
      "korgan": 3648,
      "korini": 3649,
      "molo": 3650,
      "regi": 3651,
      "poda": 3652,
      "toplam": 3653,
      "ovoldm": 3654,
      "vesh": 3655,
      "spasiba": 3656,
      "yopishmadi": 3657,
      "yupka": 3658,
      "effektini": 3659,
      "rostdan": 3660,
      "ustiga": 3661,
      "axshi": 3662,
      "uyinchoq": 3663,
      "ventilyator": 3664,
      "delkasi": 3665,
      "tasirini": 3666,
      "yashil": 3667,
      "aslida": 3668,
      "yozuv": 3669,
      "tasavvur": 3670,
      "70": 3671,
      "ft": 3672,
      "jim": 3673,
      "kish": 3674,
      "mman": 3675,
      "omanglar": 3676,
      "xor": 3677,
      "xudo": 3678,
      "ant": 3679,
      "anda": 3680,
      "laj": 3681,
      "lashib": 3682,
      "zorkan": 3683,
      "insha": 3684,
      "niye": 3685,
      "olmang": 3686,
      "stre": 3687,
      "shax": 3688,
      "yetyapti": 3689,
      "hamasi": 3690,
      "dok": 3691,
      "qilganimdan": 3692,
      "shnik": 3693,
      "tusharkan": 3694,
      "kiysa": 3695,
      "kamp": 3696,
      "yetkazish": 3697,
      "iwlavoti": 3698,
      "martada": 3699,
      "bunisi": 3700,
      "korinishidan": 3701,
      "silami": 3702,
      "kelgani": 3703,
      "uzoqqa": 3704,
      "sveji": 3705,
      "krasivaya": 3706,
      "kuramiz": 3707,
      "xohlagandek": 3708,
      "xoxlaganday": 3709,
      "koringanidek": 3710,
      "kacestva": 3711,
      "vibratsiya": 3712,
      "braslet": 3713,
      "spirt": 3714,
      "guzel": 3715,
      "govno": 3716,
      "jam": 3717,
      "koyla": 3718,
      "kimi": 3719,
      "spa": 3720,
      "xoz": 3721,
      "orto": 3722,
      "kabul": 3723,
      "erimga": 3724,
      "suz": 3725,
      "chilik": 3726,
      "oludm": 3727,
      "kuk": 3728,
      "bolip": 3729,
      "bomedi": 3730,
      "baq": 3731,
      "arzonga": 3732,
      "birxil": 3733,
      "boshladi": 3734,
      "klavi": 3735,
      "sinik": 3736,
      "buyurma": 3737,
      "qorq": 3738,
      "afsusdaman": 3739,
      "opper": 3740,
      "malamerka": 3741,
      "bekorga": 3742,
      "padarkaga": 3743,
      "raxmaat": 3744,
      "dengi": 3745,
      "qutisi": 3746,
      "bulardi": 3747,
      "raqam": 3748,
      "remeshok": 3749,
      "yutuq": 3750,
      "yupqaroq": 3751,
      "fli": 3752,
      "gr": 3753,
      "dip": 3754,
      "davom": 3755,
      "ship": 3756,
      "yoqt": 3757,
      "kali": 3758,
      "larimi": 3759,
      "larimiz": 3760,
      "vaxtida": 3761,
      "bomi": 3762,
      "bomapti": 3763,
      "una": 3764,
      "soot": 3765,
      "chadi": 3766,
      "mil": 3767,
      "pubg": 3768,
      "alham": 3769,
      "padelka": 3770,
      "koray": 3771,
      "chiqyapti": 3772,
      "beras": 3773,
      "qob": 3774,
      "momiq": 3775,
      "yetmas": 3776,
      "mazzasi": 3777,
      "anchagina": 3778,
      "uzini": 3779,
      "ishlatyapmiz": 3780,
      "ranglar": 3781,
      "etka": 3782,
      "turmush": 3783,
      "oynab": 3784,
      "uziyam": 3785,
      "yuborgan": 3786,
      "vordim": 3787,
      "aksiyada": 3788,
      "qilinglar": 3789,
      "kicik": 3790,
      "oxshab": 3791,
      "lent": 3792,
      "ishlidi": 3793,
      "nasadka": 3794,
      "haridimdan": 3795,
      "podvodka": 3796,
      "35": 3797,
      "em": 3798,
      "fud": 3799,
      "omayapti": 3800,
      "ror": 3801,
      "gaz": 3802,
      "law": 3803,
      "yaxahi": 3804,
      "yaxshimi": 3805,
      "kepka": 3806,
      "olga": 3807,
      "narmanli": 3808,
      "ziv": 3809,
      "miza": 3810,
      "qolaman": 3811,
      "narxigayam": 3812,
      "ichib": 3813,
      "yig": 3814,
      "tanlab": 3815,
      "ruba": 3816,
      "dulil": 3817,
      "maniki": 3818,
      "tilla": 3819,
      "yirtiq": 3820,
      "qilishga": 3821,
      "kickin": 3822,
      "shunisi": 3823,
      "type": 3824,
      "laringiz": 3825,
      "qadoqlangan": 3826,
      "prastoy": 3827,
      "umidda": 3828,
      "kunglimdagidek": 3829,
      "dahshat": 3830,
      "allergiya": 3831,
      "fudbol": 3832,
      "36": 3833,
      "lsa": 3834,
      "mno": 3835,
      "won": 3836,
      "zz": 3837,
      "anten": 3838,
      "shot": 3839,
      "gab": 3840,
      "say": 3841,
      "vaz": 3842,
      "kuya": 3843,
      "qilam": 3844,
      "nasib": 3845,
      "bat": 3846,
      "pulimni": 3847,
      "arziy": 3848,
      "hira": 3849,
      "kutgandim": 3850,
      "otp": 3851,
      "aytaman": 3852,
      "xoja": 3853,
      "ooor": 3854,
      "qiluvdim": 3855,
      "holos": 3856,
      "zaryadni": 3857,
      "kichikrok": 3858,
      "dagiday": 3859,
      "sensori": 3860,
      "oynash": 3861,
      "rasmdigi": 3862,
      "idealno": 3863,
      "prish": 3864,
      "hohlaganimdek": 3865,
      "bolila": 3866,
      "afsuslandim": 3867,
      "avto": 3868,
      "olmayapman": 3869,
      "uyinchok": 3870,
      "bayra": 3871,
      "kachistva": 3872,
      "xaqiqat": 3873,
      "tanlagandim": 3874,
      "21": 3875,
      "9000": 3876,
      "guncha": 3877,
      "hon": 3878,
      "jin": 3879,
      "made": 3880,
      "dil": 3881,
      "shor": 3882,
      "lasi": 3883,
      "lirkan": 3884,
      "tiyot": 3885,
      "shiri": 3886,
      "oyimga": 3887,
      "lovchi": 3888,
      "olmoqchi": 3889,
      "rog": 3890,
      "zara": 3891,
      "kopay": 3892,
      "yetdi": 3893,
      "bolmagan": 3894,
      "rasmdagide": 3895,
      "qilganim": 3896,
      "kasiyam": 3897,
      "zaryadkaga": 3898,
      "ozidek": 3899,
      "tadigan": 3900,
      "ovqat": 3901,
      "unchalikmas": 3902,
      "10000": 3903,
      "kizib": 3904,
      "oylagandek": 3905,
      "120": 3906,
      "adap": 3907,
      "ilova": 3908,
      "charcham": 3909,
      "kichkinaro": 3910,
      "yoritishi": 3911,
      "magur": 3912,
      "vaqtda": 3913,
      "ponravilsya": 3914,
      "qoniqarsiz": 3915,
      "batareyasi": 3916,
      "blesk": 3917,
      "muomila": 3918,
      "koylak": 3919,
      "hoz": 3920,
      "mina": 3921,
      "mdanam": 3922,
      "nur": 3923,
      "slo": 3924,
      "yendi": 3925,
      "zlar": 3926,
      "ornat": 3927,
      "latta": 3928,
      "lamadi": 3929,
      "lidan": 3930,
      "shini": 3931,
      "tax": 3932,
      "talon": 3933,
      "kelar": 3934,
      "bom": 3935,
      "bosi": 3936,
      "qir": 3937,
      "masman": 3938,
      "gilam": 3939,
      "busa": 3940,
      "zaga": 3941,
      "toki": 3942,
      "alol": 3943,
      "rilib": 3944,
      "tezlik": 3945,
      "kazib": 3946,
      "kordik": 3947,
      "qolip": 3948,
      "qoshiq": 3949,
      "model": 3950,
      "rasmdaqa": 3951,
      "razmerim": 3952,
      "bolgani": 3953,
      "yuribdi": 3954,
      "hamaga": 3955,
      "kasiga": 3956,
      "vid": 3957,
      "qoyish": 3958,
      "xursandmiz": 3959,
      "iwlayapti": 3960,
      "razmeriga": 3961,
      "ushbu": 3962,
      "tozalarkan": 3963,
      "xatdan": 3964,
      "taklif": 3965,
      "song": 3966,
      "chiqarishi": 3967,
      "qiling": 3968,
      "olaver": 3969,
      "kamerasi": 3970,
      "zorikan": 3971,
      "watch": 3972,
      "koringanidan": 3973,
      "laganimday": 3974,
      "mishka": 3975,
      "egizak": 3976,
      "chiqarilgan": 3977,
      "klavia": 3978,
      "41": 3979,
      "44": 3980,
      "awe": 3981,
      "amal": 3982,
      "jalka": 3983,
      "nga": 3984,
      "oi": 3985,
      "odiy": 3986,
      "pli": 3987,
      "lap": 3988,
      "lamaydi": 3989,
      "ragi": 3990,
      "shiye": 3991,
      "yaxщi": 3992,
      "chiqara": 3993,
      "bomasakan": 3994,
      "qilay": 3995,
      "chalari": 3996,
      "nakley": 3997,
      "quyuq": 3998,
      "emasku": 3999,
      "tavsi": 4000,
      "nov": 4001,
      "mahsu": 4002,
      "aldan": 4003,
      "ishlashiyam": 4004,
      "otziv": 4005,
      "tmagan": 4006,
      "yanada": 4007,
      "tushmas": 4008,
      "kiyishga": 4009,
      "vidi": 4010,
      "bittasini": 4011,
      "berishti": 4012,
      "iwlavotti": 4013,
      "sigadi": 4014,
      "sumkani": 4015,
      "ovoziga": 4016,
      "lashda": 4017,
      "suvda": 4018,
      "tortishi": 4019,
      "kutganday": 4020,
      "qiziq": 4021,
      "yumshokkina": 4022,
      "jonatib": 4023,
      "haqiqatda": 4024,
      "yuzimni": 4025,
      "maktab": 4026,
      "penka": 4027,
      "prekrasno": 4028,
      "xakikat": 4029,
      "musiqa": 4030,
      "yostiq": 4031,
      "43": 4032,
      "4ta": 4033,
      "56": 4034,
      "5ta": 4035,
      "esh": 4036,
      "nya": 4037,
      "pper": 4038,
      "uyal": 4039,
      "mabman": 4040,
      "gal": 4041,
      "liy": 4042,
      "yoqmi": 4043,
      "tamiz": 4044,
      "oylo": 4045,
      "kelin": 4046,
      "sumga": 4047,
      "ishl": 4048,
      "olmayabdi": 4049,
      "bomagan": 4050,
      "gaplash": 4051,
      "joylash": 4052,
      "buyam": 4053,
      "kanda": 4054,
      "uzulib": 4055,
      "ros": 4056,
      "noq": 4057,
      "kormadm": 4058,
      "qulaylik": 4059,
      "qola": 4060,
      "meydi": 4061,
      "bollarga": 4062,
      "boshni": 4063,
      "boshladim": 4064,
      "oylamagandim": 4065,
      "isle": 4066,
      "yigi": 4067,
      "kamroq": 4068,
      "ganidan": 4069,
      "ganidek": 4070,
      "ovoziyam": 4071,
      "korsatadi": 4072,
      "izdan": 4073,
      "veradi": 4074,
      "adigan": 4075,
      "yubordi": 4076,
      "kachestvasiyam": 4077,
      "qorasidan": 4078,
      "radigan": 4079,
      "uvchan": 4080,
      "zooooor": 4081,
      "hidlari": 4082,
      "dizay": 4083,
      "yuldu": 4084,
      "ishlatip": 4085,
      "gradu": 4086,
      "ezilgan": 4087,
      "soqolni": 4088,
      "zanjiri": 4089,
      "sotuvga": 4090,
      "ikkalasi": 4091,
      "akuratniy": 4092,
      "mavjud": 4093,
      "regist": 4094,
      "200": 4095,
      "aparat": 4096,
      "ds": 4097,
      "dlya": 4098,
      "eye": 4099,
      "win": 4100,
      "yman": 4101,
      "masin": 4102,
      "tiz": 4103,
      "yonadi": 4104,
      "junati": 4105,
      "taya": 4106,
      "kelish": 4107,
      "old": 4108,
      "kuri": 4109,
      "yutib": 4110,
      "undanam": 4111,
      "soni": 4112,
      "solish": 4113,
      "tushadi": 4114,
      "mis": 4115,
      "nasiya": 4116,
      "chexoli": 4117,
      "qovotti": 4118,
      "mom": 4119,
      "birtinga": 4120,
      "razme": 4121,
      "bollar": 4122,
      "kiyganda": 4123,
      "kelmagan": 4124,
      "ikta": 4125,
      "oynayapti": 4126,
      "stiker": 4127,
      "yuborilgan": 4128,
      "lampa": 4129,
      "korinarkan": 4130,
      "koringandi": 4131,
      "kilmayman": 4132,
      "iii": 4133,
      "kozon": 4134,
      "dormiz": 4135,
      "yalti": 4136,
      "aytilganidek": 4137,
      "bravo": 4138,
      "reklamada": 4139,
      "yonib": 4140,
      "linib": 4141,
      "achindim": 4142,
      "tomonlama": 4143,
      "chozilib": 4144,
      "muomala": 4145,
      "alhamdulil": 4146,
      "1kun": 4147,
      "ed": 4148,
      "jar": 4149,
      "pok": 4150,
      "slish": 4151,
      "yy": 4152,
      "lagich": 4153,
      "lidi": 4154,
      "tikil": 4155,
      "keb": 4156,
      "niqob": 4157,
      "bulinglar": 4158,
      "qalo": 4159,
      "rogakan": 4160,
      "tom": 4161,
      "kolad": 4162,
      "mida": 4163,
      "xamda": 4164,
      "baquvat": 4165,
      "arzid": 4166,
      "narsalarni": 4167,
      "korganim": 4168,
      "qoshi": 4169,
      "berasizlarmi": 4170,
      "kelli": 4171,
      "qangi": 4172,
      "qolgani": 4173,
      "oylaganimdanda": 4174,
      "chexolga": 4175,
      "negadur": 4176,
      "tilmagan": 4177,
      "quloqchini": 4178,
      "uylaganimdek": 4179,
      "qiynal": 4180,
      "yoshga": 4181,
      "qolganlarga": 4182,
      "ajra": 4183,
      "yopishib": 4184,
      "sirga": 4185,
      "eshitil": 4186,
      "ravili": 4187,
      "tonal": 4188,
      "tonalka": 4189,
      "qurilma": 4190,
      "bervorib": 4191,
      "funksiyasi": 4192,
      "bilmayapman": 4193,
      "muzika": 4194,
      "wonder": 4195,
      "otpravili": 4196,
      "klaviatura": 4197,
      "yulduzga": 4198,
      "dori": 4199,
      "joz": 4200,
      "omi": 4201,
      "pal": 4202,
      "slov": 4203,
      "vs": 4204,
      "xim": 4205,
      "zot": 4206,
      "ekam": 4207,
      "chen": 4208,
      "tis": 4209,
      "tinik": 4210,
      "kapa": 4211,
      "imey": 4212,
      "vato": 4213,
      "vaaa": 4214,
      "bolish": 4215,
      "zapas": 4216,
      "ketvotti": 4217,
      "navu": 4218,
      "pur": 4219,
      "besh": 4220,
      "mex": 4221,
      "kungil": 4222,
      "kunglim": 4223,
      "qilmadi": 4224,
      "tanal": 4225,
      "karanda": 4226,
      "shuna": 4227,
      "sumkada": 4228,
      "rabotaet": 4229,
      "tozalaydi": 4230,
      "takoy": 4231,
      "korinish": 4232,
      "rasimdagidan": 4233,
      "isitishi": 4234,
      "baltga": 4235,
      "sezdim": 4236,
      "shart": 4237,
      "table": 4238,
      "orqasi": 4239,
      "padvo": 4240,
      "ajayip": 4241,
      "larizni": 4242,
      "magniti": 4243,
      "sababi": 4244,
      "mikrofon": 4245,
      "koriniwi": 4246,
      "ala": 4247,
      "bka": 4248,
      "jet": 4249,
      "krish": 4250,
      "mmat": 4251,
      "oganim": 4252,
      "skov": 4253,
      "gam": 4254,
      "siq": 4255,
      "sichq": 4256,
      "yotib": 4257,
      "art": 4258,
      "yaxshiykan": 4259,
      "oyib": 4260,
      "ertaga": 4261,
      "loni": 4262,
      "kidek": 4263,
      "buyon": 4264,
      "unday": 4265,
      "tokil": 4266,
      "keldiku": 4267,
      "chaqalo": 4268,
      "miri": 4269,
      "stol": 4270,
      "yapt": 4271,
      "mahkam": 4272,
      "lanishi": 4273,
      "chiqmaydi": 4274,
      "wifi": 4275,
      "led": 4276,
      "remen": 4277,
      "oylabman": 4278,
      "tushu": 4279,
      "eyn": 4280,
      "yumshoqina": 4281,
      "dars": 4282,
      "stil": 4283,
      "minus": 4284,
      "tingiz": 4285,
      "krutoy": 4286,
      "oxshidi": 4287,
      "ishlamaydigan": 4288,
      "zorrrrr": 4289,
      "buzuldi": 4290,
      "beki": 4291,
      "bolilar": 4292,
      "qilishni": 4293,
      "kuylak": 4294,
      "voobshe": 4295,
      "minutda": 4296,
      "magazindan": 4297,
      "umid": 4298,
      "yorugligi": 4299,
      "organay": 4300,
      "podarkaga": 4301,
      "sargayib": 4302,
      "umiddaman": 4303,
      "alhamdulillah": 4304,
      "wonderful": 4305,
      "42": 4306,
      "blok": 4307,
      "gni": 4308,
      "hudo": 4309,
      "jka": 4310,
      "loy": 4311,
      "osela": 4312,
      "pdi": 4313,
      "tun": 4314,
      "uw": 4315,
      "ws": 4316,
      "mayabti": 4317,
      "shan": 4318,
      "orat": 4319,
      "chno": 4320,
      "chilar": 4321,
      "chilarga": 4322,
      "bolinglar": 4323,
      "narse": 4324,
      "ishlam": 4325,
      "meng": 4326,
      "some": 4327,
      "lekom": 4328,
      "nasos": 4329,
      "marke": 4330,
      "yedim": 4331,
      "baza": 4332,
      "narsala": 4333,
      "desam": 4334,
      "pak": 4335,
      "korpu": 4336,
      "arzongina": 4337,
      "mega": 4338,
      "zakazlarimni": 4339,
      "bolsh": 4340,
      "qilmoqchiman": 4341,
      "salgina": 4342,
      "telefonda": 4343,
      "iwladi": 4344,
      "tovarlar": 4345,
      "keldim": 4346,
      "kammal": 4347,
      "nauw": 4348,
      "naushniki": 4349,
      "barchasi": 4350,
      "almashtirishni": 4351,
      "aytganda": 4352,
      "dirib": 4353,
      "kiyimlarni": 4354,
      "shokolad": 4355,
      "tugrisi": 4356,
      "tashki": 4357,
      "tirarkan": 4358,
      "servi": 4359,
      "torisi": 4360,
      "oilaviy": 4361,
      "ozgacha": 4362,
      "ifori": 4363,
      "flesh": 4364,
      "zurrrr": 4365,
      "olol": 4366,
      "exce": 4367,
      "qolibdi": 4368,
      "bolajonimga": 4369,
      "turibti": 4370,
      "bistro": 4371,
      "xonani": 4372,
      "judaym": 4373,
      "vosita": 4374,
      "tugilgan": 4375,
      "shaxsan": 4376,
      "sootvet": 4377,
      "adapter": 4378,
      "skovoro": 4379,
      "sichqon": 4380,
      "cam": 4381,
      "doyim": 4382,
      "eh": 4383,
      "fil": 4384,
      "htida": 4385,
      "iya": 4386,
      "qni": 4387,
      "rgan": 4388,
      "skro": 4389,
      "tlari": 4390,
      "vv": 4391,
      "ekann": 4392,
      "fal": 4393,
      "bomiydi": 4394,
      "kishi": 4395,
      "qizar": 4396,
      "mukammal": 4397,
      "bit": 4398,
      "ketyabdi": 4399,
      "tugap": 4400,
      "uchunam": 4401,
      "proga": 4402,
      "bolganda": 4403,
      "fonar": 4404,
      "remish": 4405,
      "seni": 4406,
      "maslaxa": 4407,
      "rangim": 4408,
      "dagisi": 4409,
      "rasmdan": 4410,
      "iplari": 4411,
      "koringan": 4412,
      "korinishda": 4413,
      "girlyan": 4414,
      "udobna": 4415,
      "zvuk": 4416,
      "tuwmadi": 4417,
      "olingan": 4418,
      "ishlamayabti": 4419,
      "yordamchi": 4420,
      "comfor": 4421,
      "akkuratno": 4422,
      "kuchsiz": 4423,
      "ziyoda": 4424,
      "dkasi": 4425,
      "emasu": 4426,
      "obi": 4427,
      "pot": 4428,
      "wim": 4429,
      "mali": 4430,
      "sharkan": 4431,
      "yaman": 4432,
      "sik": 4433,
      "cher": 4434,
      "chqdi": 4435,
      "tichka": 4436,
      "yow": 4437,
      "yoti": 4438,
      "yoza": 4439,
      "nika": 4440,
      "kuna": 4441,
      "gapyuq": 4442,
      "narsiz": 4443,
      "joyda": 4444,
      "bumidi": 4445,
      "tokon": 4446,
      "topo": 4447,
      "tozza": 4448,
      "voxtida": 4449,
      "tex": 4450,
      "koch": 4451,
      "yef": 4452,
      "yeta": 4453,
      "deli": 4454,
      "bori": 4455,
      "rey": 4456,
      "qilmaydi": 4457,
      "qildm": 4458,
      "mazzasiga": 4459,
      "iste": 4460,
      "xamaga": 4461,
      "jida": 4462,
      "shukur": 4463,
      "uzr": 4464,
      "topish": 4465,
      "qimmatro": 4466,
      "nimasi": 4467,
      "berilar": 4468,
      "qilgandik": 4469,
      "kerek": 4470,
      "vkusn": 4471,
      "ball": 4472,
      "kozni": 4473,
      "gimni": 4474,
      "sigmadi": 4475,
      "jiyanim": 4476,
      "sms": 4477,
      "qlb": 4478,
      "nimjon": 4479,
      "paddelka": 4480,
      "minutga": 4481,
      "ogrit": 4482,
      "kutganimizdek": 4483,
      "qidirib": 4484,
      "kattik": 4485,
      "fudbolka": 4486,
      "awesome": 4487,
      "excel": 4488,
      "67": 4489,
      "fu": 4490,
      "moy": 4491,
      "oganimdan": 4492,
      "ple": 4493,
      "qlib": 4494,
      "shtu": 4495,
      "dal": 4496,
      "lisi": 4497,
      "sala": 4498,
      "salat": 4499,
      "bogani": 4500,
      "kiri": 4501,
      "qich": 4502,
      "ishlato": 4503,
      "ishlatishi": 4504,
      "ishlamedi": 4505,
      "ishlayabti": 4506,
      "buyi": 4507,
      "zarat": 4508,
      "xich": 4509,
      "kochib": 4510,
      "naski": 4511,
      "ston": 4512,
      "atkaz": 4513,
      "pachka": 4514,
      "kori": 4515,
      "umuma": 4516,
      "umumam": 4517,
      "shab": 4518,
      "necha": 4519,
      "mayaptiku": 4520,
      "soatdan": 4521,
      "boshqachar": 4522,
      "piz": 4523,
      "qaysi": 4524,
      "arik": 4525,
      "bombaa": 4526,
      "topinglar": 4527,
      "sensor": 4528,
      "ochip": 4529,
      "tozalab": 4530,
      "ovozni": 4531,
      "keyingi": 4532,
      "korinishiyam": 4533,
      "oyincho": 4534,
      "bildim": 4535,
      "forma": 4536,
      "chiqarib": 4537,
      "szlar": 4538,
      "bowqacha": 4539,
      "kopiya": 4540,
      "silagayam": 4541,
      "basseyn": 4542,
      "qilila": 4543,
      "doglarni": 4544,
      "sochim": 4545,
      "liked": 4546,
      "dostavili": 4547,
      "isitgich": 4548,
      "detskiy": 4549,
      "xaqiqiy": 4550,
      "internet": 4551,
      "qayerdan": 4552,
      "upakofka": 4553,
      "rubashka": 4554,
      "organayzer": 4555,
      "excellent": 4556,
      "02": 4557,
      "blen": 4558,
      "esla": 4559,
      "izga": 4560,
      "oshi": 4561,
      "ofis": 4562,
      "ukam": 4563,
      "vam": 4564,
      "xxl": 4565,
      "rakat": 4566,
      "tildi": 4567,
      "tirilgan": 4568,
      "kaya": 4569,
      "ishoni": 4570,
      "yoqdiraxmat": 4571,
      "kulok": 4572,
      "bumedi": 4573,
      "voq": 4574,
      "ketmasakan": 4575,
      "tuz": 4576,
      "tukilgan": 4577,
      "stru": 4578,
      "xamen": 4579,
      "kattasini": 4580,
      "marketni": 4581,
      "algan": 4582,
      "sizmi": 4583,
      "chiqqan": 4584,
      "moni": 4585,
      "rani": 4586,
      "shay": 4587,
      "meva": 4588,
      "bolyapti": 4589,
      "narxlariyam": 4590,
      "recom": 4591,
      "qilmiman": 4592,
      "poku": 4593,
      "ishim": 4594,
      "ishilani": 4595,
      "kutganimdaka": 4596,
      "vapshem": 4597,
      "olgandik": 4598,
      "skitka": 4599,
      "pulni": 4600,
      "ulcham": 4601,
      "ultra": 4602,
      "takror": 4603,
      "yopishmaydi": 4604,
      "rasimdaka": 4605,
      "vawee": 4606,
      "payt": 4607,
      "leykum": 4608,
      "oraz": 4609,
      "ichki": 4610,
      "kott": 4611,
      "odamlarni": 4612,
      "sigdi": 4613,
      "kutkanimdanam": 4614,
      "chetlari": 4615,
      "kutilganidan": 4616,
      "kuraman": 4617,
      "mahsulotim": 4618,
      "maxsulotim": 4619,
      "laringa": 4620,
      "hizmati": 4621,
      "zanglab": 4622,
      "srazu": 4623,
      "shotkasi": 4624,
      "tashkilot": 4625,
      "maslaxatim": 4626,
      "5000": 4627,
      "atli": 4628,
      "etik": 4629,
      "gla": 4630,
      "ida": 4631,
      "ipi": 4632,
      "kr": 4633,
      "mli": 4634,
      "osi": 4635,
      "osha": 4636,
      "sol": 4637,
      "up": 4638,
      "usi": 4639,
      "ximi": 4640,
      "xullas": 4641,
      "zeri": 4642,
      "sht": 4643,
      "yarkan": 4644,
      "ekt": 4645,
      "zorku": 4646,
      "ekanrahmat": 4647,
      "fast": 4648,
      "erga": 4649,
      "kilo": 4650,
      "yuvar": 4651,
      "buz": 4652,
      "superspasibo": 4653,
      "ted": 4654,
      "chala": 4655,
      "ketmasa": 4656,
      "sifatliy": 4657,
      "tulov": 4658,
      "koladi": 4659,
      "kotara": 4660,
      "yemes": 4661,
      "desa": 4662,
      "mahsulotdan": 4663,
      "korob": 4664,
      "chiqmayapti": 4665,
      "qotadi": 4666,
      "qopti": 4667,
      "momila": 4668,
      "borligi": 4669,
      "maydimi": 4670,
      "sel": 4671,
      "rangiga": 4672,
      "imiy": 4673,
      "imizga": 4674,
      "ishlatyabman": 4675,
      "vashee": 4676,
      "uziga": 4677,
      "animat": 4678,
      "nuri": 4679,
      "yopishtir": 4680,
      "yozilmagan": 4681,
      "boshqachasi": 4682,
      "xoxlaganimdek": 4683,
      "balki": 4684,
      "meniki": 4685,
      "vsem": 4686,
      "qattiqroq": 4687,
      "mamnunmiz": 4688,
      "sekun": 4689,
      "normalniy": 4690,
      "yorit": 4691,
      "chotkasi": 4692,
      "yerda": 4693,
      "turishi": 4694,
      "telefonim": 4695,
      "sotvo": 4696,
      "axvol": 4697,
      "rasmdegidan": 4698,
      "ayolim": 4699,
      "garantiyasi": 4700,
      "tochno": 4701,
      "uvchilarga": 4702,
      "krassovka": 4703,
      "uxshaydi": 4704,
      "srazi": 4705,
      "kayfiyat": 4706,
      "baqvat": 4707,
      "recommen": 4708,
      "ati": 4709,
      "blin": 4710,
      "cen": 4711,
      "seri": 4712,
      "that": 4713,
      "use": 4714,
      "xtab": 4715,
      "xoraz": 4716,
      "yac": 4717,
      "daqi": 4718,
      "lamasi": 4719,
      "chki": 4720,
      "yodi": 4721,
      "yozga": 4722,
      "shirkan": 4723,
      "shikast": 4724,
      "ekanlekin": 4725,
      "ganday": 4726,
      "sassi": 4727,
      "chiqi": 4728,
      "vauuuu": 4729,
      "kuniga": 4730,
      "kumush": 4731,
      "kili": 4732,
      "dani": 4733,
      "temiri": 4734,
      "misila": 4735,
      "marker": 4736,
      "yech": 4737,
      "ydir": 4738,
      "cheti": 4739,
      "atro": 4740,
      "dedi": 4741,
      "kormadik": 4742,
      "qom": 4743,
      "shaa": 4744,
      "razmat": 4745,
      "zaryadchigi": 4746,
      "kundalik": 4747,
      "klassnaya": 4748,
      "vir": 4749,
      "qoldir": 4750,
      "obar": 4751,
      "beriladimi": 4752,
      "telya": 4753,
      "almashtr": 4754,
      "gizda": 4755,
      "xatto": 4756,
      "atirni": 4757,
      "xodimlarga": 4758,
      "bowqaca": 4759,
      "tezkorlik": 4760,
      "kottaroq": 4761,
      "kulrang": 4762,
      "yorilib": 4763,
      "sharf": 4764,
      "ginekan": 4765,
      "narmalniy": 4766,
      "orqali": 4767,
      "priyatnaya": 4768,
      "deyilgandi": 4769,
      "raxmaaat": 4770,
      "tegdi": 4771,
      "odatiy": 4772,
      "tugma": 4773,
      "bayram": 4774,
      "dostavku": 4775,
      "podarka": 4776,
      "karopkasi": 4777,
      "firma": 4778,
      "ortiqcha": 4779,
      "chaynik": 4780,
      "boyicha": 4781,
      "karandash": 4782,
      "nauwnik": 4783,
      "ac": 4784,
      "esiz": 4785,
      "hur": 4786,
      "osa": 4787,
      "opi": 4788,
      "pin": 4789,
      "qz": 4790,
      "sro": 4791,
      "ular": 4792,
      "ana": 4793,
      "ekanmenga": 4794,
      "kadi": 4795,
      "oyn": 4796,
      "ergiya": 4797,
      "raxmattt": 4798,
      "lol": 4799,
      "chir": 4800,
      "olyapti": 4801,
      "kiladi": 4802,
      "kilingan": 4803,
      "zay": 4804,
      "bila": 4805,
      "kog": 4806,
      "mikan": 4807,
      "nay": 4808,
      "yemon": 4809,
      "narxida": 4810,
      "atr": 4811,
      "degandim": 4812,
      "kordm": 4813,
      "mdagidek": 4814,
      "wirin": 4815,
      "mox": 4816,
      "maylar": 4817,
      "nechi": 4818,
      "ret": 4819,
      "oylab": 4820,
      "oylaganimda": 4821,
      "boshqasiga": 4822,
      "zaryadga": 4823,
      "yekimli": 4824,
      "ishlatganman": 4825,
      "zoe": 4826,
      "ushlaydi": 4827,
      "tozalash": 4828,
      "termo": 4829,
      "terini": 4830,
      "bozorga": 4831,
      "xoroshe": 4832,
      "xoroshiye": 4833,
      "kutganmdan": 4834,
      "yuvishga": 4835,
      "rozimasman": 4836,
      "assalauma": 4837,
      "foydalanishga": 4838,
      "oldingi": 4839,
      "ulanmadi": 4840,
      "savd": 4841,
      "aytganday": 4842,
      "haftaga": 4843,
      "kutkanimdek": 4844,
      "kuygan": 4845,
      "mashinaga": 4846,
      "olmadik": 4847,
      "brend": 4848,
      "chuda": 4849,
      "mokchi": 4850,
      "suratdagidek": 4851,
      "mikrofoni": 4852,
      "akkuratniy": 4853,
      "qopqoqli": 4854,
      "plasmassa": 4855,
      "oyludim": 4856,
      "moshniy": 4857,
      "ustidagi": 4858,
      "ortogimga": 4859,
      "dizayniga": 4860,
      "bolshoye": 4861,
      "daqiqa": 4862,
      "37": 4863,
      "blan": 4864,
      "km": 4865,
      "klaman": 4866,
      "oyogi": 4867,
      "vr": 4868,
      "wib": 4869,
      "maqom": 4870,
      "shur": 4871,
      "oram": 4872,
      "ortasi": 4873,
      "radar": 4874,
      "sili": 4875,
      "yob": 4876,
      "jude": 4877,
      "are": 4878,
      "oyli": 4879,
      "fatli": 4880,
      "instru": 4881,
      "sutka": 4882,
      "gandm": 4883,
      "vazi": 4884,
      "qisa": 4885,
      "joyga": 4886,
      "ishlamaskan": 4887,
      "bulishdi": 4888,
      "soxta": 4889,
      "tulik": 4890,
      "miyapti": 4891,
      "bergani": 4892,
      "libdi": 4893,
      "konsil": 4894,
      "jada": 4895,
      "arzonakan": 4896,
      "qoyar": 4897,
      "boru": 4898,
      "nes": 4899,
      "xotini": 4900,
      "xabar": 4901,
      "yahshimas": 4902,
      "beril": 4903,
      "barobar": 4904,
      "zakazi": 4905,
      "tavarga": 4906,
      "uvlaj": 4907,
      "sport": 4908,
      "haqida": 4909,
      "nozikroq": 4910,
      "yotganda": 4911,
      "matodan": 4912,
      "kitobni": 4913,
      "normalni": 4914,
      "odamni": 4915,
      "kutilgandek": 4916,
      "qurit": 4917,
      "chontak": 4918,
      "xohlaganimdek": 4919,
      "oqarib": 4920,
      "miyman": 4921,
      "chegirmalar": 4922,
      "rezinkasi": 4923,
      "ishchilariga": 4924,
      "olmaganda": 4925,
      "mashaalloh": 4926,
      "buyirtma": 4927,
      "svejiy": 4928,
      "kimiman": 4929,
      "girlyanda": 4930,
      "vkusnya": 4931,
      "1ga": 4932,
      "byur": 4933,
      "doro": 4934,
      "gn": 4935,
      "get": 4936,
      "izo": 4937,
      "jinga": 4938,
      "ps": 4939,
      "srok": 4940,
      "teng": 4941,
      "vka": 4942,
      "makiya": 4943,
      "davol": 4944,
      "lazer": 4945,
      "yoh": 4946,
      "juft": 4947,
      "yoqmad": 4948,
      "yoqqan": 4949,
      "kalari": 4950,
      "kep": 4951,
      "ketishi": 4952,
      "savol": 4953,
      "yoqdirahmat": 4954,
      "yamon": 4955,
      "vara": 4956,
      "sifatixam": 4957,
      "bik": 4958,
      "vomiz": 4959,
      "tushi": 4960,
      "koche": 4961,
      "kopa": 4962,
      "kolon": 4963,
      "qula": 4964,
      "baga": 4965,
      "baki": 4966,
      "noski": 4967,
      "arzonligiga": 4968,
      "qulaygina": 4969,
      "yurgandim": 4970,
      "rasmdagiga": 4971,
      "darajasi": 4972,
      "darajadagi": 4973,
      "yahsh": 4974,
      "sebe": 4975,
      "pil": 4976,
      "xama": 4977,
      "jigar": 4978,
      "qolni": 4979,
      "uylab": 4980,
      "well": 4981,
      "turmasakan": 4982,
      "sotuvchilar": 4983,
      "olgandm": 4984,
      "dugon": 4985,
      "stic": 4986,
      "rator": 4987,
      "tozalar": 4988,
      "qulog": 4989,
      "terla": 4990,
      "tekin": 4991,
      "aytkan": 4992,
      "sfatiyam": 4993,
      "nikini": 4994,
      "kirlarni": 4995,
      "xoxlaganimday": 4996,
      "spekt": 4997,
      "buyurtman": 4998,
      "qiziqib": 4999,
      "tishibdi": 5000,
      "tashlab": 5001,
      "aldash": 5002,
      "tirar": 5003,
      "haqiqatan": 5004,
      "xidli": 5005,
      "ushlamaydi": 5006,
      "berishibdi": 5007,
      "lerkan": 5008,
      "qoyaman": 5009,
      "vuyet": 5010,
      "narhga": 5011,
      "port": 5012,
      "qizalogim": 5013,
      "lyubi": 5014,
      "urila": 5015,
      "malomeryat": 5016,
      "yuboribsizlar": 5017,
      "work": 5018,
      "qilamn": 5019,
      "slishkom": 5020,
      "tikilmagan": 5021,
      "kapalak": 5022,
      "navushnik": 5023,
      "48": 5024,
      "amat": 5025,
      "alekom": 5026,
      "dp": 5027,
      "flo": 5028,
      "ggi": 5029,
      "hmat": 5030,
      "mdek": 5031,
      "noy": 5032,
      "ngizni": 5033,
      "slaga": 5034,
      "tkasi": 5035,
      "udi": 5036,
      "utir": 5037,
      "utmagan": 5038,
      "wti": 5039,
      "xs": 5040,
      "zamo": 5041,
      "shopper": 5042,
      "ore": 5043,
      "lagandim": 5044,
      "ramat": 5045,
      "chk": 5046,
      "chta": 5047,
      "lis": 5048,
      "judaaa": 5049,
      "yoqib": 5050,
      "yaxshirok": 5051,
      "kamiga": 5052,
      "sad": 5053,
      "chisti": 5054,
      "vav": 5055,
      "bot": 5056,
      "ishlavotdi": 5057,
      "yurarkan": 5058,
      "romol": 5059,
      "bildi": 5060,
      "voli": 5061,
      "tem": 5062,
      "tepa": 5063,
      "teyn": 5064,
      "ketga": 5065,
      "sifatlikan": 5066,
      "tusha": 5067,
      "royxatdan": 5068,
      "stroy": 5069,
      "chiroyliyakan": 5070,
      "kattalik": 5071,
      "arzedi": 5072,
      "rila": 5073,
      "all": 5074,
      "lanadi": 5075,
      "pach": 5076,
      "tartib": 5077,
      "mey": 5078,
      "proma": 5079,
      "shevo": 5080,
      "bolmasa": 5081,
      "otstoy": 5082,
      "dos": 5083,
      "doimiy": 5084,
      "qilyapti": 5085,
      "yarash": 5086,
      "iwon": 5087,
      "iwlarizga": 5088,
      "ichim": 5089,
      "ishlamadiku": 5090,
      "tanlaganim": 5091,
      "etmayman": 5092,
      "etkazib": 5093,
      "tishdi": 5094,
      "tishlari": 5095,
      "turbo": 5096,
      "dukon": 5097,
      "dumalo": 5098,
      "koptok": 5099,
      "ishlarilaga": 5100,
      "yuzda": 5101,
      "almashtiri": 5102,
      "uzukni": 5103,
      "gizlar": 5104,
      "kovrik": 5105,
      "materialiga": 5106,
      "qorasi": 5107,
      "kirib": 5108,
      "zakazimmi": 5109,
      "yabmiz": 5110,
      "eeee": 5111,
      "qalinroq": 5112,
      "simkarta": 5113,
      "shikarnoye": 5114,
      "uzunligi": 5115,
      "zontik": 5116,
      "koyil": 5117,
      "stakan": 5118,
      "qludm": 5119,
      "ishlatayapman": 5120,
      "xohlagan": 5121,
      "realno": 5122,
      "ujasno": 5123,
      "priyatno": 5124,
      "quydim": 5125,
      "dovolna": 5126,
      "tiradigan": 5127,
      "qizalogimga": 5128,
      "tarifga": 5129,
      "biriga": 5130,
      "rahmaat": 5131,
      "kelipti": 5132,
      "antiqa": 5133,
      "qurun": 5134,
      "fiksa": 5135,
      "balon": 5136,
      "svoi": 5137,
      "judeyam": 5138,
      "vkusnyashka": 5139,
      "01": 5140,
      "1kunga": 5141,
      "52": 5142,
      "azo": 5143,
      "holi": 5144,
      "lkasi": 5145,
      "oa": 5146,
      "ote": 5147,
      "ogani": 5148,
      "qli": 5149,
      "tru": 5150,
      "veri": 5151,
      "wlari": 5152,
      "ekti": 5153,
      "ekon": 5154,
      "yonar": 5155,
      "junat": 5156,
      "taw": 5157,
      "oylan": 5158,
      "sut": 5159,
      "suyuk": 5160,
      "gansila": 5161,
      "chirogi": 5162,
      "olmayman": 5163,
      "imman": 5164,
      "hamme": 5165,
      "kiga": 5166,
      "qichi": 5167,
      "ajoyibbb": 5168,
      "bub": 5169,
      "qap": 5170,
      "roid": 5171,
      "toshi": 5172,
      "soda": 5173,
      "sokol": 5174,
      "tey": 5175,
      "kotib": 5176,
      "nax": 5177,
      "yesh": 5178,
      "ydigan": 5179,
      "quyosh": 5180,
      "emasman": 5181,
      "bajar": 5182,
      "notugri": 5183,
      "rasam": 5184,
      "pachoq": 5185,
      "mahsulotning": 5186,
      "mow": 5187,
      "razmerni": 5188,
      "qatan": 5189,
      "aybi": 5190,
      "ayfon": 5191,
      "haj": 5192,
      "hayot": 5193,
      "ozimiz": 5194,
      "beramiz": 5195,
      "okar": 5196,
      "tushga": 5197,
      "tushmayapti": 5198,
      "zaryadla": 5199,
      "klassnoye": 5200,
      "kelmas": 5201,
      "kichiklik": 5202,
      "tanalka": 5203,
      "kachestvaga": 5204,
      "turmadi": 5205,
      "shuning": 5206,
      "midigan": 5207,
      "korsatarkan": 5208,
      "tozaladi": 5209,
      "doimgiday": 5210,
      "yabon": 5211,
      "yopishqoq": 5212,
      "jamosiga": 5213,
      "spon": 5214,
      "ishonch": 5215,
      "128": 5216,
      "donasi": 5217,
      "slabi": 5218,
      "orasida": 5219,
      "ogzi": 5220,
      "simsiz": 5221,
      "vobshe": 5222,
      "aldashdi": 5223,
      "asalcha": 5224,
      "eshit": 5225,
      "jonati": 5226,
      "ikkinchisi": 5227,
      "minnatdormiz": 5228,
      "tikilish": 5229,
      "buyr": 5230,
      "tochna": 5231,
      "tugmasi": 5232,
      "kachistvasi": 5233,
      "oylaganimday": 5234,
      "moshinani": 5235,
      "shakli": 5236,
      "kamchiliklari": 5237,
      "variant": 5238,
      "eshitilishi": 5239,
      "sredniy": 5240,
      "beraslami": 5241,
      "oylodim": 5242,
      "registratsiya": 5243,
      "istemol": 5244,
      "makiyaj": 5245,
      "29": 5246,
      "65": 5247,
      "aux": 5248,
      "con": 5249,
      "dd": 5250,
      "demas": 5251,
      "ff": 5252,
      "gm": 5253,
      "halol": 5254,
      "luch": 5255,
      "mniy": 5256,
      "ofi": 5257,
      "oxir": 5258,
      "qmiman": 5259,
      "tsya": 5260,
      "uji": 5261,
      "was": 5262,
      "wuni": 5263,
      "xti": 5264,
      "yaaxshi": 5265,
      "davo": 5266,
      "orti": 5267,
      "matli": 5268,
      "yaxshiro": 5269,
      "inson": 5270,
      "kes": 5271,
      "yoqdiuzum": 5272,
      "vas": 5273,
      "kuu": 5274,
      "bomas": 5275,
      "kip": 5276,
      "zaqaz": 5277,
      "toli": 5278,
      "soyabon": 5279,
      "ketkan": 5280,
      "arzoni": 5281,
      "pakt": 5282,
      "mod": 5283,
      "maxkam": 5284,
      "bormasdan": 5285,
      "program": 5286,
      "assaloma": 5287,
      "sss": 5288,
      "assalomualeykum": 5289,
      "singlim": 5290,
      "doska": 5291,
      "respekt": 5292,
      "setka": 5293,
      "hoyat": 5294,
      "podelka": 5295,
      "uzok": 5296,
      "aleykumsizlarga": 5297,
      "tursa": 5298,
      "uzilgan": 5299,
      "barmoq": 5300,
      "telda": 5301,
      "issiqlikni": 5302,
      "echko": 5303,
      "bunda": 5304,
      "oxwi": 5305,
      "sochga": 5306,
      "xaridor": 5307,
      "uylaganim": 5308,
      "kolechko": 5309,
      "soatgayam": 5310,
      "bolardim": 5311,
      "paytida": 5312,
      "150": 5313,
      "zamok": 5314,
      "odamlani": 5315,
      "mmm": 5316,
      "oshdi": 5317,
      "haftadan": 5318,
      "kuydim": 5319,
      "chetki": 5320,
      "parf": 5321,
      "xushbuy": 5322,
      "tozalashi": 5323,
      "oladigan": 5324,
      "alishtir": 5325,
      "rasimdagiday": 5326,
      "karaganda": 5327,
      "maxsulat": 5328,
      "chiroli": 5329,
      "poluchila": 5330,
      "dadamga": 5331,
      "podarok": 5332,
      "kamplek": 5333,
      "xaqiqatdan": 5334,
      "yotibti": 5335,
      "comfortable": 5336,
      "yozaman": 5337,
      "animatsiya": 5338,
      "opisani": 5339,
      "lyubitelya": 5340,
      "28": 5341,
      "64": 5342,
      "75": 5343,
      "elan": 5344,
      "fla": 5345,
      "iq": 5346,
      "jani": 5347,
      "kli": 5348,
      "nek": 5349,
      "ts": 5350,
      "tsiya": 5351,
      "wam": 5352,
      "maya": 5353,
      "daji": 5354,
      "laganimdan": 5355,
      "chuzilib": 5356,
      "yomi": 5357,
      "ekanman": 5358,
      "ekanuzum": 5359,
      "kash": 5360,
      "kamer": 5361,
      "taloni": 5362,
      "erkak": 5363,
      "mangizga": 5364,
      "kechasi": 5365,
      "niyam": 5366,
      "lardi": 5367,
      "vatli": 5368,
      "ajoyim": 5369,
      "xisobga": 5370,
      "chat": 5371,
      "kogan": 5372,
      "kost": 5373,
      "kolamiz": 5374,
      "leki": 5375,
      "milash": 5376,
      "bermay": 5377,
      "kattaligi": 5378,
      "bah": 5379,
      "ril": 5380,
      "alergiya": 5381,
      "larida": 5382,
      "moщ": 5383,
      "shaf": 5384,
      "meh": 5385,
      "kichgina": 5386,
      "urib": 5387,
      "olip": 5388,
      "pos": 5389,
      "pojal": 5390,
      "kelyapti": 5391,
      "qizlar": 5392,
      "ishlatganim": 5393,
      "ishlattim": 5394,
      "topol": 5395,
      "buyurtmalarimni": 5396,
      "uydagi": 5397,
      "qoysam": 5398,
      "labni": 5399,
      "turgan": 5400,
      "qaytarsa": 5401,
      "mumkinmi": 5402,
      "chexolni": 5403,
      "krasov": 5404,
      "aytsam": 5405,
      "tugadi": 5406,
      "tugaydi": 5407,
      "xizmatga": 5408,
      "kelganda": 5409,
      "punk": 5410,
      "oldindan": 5411,
      "krasof": 5412,
      "ajjoyib": 5413,
      "yoriq": 5414,
      "sharh": 5415,
      "tashqari": 5416,
      "tashavor": 5417,
      "afsuslanmaysiz": 5418,
      "android": 5419,
      "rassayam": 5420,
      "muddat": 5421,
      "derji": 5422,
      "sochimni": 5423,
      "egasiga": 5424,
      "aulot": 5425,
      "ahvol": 5426,
      "qoyibman": 5427,
      "apparat": 5428,
      "muroja": 5429,
      "qidirgan": 5430,
      "remesho": 5431,
      "ciqmadi": 5432,
      "adashibman": 5433,
      "beriwdi": 5434,
      "kosmetichka": 5435,
      "elektron": 5436,
      "vsyo": 5437,
      "shanpun": 5438,
      "yotipti": 5439,
      "kottekan": 5440,
      "recommend": 5441,
      "dekan": 5442,
      "ej": 5443,
      "fin": 5444,
      "fsiz": 5445,
      "gg": 5446,
      "gona": 5447,
      "jor": 5448,
      "kini": 5449,
      "luvchan": 5450,
      "oti": 5451,
      "okat": 5452,
      "ppa": 5453,
      "ust": 5454,
      "vdim": 5455,
      "yr": 5456,
      "shki": 5457,
      "shoq": 5458,
      "dastav": 5459,
      "orni": 5460,
      "lax": 5461,
      "sion": 5462,
      "lit": 5463,
      "tilab": 5464,
      "yona": 5465,
      "yooq": 5466,
      "mate": 5467,
      "kashe": 5468,
      "tasini": 5469,
      "oylayman": 5470,
      "kechikib": 5471,
      "nitsa": 5472,
      "vata": 5473,
      "kuda": 5474,
      "kimat": 5475,
      "kidan": 5476,
      "kilarkan": 5477,
      "zurekan": 5478,
      "masekan": 5479,
      "bup": 5480,
      "bula": 5481,
      "bumadi": 5482,
      "muno": 5483,
      "muximi": 5484,
      "qadogi": 5485,
      "unaka": 5486,
      "inakan": 5487,
      "puper": 5488,
      "umumman": 5489,
      "urna": 5490,
      "zakazimiz": 5491,
      "mayla": 5492,
      "qattan": 5493,
      "ayman": 5494,
      "hama": 5495,
      "hato": 5496,
      "sinip": 5497,
      "pishi": 5498,
      "vit": 5499,
      "kichikro": 5500,
      "bombaaa": 5501,
      "shum": 5502,
      "kurdik": 5503,
      "ranglariyam": 5504,
      "qando": 5505,
      "topib": 5506,
      "mumkn": 5507,
      "qoyila": 5508,
      "kelmadiku": 5509,
      "ochilmagan": 5510,
      "izlab": 5511,
      "tinglar": 5512,
      "lashdi": 5513,
      "terlat": 5514,
      "uzukka": 5515,
      "kerekan": 5516,
      "olishdi": 5517,
      "oxwa": 5518,
      "xariddan": 5519,
      "tugarkan": 5520,
      "masimdan": 5521,
      "bizni": 5522,
      "oyoqni": 5523,
      "xaro": 5524,
      "payti": 5525,
      "deyish": 5526,
      "qoyilmaqom": 5527,
      "5050": 5528,
      "brag": 5529,
      "iwlatsa": 5530,
      "idishda": 5531,
      "kechqurun": 5532,
      "ishlamiy": 5533,
      "ishlamiyapti": 5534,
      "reklamadagidek": 5535,
      "rasmdegide": 5536,
      "xizmatiga": 5537,
      "judyam": 5538,
      "laganimde": 5539,
      "dokonga": 5540,
      "burcha": 5541,
      "shishasi": 5542,
      "tasavur": 5543,
      "bazida": 5544,
      "junatib": 5545,
      "bilinadi": 5546,
      "kachstva": 5547,
      "yasalgan": 5548,
      "nuqta": 5549,
      "yuvilgan": 5550,
      "xakikatdan": 5551,
      "gradus": 5552,
      "narseykan": 5553,
      "ehtiyot": 5554,
      "murojaat": 5555,
      "2kunda": 5556,
      "bre": 5557,
      "brat": 5558,
      "dga": 5559,
      "dol": 5560,
      "dru": 5561,
      "hal": 5562,
      "izi": 5563,
      "kta": 5564,
      "lda": 5565,
      "omagan": 5566,
      "psila": 5567,
      "solsa": 5568,
      "makan": 5569,
      "anik": 5570,
      "digon": 5571,
      "diyilgan": 5572,
      "yaz": 5573,
      "yaga": 5574,
      "chani": 5575,
      "yaxshigina": 5576,
      "kas": 5577,
      "fatiga": 5578,
      "indi": 5579,
      "kebdi": 5580,
      "larsiz": 5581,
      "onson": 5582,
      "bomasa": 5583,
      "ishlatadi": 5584,
      "roli": 5585,
      "biladi": 5586,
      "votu": 5587,
      "teja": 5588,
      "tepasi": 5589,
      "telimga": 5590,
      "chalka": 5591,
      "kof": 5592,
      "pushay": 5593,
      "berin": 5594,
      "basakan": 5595,
      "noodatiy": 5596,
      "otlichna": 5597,
      "qolish": 5598,
      "kutar": 5599,
      "yetsya": 5600,
      "assal": 5601,
      "rasmdagidey": 5602,
      "dov": 5603,
      "selar": 5604,
      "bolalarni": 5605,
      "holat": 5606,
      "polo": 5607,
      "lishini": 5608,
      "ishini": 5609,
      "qizla": 5610,
      "uzo": 5611,
      "ishlatb": 5612,
      "ishlatgan": 5613,
      "toplami": 5614,
      "buyurtmami": 5615,
      "uyni": 5616,
      "turmidi": 5617,
      "supe": 5618,
      "yaxshimaskan": 5619,
      "ishlarizni": 5620,
      "rasmini": 5621,
      "versal": 5622,
      "olishmadi": 5623,
      "tavarlar": 5624,
      "price": 5625,
      "yozda": 5626,
      "rozgor": 5627,
      "kilsam": 5628,
      "shirinlik": 5629,
      "vapwee": 5630,
      "siladan": 5631,
      "natijani": 5632,
      "uvol": 5633,
      "isiq": 5634,
      "xodimlari": 5635,
      "fos": 5636,
      "maydalanib": 5637,
      "kodni": 5638,
      "olchamlari": 5639,
      "aytilgandek": 5640,
      "bilinmadi": 5641,
      "ruchkasi": 5642,
      "avtomo": 5643,
      "tanlovda": 5644,
      "qoniqmadim": 5645,
      "qogozi": 5646,
      "gilofi": 5647,
      "muammosiz": 5648,
      "ogandm": 5649,
      "laringizga": 5650,
      "qimir": 5651,
      "olodim": 5652,
      "grami": 5653,
      "yorug": 5654,
      "ayollar": 5655,
      "yetarli": 5656,
      "nuqson": 5657,
      "aytmaganda": 5658,
      "boyalib": 5659,
      "shlang": 5660,
      "bayramga": 5661,
      "sichqoncha": 5662,
      "shtuchka": 5663,
      "boshqacharoq": 5664,
      "yuvarkan": 5665,
      "sassiq": 5666,
      "konsiler": 5667,
      "pushaymon": 5668,
      "3marta": 5669,
      "abi": 5670,
      "ass": 5671,
      "bro": 5672,
      "bzaga": 5673,
      "cali": 5674,
      "dli": 5675,
      "dvoy": 5676,
      "ele": 5677,
      "edm": 5678,
      "lli": 5679,
      "ny": 5680,
      "nini": 5681,
      "obor": 5682,
      "omasa": 5683,
      "ochadi": 5684,
      "poli": 5685,
      "qr": 5686,
      "ruz": 5687,
      "tmani": 5688,
      "wok": 5689,
      "zdan": 5690,
      "damas": 5691,
      "yotadi": 5692,
      "yaxshilab": 5693,
      "kamar": 5694,
      "taqa": 5695,
      "tawa": 5696,
      "fay": 5697,
      "kemagan": 5698,
      "samar": 5699,
      "chisi": 5700,
      "nib": 5701,
      "nihoyat": 5702,
      "gaplashib": 5703,
      "zuri": 5704,
      "ishlay": 5705,
      "gidi": 5706,
      "bura": 5707,
      "rom": 5708,
      "roxmat": 5709,
      "sota": 5710,
      "sofka": 5711,
      "ketmidi": 5712,
      "tube": 5713,
      "tuvchi": 5714,
      "mikin": 5715,
      "misla": 5716,
      "mijoz": 5717,
      "nastroy": 5718,
      "quyib": 5719,
      "bervoti": 5720,
      "berdik": 5721,
      "berudim": 5722,
      "yapan": 5723,
      "pulizga": 5724,
      "def": 5725,
      "mahsulotlari": 5726,
      "oqlari": 5727,
      "korn": 5728,
      "wiy": 5729,
      "betakror": 5730,
      "qow": 5731,
      "hidini": 5732,
      "urgan": 5733,
      "bolani": 5734,
      "hafa": 5735,
      "harakat": 5736,
      "yonka": 5737,
      "kiydim": 5738,
      "iwlangan": 5739,
      "ishiy": 5740,
      "viso": 5741,
      "kelsa": 5742,
      "ichidegi": 5743,
      "yirik": 5744,
      "masaka": 5745,
      "buyurtmamiz": 5746,
      "qimmatga": 5747,
      "turinglar": 5748,
      "kutganimdaqa": 5749,
      "supee": 5750,
      "suppper": 5751,
      "onajonimga": 5752,
      "vashem": 5753,
      "oynavoti": 5754,
      "minna": 5755,
      "barmo": 5756,
      "ishlarilarga": 5757,
      "veщ": 5758,
      "naushnikka": 5759,
      "xorosh": 5760,
      "aytganim": 5761,
      "yopisharkan": 5762,
      "guni": 5763,
      "sprey": 5764,
      "idealniy": 5765,
      "fort": 5766,
      "matoviy": 5767,
      "ulanadi": 5768,
      "yaxshmas": 5769,
      "qiyinroq": 5770,
      "aylandi": 5771,
      "sezilar": 5772,
      "yerib": 5773,
      "iwlatvoman": 5774,
      "ishlamayopti": 5775,
      "qililar": 5776,
      "turila": 5777,
      "kutilgandan": 5778,
      "muddao": 5779,
      "bolajonlarga": 5780,
      "polez": 5781,
      "televizorga": 5782,
      "tozalamadi": 5783,
      "sorayman": 5784,
      "buyru": 5785,
      "karobkada": 5786,
      "teriga": 5787,
      "bulilar": 5788,
      "akuratni": 5789,
      "powerbank": 5790,
      "qayerda": 5791,
      "asab": 5792,
      "zakasimni": 5793,
      "kuprok": 5794,
      "kuproq": 5795,
      "knopkalari": 5796,
      "tovara": 5797,
      "qalbaki": 5798,
      "kapsu": 5799,
      "yaltirab": 5800,
      "igru": 5801,
      "unamadi": 5802,
      "charchamela": 5803,
      "hozr": 5804,
      "olaveringlar": 5805,
      "razmera": 5806,
      "skromniy": 5807,
      "zerik": 5808,
      "byurtma": 5809,
      "derjit": 5810,
      "munosib": 5811,
      "1marta": 5812,
      "ben": 5813,
      "bln": 5814,
      "car": 5815,
      "cqdi": 5816,
      "ep": 5817,
      "i12": 5818,
      "i18": 5819,
      "kb": 5820,
      "ky": 5821,
      "kni": 5822,
      "kari": 5823,
      "lt": 5824,
      "otta": 5825,
      "ogil": 5826,
      "ous": 5827,
      "oganimda": 5828,
      "qn": 5829,
      "qp": 5830,
      "qmmat": 5831,
      "tarz": 5832,
      "tre": 5833,
      "ugri": 5834,
      "von": 5835,
      "vani": 5836,
      "zӯ": 5837,
      "zla": 5838,
      "yarok": 5839,
      "your": 5840,
      "arli": 5841,
      "tadan": 5842,
      "tapi": 5843,
      "taqin": 5844,
      "zum": 5845,
      "zumda": 5846,
      "erta": 5847,
      "box": 5848,
      "boho": 5849,
      "boganda": 5850,
      "kisti": 5851,
      "kilamiz": 5852,
      "kizalo": 5853,
      "sifatiham": 5854,
      "ishlaga": 5855,
      "ishlatim": 5856,
      "masku": 5857,
      "ajoyin": 5858,
      "buv": 5859,
      "unuk": 5860,
      "zashi": 5861,
      "toxtab": 5862,
      "sox": 5863,
      "keldii": 5864,
      "keldiyu": 5865,
      "tup": 5866,
      "tula": 5867,
      "kozi": 5868,
      "kozga": 5869,
      "kofta": 5870,
      "mid": 5871,
      "mima": 5872,
      "naga": 5873,
      "yedik": 5874,
      "bermidi": 5875,
      "badan": 5876,
      "nomi": 5877,
      "cheska": 5878,
      "arzime": 5879,
      "detal": 5880,
      "pati": 5881,
      "chiqmas": 5882,
      "with": 5883,
      "jaa": 5884,
      "bezak": 5885,
      "tarqa": 5886,
      "sifatda": 5887,
      "ursa": 5888,
      "bormay": 5889,
      "kichkinasi": 5890,
      "kichkinalik": 5891,
      "boshqar": 5892,
      "aytib": 5893,
      "nevara": 5894,
      "ozm": 5895,
      "klash": 5896,
      "realda": 5897,
      "okib": 5898,
      "kiyish": 5899,
      "kiyimi": 5900,
      "rangdan": 5901,
      "topchik": 5902,
      "qolmadi": 5903,
      "ganida": 5904,
      "originalmas": 5905,
      "qoron": 5906,
      "olganman": 5907,
      "olgandan": 5908,
      "oynavotti": 5909,
      "tinda": 5910,
      "joyiga": 5911,
      "vorarkan": 5912,
      "mingdan": 5913,
      "doimgide": 5914,
      "aksiyalarni": 5915,
      "idial": 5916,
      "yopishmas": 5917,
      "yopishtirib": 5918,
      "pasda": 5919,
      "ishlaringizda": 5920,
      "hursandmiz": 5921,
      "xizmatlar": 5922,
      "kolyapti": 5923,
      "shamol": 5924,
      "cobaltga": 5925,
      "balt": 5926,
      "buzulib": 5927,
      "quloqchinni": 5928,
      "tashqi": 5929,
      "efektini": 5930,
      "ketipti": 5931,
      "iwlatb": 5932,
      "jonim": 5933,
      "realni": 5934,
      "nasadkasi": 5935,
      "massajor": 5936,
      "comment": 5937,
      "daftarlar": 5938,
      "yoruglik": 5939,
      "ornatib": 5940,
      "ornatish": 5941,
      "ocen": 5942,
      "kipriklarni": 5943,
      "istagandek": 5944,
      "paypoqlar": 5945,
      "maqta": 5946,
      "bervorishibdi": 5947,
      "aralash": 5948,
      "aytmasa": 5949,
      "iwlatiw": 5950,
      "sushilka": 5951,
      "yozuvlari": 5952,
      "momiqqina": 5953,
      "nakleyka": 5954,
      "ximoya": 5955,
      "bekiston": 5956,
      "xamenbop": 5957,
      "seriy": 5958,
      "yacshi": 5959,
      "xorosheye": 5960,
      "chistit": 5961,
      "teyner": 5962,
      "27": 5963,
      "2000": 5964,
      "adm": 5965,
      "blo": 5966,
      "bari": 5967,
      "boyin": 5968,
      "emasakan": 5969,
      "ever": 5970,
      "iladi": 5971,
      "skor": 5972,
      "tolmadi": 5973,
      "uq": 5974,
      "upo": 5975,
      "ww": 5976,
      "wun": 5977,
      "zr": 5978,
      "mayapman": 5979,
      "dali": 5980,
      "latib": 5981,
      "sinov": 5982,
      "chto": 5983,
      "china": 5984,
      "chkasi": 5985,
      "chyot": 5986,
      "limon": 5987,
      "yotarkan": 5988,
      "yoqo": 5989,
      "yoqq": 5990,
      "katush": 5991,
      "tabiy": 5992,
      "fas": 5993,
      "ertalab": 5994,
      "sumi": 5995,
      "ishta": 5996,
      "yamman": 5997,
      "vakum": 5998,
      "vauuu": 5999,
      "kulo": 6000,
      "kunim": 6001,
      "boma": 6002,
      "boyogi": 6003,
      "hammangizga": 6004,
      "kilishi": 6005,
      "kisto": 6006,
      "ishlatma": 6007,
      "yuva": 6008,
      "buyu": 6009,
      "mut": 6010,
      "muom": 6011,
      "unu": 6012,
      "zav": 6013,
      "uzumdagilarga": 6014,
      "bizi": 6015,
      "xiri": 6016,
      "sok": 6017,
      "teshek": 6018,
      "tus": 6019,
      "turu": 6020,
      "tufli": 6021,
      "inaga": 6022,
      "kogi": 6023,
      "nav": 6024,
      "yey": 6025,
      "aloooo": 6026,
      "pud": 6027,
      "qule": 6028,
      "laymiz": 6029,
      "bag": 6030,
      "puliyam": 6031,
      "narsalarimni": 6032,
      "rascheska": 6033,
      "deya": 6034,
      "lanish": 6035,
      "padi": 6036,
      "qogani": 6037,
      "biron": 6038,
      "urta": 6039,
      "yetkizib": 6040,
      "bormaydi": 6041,
      "assalam": 6042,
      "yaxwimasakan": 6043,
      "otmas": 6044,
      "sovut": 6045,
      "xojat": 6046,
      "dom": 6047,
      "doch": 6048,
      "xidini": 6049,
      "rej": 6050,
      "berama": 6051,
      "qiludm": 6052,
      "kiyimga": 6053,
      "kelmabdi": 6054,
      "yinimga": 6055,
      "kurganim": 6056,
      "yiq": 6057,
      "topshir": 6058,
      "uydagilarga": 6059,
      "karli": 6060,
      "shundo": 6061,
      "ochsam": 6062,
      "vasheee": 6063,
      "ovka": 6064,
      "chiqmadiku": 6065,
      "than": 6066,
      "thing": 6067,
      "krutaya": 6068,
      "pera": 6069,
      "keremas": 6070,
      "zakazal": 6071,
      "orginalmas": 6072,
      "qopqog": 6073,
      "yuvsa": 6074,
      "xoxlasa": 6075,
      "qiyna": 6076,
      "oyoqqa": 6077,
      "degide": 6078,
      "foydalanaman": 6079,
      "kaltaroq": 6080,
      "ulandi": 6081,
      "ichlari": 6082,
      "sharlar": 6083,
      "ishlatishim": 6084,
      "tashadi": 6085,
      "kursatish": 6086,
      "signal": 6087,
      "jonatishibdi": 6088,
      "xidlari": 6089,
      "mashinasi": 6090,
      "taqdim": 6091,
      "omadilarni": 6092,
      "yoqadigan": 6093,
      "yonida": 6094,
      "ynimga": 6095,
      "sochimga": 6096,
      "garantiyasini": 6097,
      "achinmaysiz": 6098,
      "tasmasi": 6099,
      "lyator": 6100,
      "rahmaaat": 6101,
      "buliwi": 6102,
      "funksiyalari": 6103,
      "yozuvi": 6104,
      "uzgar": 6105,
      "brasle": 6106,
      "zakasim": 6107,
      "ikkilanmasdan": 6108,
      "upakof": 6109,
      "ght": 6110,
      "plus": 6111,
      "myag": 6112,
      "icida": 6113,
      "tovush": 6114,
      "kachestvenniy": 6115,
      "kochada": 6116,
      "ulgurmadim": 6117,
      "korayib": 6118,
      "yaxshimisiz": 6119,
      "prishlo": 6120,
      "muomilasi": 6121,
      "yaltiroq": 6122,
      "kungildagidek": 6123,
      "sootvets": 6124,
      "ishonib": 6125,
      "kolonka": 6126,
      "ichimlik": 6127,
      "hayotda": 6128,
      "visote": 6129,
      "sezilarli": 6130,
      "tarzda": 6131,
      "zӯr": 6132,
      "teshekkur": 6133,
      "3000": 6134,
      "achi": 6135,
      "alati": 6136,
      "bam": 6137,
      "dy": 6138,
      "ei": 6139,
      "etma": 6140,
      "eshik": 6141,
      "icha": 6142,
      "kri": 6143,
      "lla": 6144,
      "lmayapti": 6145,
      "mz": 6146,
      "poy": 6147,
      "smal": 6148,
      "trim": 6149,
      "щa": 6150,
      "yadi": 6151,
      "yash": 6152,
      "ray": 6153,
      "zorrahmat": 6154,
      "chog": 6155,
      "liw": 6156,
      "yozarkan": 6157,
      "kadok": 6158,
      "tag": 6159,
      "talik": 6160,
      "tapochka": 6161,
      "fair": 6162,
      "kemidi": 6163,
      "sapasi": 6164,
      "chiki": 6165,
      "olme": 6166,
      "olgani": 6167,
      "vada": 6168,
      "bomayapti": 6169,
      "boling": 6170,
      "gapir": 6171,
      "gaplashi": 6172,
      "kit": 6173,
      "kirilgan": 6174,
      "qimadi": 6175,
      "masligi": 6176,
      "yuuu": 6177,
      "gila": 6178,
      "kana": 6179,
      "bilinib": 6180,
      "vohtida": 6181,
      "sifatliroq": 6182,
      "tuzi": 6183,
      "tushir": 6184,
      "basi": 6185,
      "high": 6186,
      "defekti": 6187,
      "tezroq": 6188,
      "paketi": 6189,
      "kaches": 6190,
      "kore": 6191,
      "korish": 6192,
      "kondit": 6193,
      "umumiy": 6194,
      "ginalakan": 6195,
      "qolay": 6196,
      "mezza": 6197,
      "kunam": 6198,
      "kunde": 6199,
      "kunlarda": 6200,
      "bolshi": 6201,
      "ayb": 6202,
      "ayrim": 6203,
      "yurgan": 6204,
      "yuqku": 6205,
      "dost": 6206,
      "tirnoq": 6207,
      "seli": 6208,
      "hox": 6209,
      "holagan": 6210,
      "pilka": 6211,
      "xara": 6212,
      "jid": 6213,
      "sovgalar": 6214,
      "yomonamas": 6215,
      "ishlatganda": 6216,
      "kamni": 6217,
      "qand": 6218,
      "qandey": 6219,
      "qoldiku": 6220,
      "labda": 6221,
      "magani": 6222,
      "qaytarmoqchi": 6223,
      "ochroq": 6224,
      "martalik": 6225,
      "aaat": 6226,
      "kopka": 6227,
      "uzidek": 6228,
      "ishlarizda": 6229,
      "naushnikga": 6230,
      "telfoni": 6231,
      "ovozini": 6232,
      "haliyam": 6233,
      "minglik": 6234,
      "oxsharkan": 6235,
      "yozgi": 6236,
      "kizlarimga": 6237,
      "quloqni": 6238,
      "kiyimni": 6239,
      "kiyimlar": 6240,
      "shirincha": 6241,
      "sochlarni": 6242,
      "kompakt": 6243,
      "yahwikan": 6244,
      "foydalana": 6245,
      "payda": 6246,
      "yarimi": 6247,
      "szlarga": 6248,
      "pryat": 6249,
      "yorilgan": 6250,
      "ishlatiladi": 6251,
      "xuja": 6252,
      "topilar": 6253,
      "toldirarkan": 6254,
      "qiladigan": 6255,
      "olmayapdi": 6256,
      "bolajonlarimga": 6257,
      "yaroqli": 6258,
      "narsamni": 6259,
      "xonaga": 6260,
      "oqartir": 6261,
      "zurrrrr": 6262,
      "achchiq": 6263,
      "nasatka": 6264,
      "plastmas": 6265,
      "korsatyapti": 6266,
      "ponravilas": 6267,
      "ranglisi": 6268,
      "iwilarga": 6269,
      "dokonlardan": 6270,
      "dastur": 6271,
      "kiyaman": 6272,
      "plomba": 6273,
      "kotarib": 6274,
      "uylagandan": 6275,
      "yakdi": 6276,
      "kraskasi": 6277,
      "chqmadi": 6278,
      "traga": 6279,
      "suratda": 6280,
      "qizalog": 6281,
      "tariflashga": 6282,
      "surilishi": 6283,
      "produkt": 6284,
      "xxxx": 6285,
      "ayollarga": 6286,
      "kodini": 6287,
      "samarali": 6288,
      "nersa": 6289,
      "spaget": 6290,
      "mnogo": 6291,
      "padvotka": 6292,
      "tushunarsiz": 6293,
      "skovoroda": 6294,
      "pizdes": 6295,
      "blender": 6296,
      "atrofi": 6297,
      "xotinimga": 6298,
      "dorogo": 6299,
      "izoh": 6300,
      "sponj": 6301,
      "kamerani": 6302,
      "dvoyka": 6303,
      "supeeer": 6304,
      "1dona": 6305,
      "49": 6306,
      "78": 6307,
      "ks": 6308,
      "mde": 6309,
      "nme": 6310,
      "oyo": 6311,
      "oshib": 6312,
      "olov": 6313,
      "ofar": 6314,
      "oberdim": 6315,
      "qt": 6316,
      "qishda": 6317,
      "stu": 6318,
      "ug": 6319,
      "xe": 6320,
      "yq": 6321,
      "matir": 6322,
      "disp": 6323,
      "zorgap": 6324,
      "lig": 6325,
      "list": 6326,
      "kafe": 6327,
      "kasme": 6328,
      "tamom": 6329,
      "losi": 6330,
      "olb": 6331,
      "olsangiz": 6332,
      "lardim": 6333,
      "qiri": 6334,
      "masdim": 6335,
      "qatiq": 6336,
      "unda": 6337,
      "xiga": 6338,
      "tega": 6339,
      "tuliq": 6340,
      "koshe": 6341,
      "misiz": 6342,
      "yel": 6343,
      "bersn": 6344,
      "kattasi": 6345,
      "arzimaskan": 6346,
      "riy": 6347,
      "devor": 6348,
      "landi": 6349,
      "oqlaydi": 6350,
      "mdagi": 6351,
      "ledi": 6352,
      "lesos": 6353,
      "maxaulot": 6354,
      "kichina": 6355,
      "razmerdan": 6356,
      "shedi": 6357,
      "otseni": 6358,
      "netu": 6359,
      "haq": 6360,
      "yahw": 6361,
      "qilsin": 6362,
      "tmayabdi": 6363,
      "tmasakan": 6364,
      "telefondan": 6365,
      "qayt": 6366,
      "tovarim": 6367,
      "tanaga": 6368,
      "berishda": 6369,
      "berishni": 6370,
      "uylagandek": 6371,
      "qoyinglar": 6372,
      "bulu": 6373,
      "berilmagan": 6374,
      "alikum": 6375,
      "yeng": 6376,
      "akse": 6377,
      "barchan": 6378,
      "izda": 6379,
      "tozalirkan": 6380,
      "termiz": 6381,
      "yuborishdi": 6382,
      "tekinga": 6383,
      "buncha": 6384,
      "ishlatishda": 6385,
      "sochlar": 6386,
      "vaweee": 6387,
      "oyoqda": 6388,
      "geli": 6389,
      "vakt": 6390,
      "quvon": 6391,
      "kelibti": 6392,
      "kichkintoy": 6393,
      "zaryadkada": 6394,
      "ichini": 6395,
      "ichdik": 6396,
      "kuller": 6397,
      "yildan": 6398,
      "kopirishi": 6399,
      "yaxwmas": 6400,
      "yerga": 6401,
      "koynim": 6402,
      "konglimdagiday": 6403,
      "kurinishiga": 6404,
      "oilamizga": 6405,
      "bolajonlarim": 6406,
      "mahsulotingiz": 6407,
      "qoyadi": 6408,
      "qadoqda": 6409,
      "oqartirmadi": 6410,
      "priyatni": 6411,
      "ogriq": 6412,
      "juddda": 6413,
      "odamga": 6414,
      "soatini": 6415,
      "chegirmalarni": 6416,
      "mnga": 6417,
      "yomgir": 6418,
      "katakon": 6419,
      "tiliman": 6420,
      "kafolati": 6421,
      "plasmas": 6422,
      "varianti": 6423,
      "pochti": 6424,
      "kizil": 6425,
      "qandaydir": 6426,
      "kojasi": 6427,
      "arzirli": 6428,
      "sushit": 6429,
      "xozr": 6430,
      "mahsulat": 6431,
      "nasiyaga": 6432,
      "service": 6433,
      "ggies": 6434,
      "zamogi": 6435,
      "fiksator": 6436,
      "oxirgi": 6437,
      "03": 6438,
      "04": 6439,
      "05": 6440,
      "26": 6441,
      "46": 6442,
      "han": 6443,
      "hari": 6444,
      "iday": 6445,
      "nt": 6446,
      "ngiz": 6447,
      "oga": 6448,
      "obo": 6449,
      "ost": 6450,
      "omadim": 6451,
      "oci": 6452,
      "omoqchi": 6453,
      "pt": 6454,
      "qishga": 6455,
      "rli": 6456,
      "rdim": 6457,
      "sr": 6458,
      "tva": 6459,
      "uchadi": 6460,
      "щetka": 6461,
      "mara": 6462,
      "mapman": 6463,
      "orada": 6464,
      "laganimda": 6465,
      "chekan": 6466,
      "tidan": 6467,
      "titilib": 6468,
      "judo": 6469,
      "ertasi": 6470,
      "kela": 6471,
      "ketav": 6472,
      "kechik": 6473,
      "sust": 6474,
      "ganga": 6475,
      "sab": 6476,
      "chip": 6477,
      "olyapman": 6478,
      "enga": 6479,
      "kiye": 6480,
      "rahmatt": 6481,
      "qisam": 6482,
      "qirilib": 6483,
      "joydan": 6484,
      "yuldi": 6485,
      "ajoyi": 6486,
      "muwu": 6487,
      "rosti": 6488,
      "uncali": 6489,
      "zapa": 6490,
      "uzumdagi": 6491,
      "sodda": 6492,
      "sotil": 6493,
      "tefal": 6494,
      "ketka": 6495,
      "tushin": 6496,
      "alos": 6497,
      "pushka": 6498,
      "xamisha": 6499,
      "bermayabdi": 6500,
      "bermiyman": 6501,
      "kattasidan": 6502,
      "tavari": 6503,
      "bax": 6504,
      "bater": 6505,
      "arzimasakan": 6506,
      "arzin": 6507,
      "hisob": 6508,
      "risi": 6509,
      "sizdan": 6510,
      "mahsulotlarni": 6511,
      "arzonligi": 6512,
      "moz": 6513,
      "kutmagan": 6514,
      "meman": 6515,
      "yetmasakan": 6516,
      "otl": 6517,
      "otten": 6518,
      "neobi": 6519,
      "had": 6520,
      "boladigan": 6521,
      "sindirib": 6522,
      "remeni": 6523,
      "qilb": 6524,
      "qilmas": 6525,
      "qilyapman": 6526,
      "faqatgina": 6527,
      "hozi": 6528,
      "chiqdiku": 6529,
      "yonmayabdi": 6530,
      "tushar": 6531,
      "kutganimdanxam": 6532,
      "eyer": 6533,
      "klassnie": 6534,
      "jiga": 6535,
      "ishizga": 6536,
      "tovari": 6537,
      "qizlarim": 6538,
      "qizchamga": 6539,
      "linza": 6540,
      "ishlatvom": 6541,
      "qolmay": 6542,
      "qolyapdi": 6543,
      "iwlab": 6544,
      "iwlamas": 6545,
      "kerakmas": 6546,
      "keraksiz": 6547,
      "larimdan": 6548,
      "turmayapti": 6549,
      "qaytarb": 6550,
      "qaytarish": 6551,
      "lator": 6552,
      "laganda": 6553,
      "aksi": 6554,
      "izlagan": 6555,
      "joyidan": 6556,
      "versiya": 6557,
      "lanip": 6558,
      "yuborishgan": 6559,
      "almashtirmoqchiman": 6560,
      "salomat": 6561,
      "materialiyam": 6562,
      "aytganimdek": 6563,
      "opamga": 6564,
      "priz": 6565,
      "yozmadi": 6566,
      "doimo": 6567,
      "harorat": 6568,
      "quloqqa": 6569,
      "zakazimdi": 6570,
      "girchoq": 6571,
      "shoe": 6572,
      "sochlarim": 6573,
      "boshkalarga": 6574,
      "surt": 6575,
      "yozilganidek": 6576,
      "ulanishi": 6577,
      "ishlashga": 6578,
      "qilinmagan": 6579,
      "lux": 6580,
      "qanaqadir": 6581,
      "hohlasa": 6582,
      "pepsidan": 6583,
      "beribsizlar": 6584,
      "kaytarildi": 6585,
      "kaytarmokchiman": 6586,
      "olindi": 6587,
      "laydigan": 6588,
      "uylaganimdanam": 6589,
      "bilinmaydi": 6590,
      "idishlar": 6591,
      "jonatish": 6592,
      "qiliw": 6593,
      "airpodsga": 6594,
      "shiqti": 6595,
      "kurinishidan": 6596,
      "orqasida": 6597,
      "muddatli": 6598,
      "ushlashi": 6599,
      "quritib": 6600,
      "chogi": 6601,
      "chunmadim": 6602,
      "taqsa": 6603,
      "taqqanda": 6604,
      "yonishi": 6605,
      "yonidagi": 6606,
      "silarmi": 6607,
      "tagiga": 6608,
      "tasma": 6609,
      "telfonga": 6610,
      "rasimdegidek": 6611,
      "upakovkasiyam": 6612,
      "ocib": 6613,
      "oylaganimde": 6614,
      "kursatilgandek": 6615,
      "toshlari": 6616,
      "laringni": 6617,
      "chizilib": 6618,
      "istaganimdek": 6619,
      "xaftada": 6620,
      "kupila": 6621,
      "teshigi": 6622,
      "ozgarmadi": 6623,
      "oliwni": 6624,
      "oliwim": 6625,
      "rasmdeka": 6626,
      "mikser": 6627,
      "inshaalloh": 6628,
      "jinni": 6629,
      "plisos": 6630,
      "aldanib": 6631,
      "gaplashganda": 6632,
      "shunaqangi": 6633,
      "krishkasi": 6634,
      "kulokchin": 6635,
      "sroki": 6636,
      "silikon": 6637,
      "gunicha": 6638,
      "taqinchoq": 6639,
      "arzimeydi": 6640,
      "admin": 6641,
      "dochke": 6642,
      "sootvetsvuyet": 6643,
      "trimmer": 6644,
      "spagetti": 6645,
      "1tiyinga": 6646,
      "aba": 6647,
      "dsi": 6648,
      "emes": 6649,
      "fursa": 6650,
      "gud": 6651,
      "hullas": 6652,
      "ic": 6653,
      "ijo": 6654,
      "mort": 6655,
      "ogli": 6656,
      "omasakan": 6657,
      "oshir": 6658,
      "osti": 6659,
      "plat": 6660,
      "ring": 6661,
      "sshi": 6662,
      "ste": 6663,
      "svi": 6664,
      "tsiz": 6665,
      "ulash": 6666,
      "vz": 6667,
      "vro": 6668,
      "vini": 6669,
      "vfsiz": 6670,
      "mab": 6671,
      "did": 6672,
      "gao": 6673,
      "gay": 6674,
      "daga": 6675,
      "dami": 6676,
      "layam": 6677,
      "ramiz": 6678,
      "siaf": 6679,
      "chkina": 6680,
      "chut": 6681,
      "tila": 6682,
      "shipti": 6683,
      "jumis": 6684,
      "ekande": 6685,
      "judam": 6686,
      "kalam": 6687,
      "tap": 6688,
      "tamin": 6689,
      "fason": 6690,
      "ino": 6691,
      "kesh": 6692,
      "kesa": 6693,
      "raxm": 6694,
      "raxamat": 6695,
      "sus": 6696,
      "suar": 6697,
      "sumo": 6698,
      "sayo": 6699,
      "ishlerkan": 6700,
      "imsiz": 6701,
      "yoqdisifati": 6702,
      "bogan": 6703,
      "gapyu": 6704,
      "rahmar": 6705,
      "qilama": 6706,
      "joyini": 6707,
      "ishlagani": 6708,
      "masam": 6709,
      "persil": 6710,
      "muda": 6711,
      "muamo": 6712,
      "qarasam": 6713,
      "uning": 6714,
      "sosi": 6715,
      "chasini": 6716,
      "ketgani": 6717,
      "ketyapdi": 6718,
      "kotaro": 6719,
      "nali": 6720,
      "nacho": 6721,
      "ster": 6722,
      "marketa": 6723,
      "yeg": 6724,
      "bervotti": 6725,
      "baxa": 6726,
      "notori": 6727,
      "puligayam": 6728,
      "deshevo": 6729,
      "pasa": 6730,
      "konteyner": 6731,
      "beli": 6732,
      "qoil": 6733,
      "tarkib": 6734,
      "rasmdakidek": 6735,
      "mechta": 6736,
      "yetvoti": 6737,
      "proda": 6738,
      "razmerlariyam": 6739,
      "hammasini": 6740,
      "hammasiga": 6741,
      "likka": 6742,
      "likin": 6743,
      "hayo": 6744,
      "ozrok": 6745,
      "rasmdagidaqa": 6746,
      "sinb": 6747,
      "sinf": 6748,
      "sing": 6749,
      "sepochka": 6750,
      "podu": 6751,
      "pover": 6752,
      "klassniye": 6753,
      "ishing": 6754,
      "kelguncha": 6755,
      "qilibman": 6756,
      "yit": 6757,
      "toping": 6758,
      "qolmagan": 6759,
      "sigayam": 6760,
      "labga": 6761,
      "boldik": 6762,
      "ganiga": 6763,
      "ocharkan": 6764,
      "berip": 6765,
      "vapshee": 6766,
      "minu": 6767,
      "god": 6768,
      "tint": 6769,
      "telvizor": 6770,
      "ovozlariyam": 6771,
      "yuboribdi": 6772,
      "nuku": 6773,
      "tortib": 6774,
      "vorib": 6775,
      "yatori": 6776,
      "vapwem": 6777,
      "vapweee": 6778,
      "farki": 6779,
      "tugayapti": 6780,
      "yuvgandan": 6781,
      "case": 6782,
      "nimagadur": 6783,
      "qiysha": 6784,
      "qilishdi": 6785,
      "chiqarish": 6786,
      "luck": 6787,
      "medikan": 6788,
      "skidkala": 6789,
      "kopirarkan": 6790,
      "tamli": 6791,
      "jonatilgan": 6792,
      "olishilarni": 6793,
      "klasna": 6794,
      "huggies": 6795,
      "ushlamas": 6796,
      "ozgarish": 6797,
      "qldm": 6798,
      "ishlatamiz": 6799,
      "yetkazip": 6800,
      "oooor": 6801,
      "black": 6802,
      "rasimdegi": 6803,
      "ushab": 6804,
      "detski": 6805,
      "litrli": 6806,
      "asalomalekum": 6807,
      "yutgich": 6808,
      "karopka": 6809,
      "teshilib": 6810,
      "boglansam": 6811,
      "bilinarkan": 6812,
      "judayaam": 6813,
      "birdaniga": 6814,
      "kuvvat": 6815,
      "podoshlo": 6816,
      "poluchil": 6817,
      "stress": 6818,
      "kickinekan": 6819,
      "egizaklarimga": 6820,
      "tavsia": 6821,
      "windo": 6822,
      "sirgalar": 6823,
      "loyik": 6824,
      "fleshkani": 6825,
      "salafan": 6826,
      "buyicha": 6827,
      "voqtida": 6828,
      "nays": 6829,
      "jigarrang": 6830,
      "pachti": 6831,
      "dumaloq": 6832,
      "ekonom": 6833,
      "tapichka": 6834,
      "muommo": 6835,
      "konditsion": 6836,
      "barchangizga": 6837,
      "1chi": 6838,
      "20000": 6839,
      "400": 6840,
      "4000": 6841,
      "85": 6842,
      "ayam": 6843,
      "aldi": 6844,
      "glo": 6845,
      "gde": 6846,
      "igra": 6847,
      "jan": 6848,
      "jji": 6849,
      "kran": 6850,
      "mdi": 6851,
      "oki": 6852,
      "ogon": 6853,
      "oganidim": 6854,
      "oxiri": 6855,
      "spi": 6856,
      "tws": 6857,
      "uga": 6858,
      "ularga": 6859,
      "uwa": 6860,
      "vish": 6861,
      "voldi": 6862,
      "wka": 6863,
      "zoz": 6864,
      "maj": 6865,
      "mayapt": 6866,
      "andi": 6867,
      "disk": 6868,
      "zorraxmat": 6869,
      "yokadi": 6870,
      "shimi": 6871,
      "yaxshilekin": 6872,
      "kaldi": 6873,
      "inekan": 6874,
      "kera": 6875,
      "look": 6876,
      "saot": 6877,
      "ishlan": 6878,
      "chidab": 6879,
      "olmelar": 6880,
      "vaa": 6881,
      "kupir": 6882,
      "eno": 6883,
      "engil": 6884,
      "boga": 6885,
      "bolarim": 6886,
      "bomagur": 6887,
      "kie": 6888,
      "yun": 6889,
      "tlik": 6890,
      "pere": 6891,
      "buya": 6892,
      "bumaga": 6893,
      "kancha": 6894,
      "qala": 6895,
      "zarad": 6896,
      "uzumni": 6897,
      "bira": 6898,
      "bilib": 6899,
      "soc": 6900,
      "chalarga": 6901,
      "tuf": 6902,
      "koniga": 6903,
      "naman": 6904,
      "yechi": 6905,
      "layk": 6906,
      "layn": 6907,
      "xamme": 6908,
      "beribdi": 6909,
      "marketke": 6910,
      "narxixam": 6911,
      "arzmidi": 6912,
      "rip": 6913,
      "dem": 6914,
      "degandi": 6915,
      "sizlaga": 6916,
      "pali": 6917,
      "korsam": 6918,
      "konfe": 6919,
      "bet": 6920,
      "befoyda": 6921,
      "bemaza": 6922,
      "bepul": 6923,
      "oldir": 6924,
      "yoqtii": 6925,
      "mel": 6926,
      "proble": 6927,
      "kichkinaligini": 6928,
      "maydala": 6929,
      "boshga": 6930,
      "boshkasi": 6931,
      "yanvar": 6932,
      "nech": 6933,
      "ozbekiston": 6934,
      "rasmdagidak": 6935,
      "xod": 6936,
      "reali": 6937,
      "sem": 6938,
      "sepi": 6939,
      "berasilami": 6940,
      "hoja": 6941,
      "pistol": 6942,
      "pom": 6943,
      "pokup": 6944,
      "yonmaydi": 6945,
      "telefondi": 6946,
      "ishiga": 6947,
      "sovgabop": 6948,
      "uzb": 6949,
      "uzm": 6950,
      "uzmga": 6951,
      "ishlatganimdan": 6952,
      "ishlatdik": 6953,
      "yitib": 6954,
      "qolmas": 6955,
      "qolmaydi": 6956,
      "karset": 6957,
      "normik": 6958,
      "iwlamay": 6959,
      "kerakmi": 6960,
      "shunde": 6961,
      "beriladi": 6962,
      "onalar": 6963,
      "kopkogi": 6964,
      "aliw": 6965,
      "ilgich": 6966,
      "utgan": 6967,
      "gandaka": 6968,
      "stira": 6969,
      "uuur": 6970,
      "almashtira": 6971,
      "aniya": 6972,
      "kaytara": 6973,
      "krab": 6974,
      "oppok": 6975,
      "lamina": 6976,
      "bunchalik": 6977,
      "yozish": 6978,
      "korinar": 6979,
      "kilsa": 6980,
      "buziq": 6981,
      "girt": 6982,
      "sochda": 6983,
      "kremga": 6984,
      "bunaqasi": 6985,
      "roziman": 6986,
      "oylagandm": 6987,
      "jetip": 6988,
      "bizda": 6989,
      "zorrrrrr": 6990,
      "asl": 6991,
      "asta": 6992,
      "isitarkan": 6993,
      "buzuk": 6994,
      "xodimlar": 6995,
      "qilindi": 6996,
      "gimdan": 6997,
      "printer": 6998,
      "kottokon": 6999,
      "este": 7000,
      "oxshamaydi": 7001,
      "onamlaga": 7002,
      "metrlik": 7003,
      "beribsila": 7004,
      "qisqich": 7005,
      "ranglaridan": 7006,
      "zaryatchik": 7007,
      "basslari": 7008,
      "mmmm": 7009,
      "olasizlarmi": 7010,
      "superrrrr": 7011,
      "jiyanlarimga": 7012,
      "chetkiy": 7013,
      "telefonimni": 7014,
      "taqqan": 7015,
      "mangla": 7016,
      "oooooooo": 7017,
      "tozalamas": 7018,
      "imeidan": 7019,
      "tegmasin": 7020,
      "qolidan": 7021,
      "extiyot": 7022,
      "oqidan": 7023,
      "vopwe": 7024,
      "rrrrr": 7025,
      "choziluvchan": 7026,
      "issikkina": 7027,
      "moshinamga": 7028,
      "chizilgan": 7029,
      "yopilmas": 7030,
      "telifonga": 7031,
      "vanda": 7032,
      "hayron": 7033,
      "hattoki": 7034,
      "oshxonaga": 7035,
      "rasmdidaka": 7036,
      "svetit": 7037,
      "kosmetika": 7038,
      "belgilangan": 7039,
      "standar": 7040,
      "kompyuterga": 7041,
      "pishirib": 7042,
      "sliw": 7043,
      "kishkina": 7044,
      "vibratsiyasi": 7045,
      "kukmara": 7046,
      "kickinaro": 7047,
      "ornatdim": 7048,
      "amalga": 7049,
      "oilamiz": 7050,
      "eyete": 7051,
      "ajralib": 7052,
      "qizarib": 7053,
      "tashkilotchilarga": 7054,
      "sekund": 7055,
      "uvlajni": 7056,
      "uylabman": 7057,
      "tikilishlari": 7058,
      "buyrtma": 7059,
      "ofigen": 7060,
      "supeer": 7061,
      "avtomobil": 7062,
      "katushka": 7063,
      "fairy": 7064,
      "plombasi": 7065,
      "ofarin": 7066,
      "110": 7067,
      "aql": 7068,
      "bki": 7069,
      "band": 7070,
      "eta": 7071,
      "eni": 7072,
      "elar": 7073,
      "ewi": 7074,
      "etilgan": 7075,
      "fini": 7076,
      "fre": 7077,
      "iah": 7078,
      "lmas": 7079,
      "nyam": 7080,
      "odi": 7081,
      "ofa": 7082,
      "phone": 7083,
      "qgan": 7084,
      "slu": 7085,
      "tty": 7086,
      "udik": 7087,
      "ushirkan": 7088,
      "xari": 7089,
      "yd": 7090,
      "yeri": 7091,
      "shta": 7092,
      "oregi": 7093,
      "lavanda": 7094,
      "siri": 7095,
      "sinarkan": 7096,
      "chuzi": 7097,
      "chopper": 7098,
      "yox": 7099,
      "shish": 7100,
      "shilib": 7101,
      "ekanmanga": 7102,
      "ekanpuliga": 7103,
      "matta": 7104,
      "yoqdu": 7105,
      "yoqotib": 7106,
      "fake": 7107,
      "ingizga": 7108,
      "ingizni": 7109,
      "zuuuur": 7110,
      "raxmatjuda": 7111,
      "sara": 7112,
      "sasiq": 7113,
      "ishona": 7114,
      "chit": 7115,
      "olvoldim": 7116,
      "imkon": 7117,
      "kuli": 7118,
      "ent": 7119,
      "enno": 7120,
      "bosil": 7121,
      "zurraxmat": 7122,
      "ajoyibb": 7123,
      "zil": 7124,
      "busin": 7125,
      "qatta": 7126,
      "bilag": 7127,
      "toni": 7128,
      "xilidan": 7129,
      "chasiga": 7130,
      "chatka": 7131,
      "tuza": 7132,
      "yemadi": 7133,
      "yetaman": 7134,
      "quydi": 7135,
      "bermasakan": 7136,
      "beruvchi": 7137,
      "lantir": 7138,
      "pada": 7139,
      "korila": 7140,
      "kontur": 7141,
      "chiqsa": 7142,
      "beza": 7143,
      "qogirchoq": 7144,
      "modim": 7145,
      "rasmdaki": 7146,
      "kichki": 7147,
      "maxsulotdan": 7148,
      "bolshe": 7149,
      "qatti": 7150,
      "yangidek": 7151,
      "liklar": 7152,
      "ozro": 7153,
      "sana": 7154,
      "sinimga": 7155,
      "ingla": 7156,
      "yumwo": 7157,
      "salqin": 7158,
      "zaryadlovchi": 7159,
      "ovot": 7160,
      "yarashada": 7161,
      "qizmga": 7162,
      "yiz": 7163,
      "rangni": 7164,
      "tanlashda": 7165,
      "vaqtim": 7166,
      "qoygan": 7167,
      "qoydik": 7168,
      "etgan": 7169,
      "iwlamaydi": 7170,
      "sigarkan": 7171,
      "bulmas": 7172,
      "bulmasa": 7173,
      "qaytarishni": 7174,
      "boldila": 7175,
      "ochar": 7176,
      "ochgan": 7177,
      "ochmadi": 7178,
      "berilishi": 7179,
      "martalab": 7180,
      "razmeridan": 7181,
      "utkaz": 7182,
      "uzida": 7183,
      "zopr": 7184,
      "barbir": 7185,
      "goni": 7186,
      "izdek": 7187,
      "anip": 7188,
      "yuboring": 7189,
      "teks": 7190,
      "qorasini": 7191,
      "yozgan": 7192,
      "kirni": 7193,
      "tilnik": 7194,
      "idiw": 7195,
      "kiyimlani": 7196,
      "uskuna": 7197,
      "kutganmdanam": 7198,
      "sochlarga": 7199,
      "xaridlar": 7200,
      "upakovkaga": 7201,
      "uylamagandim": 7202,
      "pasroq": 7203,
      "fark": 7204,
      "tugasa": 7205,
      "yuvdim": 7206,
      "bunaqasini": 7207,
      "guli": 7208,
      "gupka": 7209,
      "oylaganday": 7210,
      "keremet": 7211,
      "keregidi": 7212,
      "foydalansa": 7213,
      "isitar": 7214,
      "yolda": 7215,
      "yarkiy": 7216,
      "qizimni": 7217,
      "mushug": 7218,
      "prin": 7219,
      "oxshayapti": 7220,
      "kursatadi": 7221,
      "vaqtni": 7222,
      "aylanib": 7223,
      "sevib": 7224,
      "qoniqtirmadi": 7225,
      "xiddi": 7226,
      "rasmdakamas": 7227,
      "universal": 7228,
      "muddatda": 7229,
      "sotmanglar": 7230,
      "olsak": 7231,
      "muammosi": 7232,
      "mangga": 7233,
      "etudim": 7234,
      "uuuuu": 7235,
      "qoyadigan": 7236,
      "sarf": 7237,
      "magazinda": 7238,
      "nasatkasi": 7239,
      "plastmasa": 7240,
      "vorila": 7241,
      "narhda": 7242,
      "videoregi": 7243,
      "alishtirsa": 7244,
      "kent": 7245,
      "banan": 7246,
      "sifti": 7247,
      "interne": 7248,
      "xxxl": 7249,
      "yumwoqqina": 7250,
      "yaqinda": 7251,
      "abyom": 7252,
      "niyatim": 7253,
      "kachstvasi": 7254,
      "masajor": 7255,
      "qoyilar": 7256,
      "pretty": 7257,
      "qorqmasdan": 7258,
      "shippak": 7259,
      "antena": 7260,
      "zaryadnigi": 7261,
      "chiqararkan": 7262,
      "maktabga": 7263,
      "kelindi": 7264,
      "imeykadan": 7265,
      "oynani": 7266,
      "hammelaga": 7267,
      "neksiya": 7268,
      "remeshogi": 7269,
      "ruzgor": 7270,
      "qiyshayib": 7271,
      "windows": 7272,
      "pistolet": 7273,
      "06": 7274,
      "2xil": 7275,
      "8000": 7276,
      "aq": 7277,
      "adimi": 7278,
      "cka": 7279,
      "col": 7280,
      "cro": 7281,
      "iki": 7282,
      "jno": 7283,
      "kү": 7284,
      "lyuk": 7285,
      "mim": 7286,
      "nin": 7287,
      "otirib": 7288,
      "poyi": 7289,
      "qqa": 7290,
      "skrab": 7291,
      "uka": 7292,
      "uak": 7293,
      "ulasa": 7294,
      "urarkan": 7295,
      "uaxshi": 7296,
      "vni": 7297,
      "mayap": 7298,
      "dila": 7299,
      "dat": 7300,
      "oradi": 7301,
      "oralgan": 7302,
      "rav": 7303,
      "chor": 7304,
      "tion": 7305,
      "tishni": 7306,
      "yone": 7307,
      "ekanuzumga": 7308,
      "matox": 7309,
      "yoqda": 7310,
      "yaxshiii": 7311,
      "taqi": 7312,
      "kegani": 7313,
      "kechikdi": 7314,
      "sun": 7315,
      "chila": 7316,
      "chihol": 7317,
      "nishi": 7318,
      "olet": 7319,
      "vax": 7320,
      "kuti": 7321,
      "kushti": 7322,
      "kutamiz": 7323,
      "boo": 7324,
      "kila": 7325,
      "kiydi": 7326,
      "qidi": 7327,
      "masofa": 7328,
      "gijim": 7329,
      "buling": 7330,
      "qah": 7331,
      "unsha": 7332,
      "zad": 7333,
      "zator": 7334,
      "tovu": 7335,
      "toladim": 7336,
      "vox": 7337,
      "voda": 7338,
      "vodo": 7339,
      "turo": 7340,
      "tulka": 7341,
      "koli": 7342,
      "kovi": 7343,
      "kobaltga": 7344,
      "nas": 7345,
      "nakan": 7346,
      "stv": 7347,
      "stra": 7348,
      "yem": 7349,
      "chiroylii": 7350,
      "quyi": 7351,
      "bermoqchi": 7352,
      "baja": 7353,
      "chem": 7354,
      "narsalarga": 7355,
      "narsalani": 7356,
      "deti": 7357,
      "aldov": 7358,
      "padelkasi": 7359,
      "ladik": 7360,
      "chiqvoti": 7361,
      "chiqvotti": 7362,
      "chiqibdi": 7363,
      "wiga": 7364,
      "qomadi": 7365,
      "mosh": 7366,
      "biror": 7367,
      "meri": 7368,
      "yetmayabdi": 7369,
      "bormayapti": 7370,
      "kunni": 7371,
      "kunlik": 7372,
      "maxsulotlari": 7373,
      "udop": 7374,
      "bolmidi": 7375,
      "bolshoe": 7376,
      "oliwi": 7377,
      "likda": 7378,
      "neto": 7379,
      "xolagan": 7380,
      "dosti": 7381,
      "siniy": 7382,
      "seva": 7383,
      "bolali": 7384,
      "bolaveradi": 7385,
      "pishiq": 7386,
      "pista": 7387,
      "piling": 7388,
      "kino": 7389,
      "yonmas": 7390,
      "yonyapti": 7391,
      "kutganimdanham": 7392,
      "eykan": 7393,
      "sifatsizroq": 7394,
      "jil": 7395,
      "jir": 7396,
      "tidagi": 7397,
      "kuruk": 7398,
      "linmagan": 7399,
      "ishlatvo": 7400,
      "qollan": 7401,
      "qolqop": 7402,
      "vaqtini": 7403,
      "karo": 7404,
      "iwlashi": 7405,
      "iwlataman": 7406,
      "iwlawlari": 7407,
      "samokat": 7408,
      "qaytarip": 7409,
      "kutganimdey": 7410,
      "10ta": 7411,
      "darjada": 7412,
      "efe": 7413,
      "togrisini": 7414,
      "ovkat": 7415,
      "ovora": 7416,
      "korsatar": 7417,
      "tinch": 7418,
      "fit": 7419,
      "ovozsiz": 7420,
      "ixcam": 7421,
      "pechka": 7422,
      "pechen": 7423,
      "haligacha": 7424,
      "yopib": 7425,
      "bilsa": 7426,
      "bilmiman": 7427,
      "tekkis": 7428,
      "daxsha": 7429,
      "korinib": 7430,
      "buzilarkan": 7431,
      "quloqda": 7432,
      "uslu": 7433,
      "batari": 7434,
      "kutgandanam": 7435,
      "yopishtiri": 7436,
      "tugar": 7437,
      "yuvdi": 7438,
      "guda": 7439,
      "gubka": 7440,
      "xoxlag": 7441,
      "xizmatlari": 7442,
      "ishonmagandim": 7443,
      "komfort": 7444,
      "bolmaydigan": 7445,
      "format": 7446,
      "matosiga": 7447,
      "ishlamaypti": 7448,
      "slabo": 7449,
      "charx": 7450,
      "kalg": 7451,
      "isitadi": 7452,
      "balkim": 7453,
      "sezmadm": 7454,
      "chiqaryapti": 7455,
      "ulanib": 7456,
      "simlari": 7457,
      "uzunroq": 7458,
      "yilda": 7459,
      "bahosiga": 7460,
      "tashab": 7461,
      "kaytardim": 7462,
      "imizdan": 7463,
      "lenta": 7464,
      "olmabman": 7465,
      "mashinada": 7466,
      "brendi": 7467,
      "oziniki": 7468,
      "doglari": 7469,
      "tttt": 7470,
      "ishlatilganga": 7471,
      "tozalamaydi": 7472,
      "padarkasi": 7473,
      "moshinada": 7474,
      "chiqaradi": 7475,
      "massajer": 7476,
      "ajoyob": 7477,
      "saqlash": 7478,
      "kurinarkan": 7479,
      "kuringandi": 7480,
      "unchalimas": 7481,
      "oqimayapti": 7482,
      "xatolik": 7483,
      "rovka": 7484,
      "almashtirsak": 7485,
      "vabwe": 7486,
      "otkazish": 7487,
      "savdoga": 7488,
      "suyuqlik": 7489,
      "chqti": 7490,
      "fanta": 7491,
      "suratdagi": 7492,
      "kiprikni": 7493,
      "boladmi": 7494,
      "uxshab": 7495,
      "penal": 7496,
      "chiroqlari": 7497,
      "xursant": 7498,
      "istagan": 7499,
      "qilardim": 7500,
      "prekrasnaya": 7501,
      "uzgarish": 7502,
      "horoshiy": 7503,
      "vinniy": 7504,
      "ishledi": 7505,
      "typec": 7506,
      "antenna": 7507,
      "battar": 7508,
      "dilnik": 7509,
      "talonini": 7510,
      "chiqarar": 7511,
      "junatishibdi": 7512,
      "qnimdan": 7513,
      "remishok": 7514,
      "sutkada": 7515,
      "jingalak": 7516,
      "dugonamga": 7517,
      "xaridorlarga": 7518,
      "kamplekt": 7519,
      "flakon": 7520,
      "milashka": 7521,
      "bahor": 7522,
      "pojaleyete": 7523,
      "buyrutma": 7524,
      "kapsula": 7525,
      "yaroksiz": 7526,
      "sinovdan": 7527,
      "yuvadi": 7528,
      "small": 7529,
      "matiryali": 7530,
      "ottenok": 7531,
      "keshbek": 7532,
      "konditsioner": 7533,
      "xoxlagqnimdan": 7534,
      "1hafta": 7535,
      "300": 7536,
      "54": 7537,
      "7000": 7538,
      "800": 7539,
      "akum": 7540,
      "apara": 7541,
      "atiri": 7542,
      "can": 7543,
      "ema": 7544,
      "fer": 7545,
      "hm": 7546,
      "iri": 7547,
      "iyi": 7548,
      "jni": 7549,
      "jina": 7550,
      "kc": 7551,
      "mlari": 7552,
      "non": 7553,
      "omas": 7554,
      "ochik": 7555,
      "osam": 7556,
      "oganda": 7557,
      "opti": 7558,
      "qmat": 7559,
      "qldi": 7560,
      "qladi": 7561,
      "rol": 7562,
      "sv": 7563,
      "slarga": 7564,
      "stir": 7565,
      "ub": 7566,
      "uydi": 7567,
      "ustan": 7568,
      "voldik": 7569,
      "vchan": 7570,
      "xalol": 7571,
      "ydim": 7572,
      "zdra": 7573,
      "mayopti": 7574,
      "shnuri": 7575,
      "galo": 7576,
      "yada": 7577,
      "rab": 7578,
      "rada": 7579,
      "raham": 7580,
      "zoru": 7581,
      "zormenga": 7582,
      "zoramas": 7583,
      "yoshi": 7584,
      "ekansifati": 7585,
      "ekankatta": 7586,
      "yaxshu": 7587,
      "kalar": 7588,
      "kasini": 7589,
      "ining": 7590,
      "zuk": 7591,
      "manti": 7592,
      "manfa": 7593,
      "kevoti": 7594,
      "kelip": 7595,
      "keragi": 7596,
      "suyu": 7597,
      "chika": 7598,
      "yoqdiii": 7599,
      "vaf": 7600,
      "vafli": 7601,
      "vahtida": 7602,
      "onlayn": 7603,
      "kutu": 7604,
      "kuzga": 7605,
      "kulimga": 7606,
      "boq": 7607,
      "kilip": 7608,
      "qile": 7609,
      "master": 7610,
      "bug": 7611,
      "butil": 7612,
      "muqo": 7613,
      "qadi": 7614,
      "biroq": 7615,
      "toje": 7616,
      "toshak": 7617,
      "tesk": 7618,
      "chal": 7619,
      "tux": 7620,
      "tual": 7621,
      "tugir": 7622,
      "naxo": 7623,
      "sty": 7624,
      "stor": 7625,
      "laykum": 7626,
      "beruvdim": 7627,
      "bermima": 7628,
      "batga": 7629,
      "chex": 7630,
      "narsacha": 7631,
      "degani": 7632,
      "deyol": 7633,
      "sizla": 7634,
      "korey": 7635,
      "lgani": 7636,
      "qobdi": 7637,
      "qotip": 7638,
      "moti": 7639,
      "sifatsi": 7640,
      "yetmay": 7641,
      "yetmagan": 7642,
      "borsam": 7643,
      "razmir": 7644,
      "razmerlar": 7645,
      "bolt": 7646,
      "otkazi": 7647,
      "ozgin": 7648,
      "yuqaroq": 7649,
      "tirgan": 7650,
      "pip": 7651,
      "pichok": 7652,
      "pilesos": 7653,
      "yonlari": 7654,
      "kasidan": 7655,
      "xaya": 7656,
      "arzidikan": 7657,
      "kelgunicha": 7658,
      "nayabdi": 7659,
      "qizdi": 7660,
      "qizdir": 7661,
      "ishlatkan": 7662,
      "yetkazb": 7663,
      "brakmi": 7664,
      "topolmadim": 7665,
      "buyurtmalarni": 7666,
      "uyte": 7667,
      "kartani": 7668,
      "iwlami": 7669,
      "hatdan": 7670,
      "boldilar": 7671,
      "shunda": 7672,
      "ikkta": 7673,
      "ochb": 7674,
      "senka": 7675,
      "ediku": 7676,
      "sotuvchilaga": 7677,
      "sizlargayam": 7678,
      "ligida": 7679,
      "ochir": 7680,
      "ilga": 7681,
      "oynadi": 7682,
      "izni": 7683,
      "ushlarkan": 7684,
      "yuzdagi": 7685,
      "figa": 7686,
      "fili": 7687,
      "kruta": 7688,
      "negadr": 7689,
      "pec": 7690,
      "aniye": 7691,
      "tora": 7692,
      "kayta": 7693,
      "teka": 7694,
      "tavarim": 7695,
      "buziladi": 7696,
      "kiyimda": 7697,
      "yopishtirish": 7698,
      "pastasi": 7699,
      "udobnaya": 7700,
      "akamga": 7701,
      "zoooooor": 7702,
      "qaramay": 7703,
      "bejirimgina": 7704,
      "ozimni": 7705,
      "idealni": 7706,
      "plasti": 7707,
      "rasmdagidanam": 7708,
      "hiddi": 7709,
      "hidga": 7710,
      "yirti": 7711,
      "yirtildi": 7712,
      "oyijonimga": 7713,
      "turadigan": 7714,
      "voldm": 7715,
      "deyman": 7716,
      "waya": 7717,
      "moljal": 7718,
      "kopiradi": 7719,
      "yopilishi": 7720,
      "metrli": 7721,
      "qorayb": 7722,
      "aldashibdi": 7723,
      "paxnet": 7724,
      "ilojisi": 7725,
      "sirpan": 7726,
      "youtube": 7727,
      "braki": 7728,
      "brakov": 7729,
      "sinadi": 7730,
      "parawok": 7731,
      "qogozini": 7732,
      "tabsiya": 7733,
      "toldiradi": 7734,
      "olmayabman": 7735,
      "quril": 7736,
      "ishlamiydi": 7737,
      "tiriw": 7738,
      "parda": 7739,
      "sarg": 7740,
      "achish": 7741,
      "korsatmayapti": 7742,
      "massajyor": 7743,
      "ranglisini": 7744,
      "qolimda": 7745,
      "dokonda": 7746,
      "milaya": 7747,
      "adashmabman": 7748,
      "komplektda": 7749,
      "somlik": 7750,
      "mushukchamga": 7751,
      "fanar": 7752,
      "isityapti": 7753,
      "sotuvchini": 7754,
      "litrlik": 7755,
      "bulila": 7756,
      "suriladi": 7757,
      "sposiba": 7758,
      "yuripti": 7759,
      "kildik": 7760,
      "muzdek": 7761,
      "brilok": 7762,
      "rasmdigidan": 7763,
      "uralgan": 7764,
      "uzay": 7765,
      "qanaqib": 7766,
      "ikkilangandim": 7767,
      "kayfiya": 7768,
      "qimoq": 7769,
      "ketkazmadi": 7770,
      "notebook": 7771,
      "qisqasi": 7772,
      "jentraga": 7773,
      "metall": 7774,
      "skidku": 7775,
      "998": 7776,
      "molodsi": 7777,
      "oynashyapti": 7778,
      "minat": 7779,
      "stikerlar": 7780,
      "ishlatomadim": 7781,
      "axvolda": 7782,
      "kogoz": 7783,
      "vazifa": 7784,
      "davolen": 7785,
      "tartibli": 7786,
      "modniy": 7787,
      "posle": 7788,
      "materali": 7789,
      "polezno": 7790,
      "igrushka": 7791,
      "nevaramga": 7792,
      "chyotki": 7793,
      "kistochka": 7794,
      "ketave": 7795,
      "neobichniy": 7796,
      "haroratni": 7797,
      "fursatda": 7798,
      "inobatga": 7799,
      "ofigenno": 7800,
      "videoregist": 7801,
      "lyuks": 7802,
      "rahamt": 7803,
      "teskari": 7804,
      "130": 7805,
      "2kun": 7806,
      "ash": 7807,
      "dva": 7808,
      "djet": 7809,
      "gl": 7810,
      "goq": 7811,
      "ging": 7812,
      "hh": 7813,
      "ist": 7814,
      "jom": 7815,
      "kka": 7816,
      "kchkina": 7817,
      "myana": 7818,
      "mln": 7819,
      "ow": 7820,
      "odim": 7821,
      "opa": 7822,
      "omon": 7823,
      "ometr": 7824,
      "okala": 7825,
      "obuv": 7826,
      "qlgan": 7827,
      "qini": 7828,
      "sd": 7829,
      "skoch": 7830,
      "tkan": 7831,
      "ushin": 7832,
      "vt": 7833,
      "xot": 7834,
      "yim": 7835,
      "zl": 7836,
      "zka": 7837,
      "sher": 7838,
      "lashni": 7839,
      "layabdi": 7840,
      "raya": 7841,
      "rakam": 7842,
      "siqib": 7843,
      "zormasakan": 7844,
      "chop": 7845,
      "tiw": 7846,
      "tikuv": 7847,
      "tilaymiz": 7848,
      "juf": 7849,
      "ekanjuda": 7850,
      "matr": 7851,
      "yaxs": 7852,
      "yoqi": 7853,
      "yoqot": 7854,
      "kachon": 7855,
      "tada": 7856,
      "tala": 7857,
      "oyni": 7858,
      "erish": 7859,
      "kedi": 7860,
      "kesi": 7861,
      "kevotti": 7862,
      "kebti": 7863,
      "raxmar": 7864,
      "lom": 7865,
      "niz": 7866,
      "oluv": 7867,
      "vatti": 7868,
      "onga": 7869,
      "kuyi": 7870,
      "gaplaw": 7871,
      "kizik": 7872,
      "kitga": 7873,
      "sifatili": 7874,
      "joyni": 7875,
      "joylarga": 7876,
      "ishlatar": 7877,
      "mastan": 7878,
      "yubka": 7879,
      "mudim": 7880,
      "rolik": 7881,
      "zap": 7882,
      "bilo": 7883,
      "bilgan": 7884,
      "xiydi": 7885,
      "kolar": 7886,
      "nak": 7887,
      "napi": 7888,
      "qulimga": 7889,
      "bersangiz": 7890,
      "tavsya": 7891,
      "bak": 7892,
      "nozi": 7893,
      "chest": 7894,
      "deganda": 7895,
      "oldimuzum": 7896,
      "lang": 7897,
      "pauza": 7898,
      "oqini": 7899,
      "kazan": 7900,
      "korset": 7901,
      "umum": 7902,
      "jak": 7903,
      "qolo": 7904,
      "moli": 7905,
      "oldida": 7906,
      "birda": 7907,
      "yoqtirgan": 7908,
      "urto": 7909,
      "yetgan": 7910,
      "yetmasdan": 7911,
      "bold": 7912,
      "bolmay": 7913,
      "bollaga": 7914,
      "hap": 7915,
      "have": 7916,
      "assalomualekum": 7917,
      "sang": 7918,
      "sinmasdan": 7919,
      "xola": 7920,
      "xolo": 7921,
      "tirna": 7922,
      "tirno": 7923,
      "beradimi": 7924,
      "beradigan": 7925,
      "beramn": 7926,
      "berasizmi": 7927,
      "buyurmani": 7928,
      "yondi": 7929,
      "tushmaydi": 7930,
      "qayna": 7931,
      "jilo": 7932,
      "shub": 7933,
      "shuda": 7934,
      "kuryer": 7935,
      "yomonakan": 7936,
      "uzbek": 7937,
      "yeka": 7938,
      "tanlangan": 7939,
      "mumkuna": 7940,
      "uygacha": 7941,
      "mizni": 7942,
      "kartin": 7943,
      "rumyana": 7944,
      "dagisini": 7945,
      "etmiman": 7946,
      "qoldiraman": 7947,
      "maganman": 7948,
      "ttim": 7949,
      "ochganimda": 7950,
      "originalga": 7951,
      "sensiri": 7952,
      "sotuvchilariga": 7953,
      "martaga": 7954,
      "onalarga": 7955,
      "ochirib": 7956,
      "alip": 7957,
      "malum": 7958,
      "uziday": 7959,
      "ishlariz": 7960,
      "ves": 7961,
      "arzimaydigan": 7962,
      "suvdan": 7963,
      "qilganman": 7964,
      "qilgandm": 7965,
      "baravar": 7966,
      "issiqni": 7967,
      "rivojlan": 7968,
      "bozordagi": 7969,
      "olishda": 7970,
      "10010": 7971,
      "xorowiy": 7972,
      "ullo": 7973,
      "oxshar": 7974,
      "aksiyaga": 7975,
      "magaz": 7976,
      "lovdim": 7977,
      "pasro": 7978,
      "akalar": 7979,
      "kremi": 7980,
      "reklamasi": 7981,
      "gulik": 7982,
      "trb": 7983,
      "trib": 7984,
      "tryap": 7985,
      "surti": 7986,
      "oylaganmdanam": 7987,
      "ishonchi": 7988,
      "xaliyam": 7989,
      "kemadiku": 7990,
      "oyoqlar": 7991,
      "ilohim": 7992,
      "oldinam": 7993,
      "yarm": 7994,
      "matiz": 7995,
      "matizga": 7996,
      "qolganini": 7997,
      "shikardos": 7998,
      "pepsini": 7999,
      "shampunga": 8000,
      "imizni": 8001,
      "uylaganimdanda": 8002,
      "zaryatkaga": 8003,
      "aylanishi": 8004,
      "iwlatdim": 8005,
      "sigib": 8006,
      "jiyanlarim": 8007,
      "choyni": 8008,
      "bilmadimu": 8009,
      "tenga": 8010,
      "eskirgan": 8011,
      "dizaynga": 8012,
      "qldim": 8013,
      "sovunni": 8014,
      "kickinagina": 8015,
      "axlat": 8016,
      "oooooo": 8017,
      "televizorni": 8018,
      "paddelkasi": 8019,
      "konfetcha": 8020,
      "sochilib": 8021,
      "magazinga": 8022,
      "tegsa": 8023,
      "quyish": 8024,
      "xoxlagande": 8025,
      "tagida": 8026,
      "videoda": 8027,
      "qotmasdan": 8028,
      "tasvir": 8029,
      "archaga": 8030,
      "karobkadan": 8031,
      "kiyadigan": 8032,
      "shovkin": 8033,
      "togr": 8034,
      "suratdagidan": 8035,
      "sifting": 8036,
      "ikkalasiyam": 8037,
      "xaftaga": 8038,
      "yopilmaydi": 8039,
      "kopirmadi": 8040,
      "kilishga": 8041,
      "eshitiladi": 8042,
      "kistlar": 8043,
      "hec": 8044,
      "keys": 8045,
      "iiiii": 8046,
      "olmaylar": 8047,
      "sparkga": 8048,
      "ishlepti": 8049,
      "nasadkalari": 8050,
      "honor": 8051,
      "qolaveradi": 8052,
      "islep": 8053,
      "yigilib": 8054,
      "mengga": 8055,
      "korpusi": 8056,
      "skovorodka": 8057,
      "yetayapti": 8058,
      "fuflo": 8059,
      "shtі": 8060,
      "kayfiyatni": 8061,
      "tugmalari": 8062,
      "hurmatli": 8063,
      "working": 8064,
      "assalomaleykum": 8065,
      "erkaklar": 8066,
      "krasofkaga": 8067,
      "brelok": 8068,
      "drug": 8069,
      "samarqand": 8070,
      "ertasiga": 8071,
      "qoronguda": 8072,
      "ishinglarga": 8073,
      "nukus": 8074,
      "namangan": 8075,
      "shtativ": 8076,
      "tovushi": 8077,
      "stvuyte": 8078,
      "naxodka": 8079,
      "mumkunamas": 8080,
      "1razmer": 8081,
      "1soatga": 8082,
      "2xl": 8083,
      "ai": 8084,
      "akam": 8085,
      "blyu": 8086,
      "cun": 8087,
      "cop": 8088,
      "dyo": 8089,
      "dot": 8090,
      "eder": 8091,
      "fri": 8092,
      "fani": 8093,
      "gga": 8094,
      "gda": 8095,
      "iщ": 8096,
      "jib": 8097,
      "kniga": 8098,
      "lp": 8099,
      "lni": 8100,
      "mza": 8101,
      "nish": 8102,
      "ngizga": 8103,
      "nravi": 8104,
      "oke": 8105,
      "okey": 8106,
      "oborib": 8107,
      "pn": 8108,
      "paro": 8109,
      "ruy": 8110,
      "smo": 8111,
      "skoy": 8112,
      "tro": 8113,
      "uh": 8114,
      "ulangan": 8115,
      "umiman": 8116,
      "vniy": 8117,
      "wr": 8118,
      "wt": 8119,
      "xoy": 8120,
      "xonam": 8121,
      "ynim": 8122,
      "zib": 8123,
      "map": 8124,
      "magi": 8125,
      "madan": 8126,
      "diya": 8127,
      "shda": 8128,
      "shal": 8129,
      "yala": 8130,
      "yaqdi": 8131,
      "davno": 8132,
      "lav": 8133,
      "lagi": 8134,
      "ral": 8135,
      "rasiz": 8136,
      "siki": 8137,
      "yoyi": 8138,
      "yotka": 8139,
      "ekantavsiya": 8140,
      "matrali": 8141,
      "yaxhi": 8142,
      "yaxshiraxmat": 8143,
      "yaxshiku": 8144,
      "kamay": 8145,
      "mandan": 8146,
      "suro": 8147,
      "sufati": 8148,
      "lomu": 8149,
      "sapali": 8150,
      "ishti": 8151,
      "niyat": 8152,
      "olurila": 8153,
      "imeka": 8154,
      "vaku": 8155,
      "vatel": 8156,
      "varaq": 8157,
      "kigandim": 8158,
      "zurga": 8159,
      "nari": 8160,
      "qivoldim": 8161,
      "ishlayap": 8162,
      "yurak": 8163,
      "yukori": 8164,
      "gida": 8165,
      "gisi": 8166,
      "zire": 8167,
      "muhu": 8168,
      "qasi": 8169,
      "qaldi": 8170,
      "qadar": 8171,
      "ung": 8172,
      "zavo": 8173,
      "bilaman": 8174,
      "too": 8175,
      "sochik": 8176,
      "sous": 8177,
      "vov": 8178,
      "tejam": 8179,
      "sifatlii": 8180,
      "tukil": 8181,
      "kosh": 8182,
      "kola": 8183,
      "koju": 8184,
      "navo": 8185,
      "markat": 8186,
      "markitga": 8187,
      "yezi": 8188,
      "yelim": 8189,
      "yefekti": 8190,
      "chiroyliroq": 8191,
      "pustoy": 8192,
      "layter": 8193,
      "bere": 8194,
      "beruvchilarga": 8195,
      "kattalarga": 8196,
      "bakal": 8197,
      "baliq": 8198,
      "bakuvvat": 8199,
      "nosti": 8200,
      "pulina": 8201,
      "pulilaga": 8202,
      "arzimadi": 8203,
      "sizlik": 8204,
      "yokimsiz": 8205,
      "wiyam": 8206,
      "bej": 8207,
      "lez": 8208,
      "shah": 8209,
      "metali": 8210,
      "yetyabdi": 8211,
      "yetvotti": 8212,
      "bora": 8213,
      "prostoy": 8214,
      "prochniy": 8215,
      "prodav": 8216,
      "uzumgayam": 8217,
      "bolmayabdi": 8218,
      "oliy": 8219,
      "otmen": 8220,
      "sovsem": 8221,
      "yursa": 8222,
      "yurimman": 8223,
      "ney": 8224,
      "neabi": 8225,
      "assalomualaykum": 8226,
      "yuqmi": 8227,
      "singa": 8228,
      "xolasa": 8229,
      "dokoniga": 8230,
      "orit": 8231,
      "rejim": 8232,
      "tirishga": 8233,
      "tiringlar": 8234,
      "qilmoqchi": 8235,
      "holatta": 8236,
      "iskala": 8237,
      "zaryadniki": 8238,
      "qayn": 8239,
      "jixoz": 8240,
      "iwlar": 8241,
      "sovgasiga": 8242,
      "ariz": 8243,
      "qizlarga": 8244,
      "kurinadi": 8245,
      "kamro": 8246,
      "karochi": 8247,
      "rus": 8248,
      "etkan": 8249,
      "etgandim": 8250,
      "iwlayabdi": 8251,
      "qoldirdi": 8252,
      "lishga": 8253,
      "ganiz": 8254,
      "aaaaa": 8255,
      "dugona": 8256,
      "bolishiga": 8257,
      "ratorga": 8258,
      "veni": 8259,
      "velosi": 8260,
      "yuzmga": 8261,
      "yuzimi": 8262,
      "zaryadini": 8263,
      "krujka": 8264,
      "xizma": 8265,
      "voradi": 8266,
      "shibti": 8267,
      "ulcha": 8268,
      "opke": 8269,
      "lamz": 8270,
      "malovato": 8271,
      "kizlar": 8272,
      "kirish": 8273,
      "tilmadi": 8274,
      "kutgande": 8275,
      "upakovkani": 8276,
      "yopishmasakan": 8277,
      "yopishtirilgan": 8278,
      "kremni": 8279,
      "yogni": 8280,
      "casi": 8281,
      "surka": 8282,
      "surganda": 8283,
      "spf": 8284,
      "foydalandim": 8285,
      "slad": 8286,
      "atirga": 8287,
      "atirlar": 8288,
      "ekaan": 8289,
      "orab": 8290,
      "simdan": 8291,
      "kick": 8292,
      "ichish": 8293,
      "futbolkani": 8294,
      "sekn": 8295,
      "krosovka": 8296,
      "balandligi": 8297,
      "qarshi": 8298,
      "kungayam": 8299,
      "bahosi": 8300,
      "eslat": 8301,
      "oxshamadi": 8302,
      "kimmatrok": 8303,
      "boykot": 8304,
      "namoz": 8305,
      "aytgandek": 8306,
      "votgan": 8307,
      "iwlatyapman": 8308,
      "haqiqattan": 8309,
      "airpodsni": 8310,
      "koyni": 8311,
      "choyshab": 8312,
      "yulduzchaga": 8313,
      "klasniy": 8314,
      "kabelni": 8315,
      "sogot": 8316,
      "ozgarib": 8317,
      "butunlay": 8318,
      "reklamadagi": 8319,
      "nikidan": 8320,
      "qopqogini": 8321,
      "konfetka": 8322,
      "ogritadi": 8323,
      "magazinlardan": 8324,
      "bonu": 8325,
      "tagidagi": 8326,
      "havoga": 8327,
      "expec": 8328,
      "salfetkasi": 8329,
      "olardik": 8330,
      "ketibti": 8331,
      "otkazmaydi": 8332,
      "bitada": 8333,
      "00000000": 8334,
      "shekili": 8335,
      "kachisti": 8336,
      "ishlamepti": 8337,
      "oylaganimizdan": 8338,
      "sotuvda": 8339,
      "qilsak": 8340,
      "uynab": 8341,
      "krossov": 8342,
      "yumwoqina": 8343,
      "yopilmayapti": 8344,
      "nnn": 8345,
      "kuchib": 8346,
      "konglimdegidek": 8347,
      "shovqinsiz": 8348,
      "qayerga": 8349,
      "lasses": 8350,
      "teshilgan": 8351,
      "judayyam": 8352,
      "hohlaganday": 8353,
      "vositasi": 8354,
      "ohsha": 8355,
      "tagliklar": 8356,
      "tolovni": 8357,
      "qigandm": 8358,
      "belgilagan": 8359,
      "sababdan": 8360,
      "bulgani": 8361,
      "rezinasi": 8362,
      "plyonka": 8363,
      "kismi": 8364,
      "ketkazdi": 8365,
      "dont": 8366,
      "togirlab": 8367,
      "toldiryapti": 8368,
      "skidkaga": 8369,
      "prikolno": 8370,
      "shorti": 8371,
      "zarari": 8372,
      "gilamcha": 8373,
      "joylashdi": 8374,
      "tizimi": 8375,
      "solishga": 8376,
      "jozib": 8377,
      "purka": 8378,
      "stilniy": 8379,
      "korpus": 8380,
      "remishogi": 8381,
      "texnika": 8382,
      "zaratka": 8383,
      "upakofkada": 8384,
      "monitor": 8385,
      "pokupka": 8386,
      "ulchami": 8387,
      "xorazmga": 8388,
      "oramda": 8389,
      "parfyum": 8390,
      "fosfor": 8391,
      "zashit": 8392,
      "sumochka": 8393,
      "sayohat": 8394,
      "majbur": 8395,
      "ishonaman": 8396,
      "kүshtі": 8397,
      "uaktinda": 8398,
      "ederim": 8399,
      "muhumi": 8400,
      "1oy": 8401,
      "3kun": 8402,
      "510": 8403,
      "6000": 8404,
      "asalom": 8405,
      "bina": 8406,
      "dri": 8407,
      "eli": 8408,
      "elaga": 8409,
      "elka": 8410,
      "goz": 8411,
      "gora": 8412,
      "jj": 8413,
      "lti": 8414,
      "lekan": 8415,
      "lyok": 8416,
      "mb": 8417,
      "oss": 8418,
      "pred": 8419,
      "qekan": 8420,
      "qsa": 8421,
      "qlarkan": 8422,
      "uli": 8423,
      "uradi": 8424,
      "urilgan": 8425,
      "vme": 8426,
      "vyor": 8427,
      "wma": 8428,
      "wni": 8429,
      "way": 8430,
      "x8": 8431,
      "xalos": 8432,
      "y6": 8433,
      "yp": 8434,
      "yt": 8435,
      "ykum": 8436,
      "zyr": 8437,
      "machalka": 8438,
      "anga": 8439,
      "shnur": 8440,
      "gat": 8441,
      "yaam": 8442,
      "yayet": 8443,
      "dadam": 8444,
      "ornati": 8445,
      "lamaga": 8446,
      "sia": 8447,
      "siyoh": 8448,
      "zoruzum": 8449,
      "chudo": 8450,
      "lida": 8451,
      "liki": 8452,
      "limi": 8453,
      "line": 8454,
      "tich": 8455,
      "tichno": 8456,
      "shiroyli": 8457,
      "shimga": 8458,
      "mata": 8459,
      "yoqa": 8460,
      "yaxshisini": 8461,
      "kakan": 8462,
      "kasha": 8463,
      "tayoq": 8464,
      "taom": 8465,
      "tagidan": 8466,
      "tatsiya": 8467,
      "faoli": 8468,
      "insta": 8469,
      "zudayam": 8470,
      "kechi": 8471,
      "kelaman": 8472,
      "kemaydi": 8473,
      "ketish": 8474,
      "keganda": 8475,
      "keguncha": 8476,
      "safe": 8477,
      "olmokchi": 8478,
      "vali": 8479,
      "onal": 8480,
      "kux": 8481,
      "kumu": 8482,
      "zurku": 8483,
      "sifatidan": 8484,
      "rahmay": 8485,
      "rahmatjuda": 8486,
      "qivotti": 8487,
      "qimayman": 8488,
      "ishlasa": 8489,
      "yuka": 8490,
      "yulib": 8491,
      "yutuk": 8492,
      "bum": 8493,
      "bus": 8494,
      "qati": 8495,
      "zash": 8496,
      "tolik": 8497,
      "tooo": 8498,
      "toxta": 8499,
      "xis": 8500,
      "xito": 8501,
      "tela": 8502,
      "tutab": 8503,
      "kolib": 8504,
      "kolibdi": 8505,
      "naq": 8506,
      "nasi": 8507,
      "markan": 8508,
      "yez": 8509,
      "yete": 8510,
      "yepish": 8511,
      "chiroyliy": 8512,
      "beryabdi": 8513,
      "kattalar": 8514,
      "yappan": 8515,
      "bala": 8516,
      "nok": 8517,
      "narsamas": 8518,
      "narsaykan": 8519,
      "ucharkan": 8520,
      "oldimjuda": 8521,
      "tezligiga": 8522,
      "oqladi": 8523,
      "yokd": 8524,
      "koring": 8525,
      "lganda": 8526,
      "mday": 8527,
      "jajji": 8528,
      "arzonro": 8529,
      "qulayligi": 8530,
      "qoshni": 8531,
      "birhil": 8532,
      "maxslu": 8533,
      "sifatle": 8534,
      "med": 8535,
      "mesila": 8536,
      "kachestvosiga": 8537,
      "zarur": 8538,
      "kichkinasini": 8539,
      "shey": 8540,
      "bolti": 8541,
      "bolmagur": 8542,
      "oliwga": 8543,
      "ishlashida": 8544,
      "qatdan": 8545,
      "otr": 8546,
      "otsenka": 8547,
      "sovi": 8548,
      "aytar": 8549,
      "happ": 8550,
      "mayaptiyu": 8551,
      "sand": 8552,
      "xolat": 8553,
      "xoyat": 8554,
      "narxni": 8555,
      "doglar": 8556,
      "dochka": 8557,
      "tirdim": 8558,
      "yahsi": 8559,
      "sinig": 8560,
      "hojat": 8561,
      "varoqlari": 8562,
      "yaramadi": 8563,
      "yaramaydi": 8564,
      "poco": 8565,
      "salga": 8566,
      "mona": 8567,
      "ism": 8568,
      "tushur": 8569,
      "zaryadlaydi": 8570,
      "kundayoq": 8571,
      "kiyi": 8572,
      "kiyvoman": 8573,
      "jicha": 8574,
      "ishinaga": 8575,
      "kelmayapti": 8576,
      "yarashadi": 8577,
      "uzogi": 8578,
      "ishlatyapti": 8579,
      "ishlatmasdan": 8580,
      "qolsa": 8581,
      "berishadi": 8582,
      "ruk": 8583,
      "qoyibdi": 8584,
      "iwlamayabdi": 8585,
      "obyom": 8586,
      "erip": 8587,
      "qaytarvor": 8588,
      "qaytarilgan": 8589,
      "kutganimdagidek": 8590,
      "ochdi": 8591,
      "ochmas": 8592,
      "larniki": 8593,
      "sene": 8594,
      "sotuvchidan": 8595,
      "onajonim": 8596,
      "dux": 8597,
      "sfatga": 8598,
      "over": 8599,
      "barang": 8600,
      "baroka": 8601,
      "manitor": 8602,
      "lashtirdi": 8603,
      "spasibki": 8604,
      "tozalashga": 8605,
      "pastrok": 8606,
      "peer": 8607,
      "laniyam": 8608,
      "issiqgina": 8609,
      "bozordayam": 8610,
      "bozordagidan": 8611,
      "yuborish": 8612,
      "olishlarizni": 8613,
      "tortadi": 8614,
      "kayer": 8615,
      "kaytib": 8616,
      "singanakan": 8617,
      "ulken": 8618,
      "orginalga": 8619,
      "yozdim": 8620,
      "yozmayapti": 8621,
      "malovat": 8622,
      "doimgi": 8623,
      "niklar": 8624,
      "koringandan": 8625,
      "tillaga": 8626,
      "oddiygina": 8627,
      "kiyimcha": 8628,
      "sizlarda": 8629,
      "yopishar": 8630,
      "yopishadi": 8631,
      "gub": 8632,
      "kolso": 8633,
      "kolgani": 8634,
      "masikan": 8635,
      "bizlarga": 8636,
      "jonga": 8637,
      "berdila": 8638,
      "yoshdan": 8639,
      "omeylar": 8640,
      "kitobga": 8641,
      "allohim": 8642,
      "kichkinar": 8643,
      "kulga": 8644,
      "skidkalar": 8645,
      "uzungina": 8646,
      "balandroq": 8647,
      "oxshagan": 8648,
      "tashladi": 8649,
      "tuwib": 8650,
      "materialdan": 8651,
      "zaryadkasiyam": 8652,
      "namlagich": 8653,
      "eshitib": 8654,
      "garni": 8655,
      "aylanadi": 8656,
      "sezilmaydi": 8657,
      "bergandm": 8658,
      "idishcha": 8659,
      "kupga": 8660,
      "svetilnik": 8661,
      "berishim": 8662,
      "chomi": 8663,
      "qludim": 8664,
      "omadini": 8665,
      "kalonkasi": 8666,
      "minnatdor": 8667,
      "korsatvotti": 8668,
      "ponravilis": 8669,
      "sfatsz": 8670,
      "baslari": 8671,
      "svetlari": 8672,
      "hozirgi": 8673,
      "odat": 8674,
      "kuringanidan": 8675,
      "qotmaydi": 8676,
      "256": 8677,
      "xiraroq": 8678,
      "otkazib": 8679,
      "apte": 8680,
      "uylaganday": 8681,
      "lmayapman": 8682,
      "rasimdi": 8683,
      "rasimdigi": 8684,
      "yolgonchilar": 8685,
      "cheki": 8686,
      "kraska": 8687,
      "iwlawiga": 8688,
      "ogirgina": 8689,
      "dostavkaga": 8690,
      "organish": 8691,
      "ishlamey": 8692,
      "fenga": 8693,
      "udobnie": 8694,
      "plastmassasi": 8695,
      "planshetni": 8696,
      "karab": 8697,
      "xursanman": 8698,
      "surilarkan": 8699,
      "uynash": 8700,
      "changyutgich": 8701,
      "zanglagan": 8702,
      "salfetkalar": 8703,
      "antistress": 8704,
      "vibrat": 8705,
      "paxtali": 8706,
      "muncha": 8707,
      "muzlat": 8708,
      "rezultati": 8709,
      "plasmasa": 8710,
      "uzgacha": 8711,
      "taniya": 8712,
      "fikrim": 8713,
      "ciqti": 8714,
      "asalakan": 8715,
      "oshxonada": 8716,
      "britva": 8717,
      "xakikiy": 8718,
      "uncalik": 8719,
      "xiaomi": 8720,
      "malomerit": 8721,
      "elastik": 8722,
      "otganmi": 8723,
      "xafaman": 8724,
      "nejniyakan": 8725,
      "qilodim": 8726,
      "oyludm": 8727,
      "kastr": 8728,
      "kllas": 8729,
      "xalq": 8730,
      "worth": 8731,
      "davlen": 8732,
      "metaldan": 8733,
      "ziyod": 8734,
      "kochadan": 8735,
      "umaman": 8736,
      "veshalka": 8737,
      "buyurmamni": 8738,
      "bomid": 8739,
      "yigish": 8740,
      "sloman": 8741,
      "eshtil": 8742,
      "bervoribsila": 8743,
      "chaqaloqlar": 8744,
      "ololmadim": 8745,
      "yeffekti": 8746,
      "momilasi": 8747,
      "useful": 8748,
      "lolmadim": 8749,
      "savdoyi": 8750,
      "instruksiya": 8751,
      "1ga1": 8752,
      "dugonam": 8753,
      "oaoa": 8754,
      "krasovkaga": 8755,
      "xaroshiy": 8756,
      "nuqtalarni": 8757,
      "yazshi": 8758,
      "kistichka": 8759,
      "upokov": 8760,
      "sumichka": 8761,
      "brasleti": 8762,
      "xarasho": 8763,
      "nasatkalari": 8764,
      "devorga": 8765,
      "looks": 8766,
      "yanvarga": 8767,
      "standart": 8768,
      "sliwkom": 8769,
      "bilaguzuk": 8770,
      "boomba": 8771,
      "butilka": 8772,
      "maxsluot": 8773,
      "happy": 8774,
      "2tasi": 8775,
      "3tasi": 8776,
      "3xl": 8777,
      "47": 8778,
      "51": 8779,
      "59": 8780,
      "68": 8781,
      "ate": 8782,
      "aqil": 8783,
      "ape": 8784,
      "bin": 8785,
      "cot": 8786,
      "doy": 8787,
      "ddorman": 8788,
      "eg": 8789,
      "eman": 8790,
      "gp": 8791,
      "gs": 8792,
      "gran": 8793,
      "glya": 8794,
      "hd": 8795,
      "ikala": 8796,
      "joda": 8797,
      "kmga": 8798,
      "lsin": 8799,
      "lmidi": 8800,
      "ms": 8801,
      "pz": 8802,
      "prak": 8803,
      "pora": 8804,
      "qm": 8805,
      "r3": 8806,
      "ry": 8807,
      "rga": 8808,
      "rsa": 8809,
      "soldim": 8810,
      "tyak": 8811,
      "ui": 8812,
      "uti": 8813,
      "uman": 8814,
      "ulo": 8815,
      "uqi": 8816,
      "ucha": 8817,
      "ugil": 8818,
      "vn": 8819,
      "vstvuyte": 8820,
      "wkan": 8821,
      "woo": 8822,
      "wwe": 8823,
      "wundan": 8824,
      "wunday": 8825,
      "xud": 8826,
      "xonamga": 8827,
      "xunuk": 8828,
      "yxshi": 8829,
      "zra": 8830,
      "mashi": 8831,
      "madel": 8832,
      "diga": 8833,
      "gach": 8834,
      "gaka": 8835,
      "yaa": 8836,
      "orami": 8837,
      "cheka": 8838,
      "lilar": 8839,
      "lishni": 8840,
      "yobdi": 8841,
      "yoniga": 8842,
      "jur": 8843,
      "mator": 8844,
      "yaxsi": 8845,
      "yoqmli": 8846,
      "yaxshiyam": 8847,
      "kaa": 8848,
      "kapu": 8849,
      "kado": 8850,
      "kamida": 8851,
      "tati": 8852,
      "amt": 8853,
      "manzur": 8854,
      "lop": 8855,
      "gande": 8856,
      "saat": 8857,
      "sakla": 8858,
      "ishal": 8859,
      "chiga": 8860,
      "nigi": 8861,
      "nimga": 8862,
      "olori": 8863,
      "olmagandim": 8864,
      "olmokchiman": 8865,
      "online": 8866,
      "kush": 8867,
      "kukun": 8868,
      "kutara": 8869,
      "kupay": 8870,
      "kuyilgan": 8871,
      "kubik": 8872,
      "ena": 8873,
      "bosib": 8874,
      "kisi": 8875,
      "kilar": 8876,
      "kito": 8877,
      "qiganim": 8878,
      "ishlayopti": 8879,
      "masmi": 8880,
      "yurar": 8881,
      "gildi": 8882,
      "giroq": 8883,
      "bumagan": 8884,
      "kande": 8885,
      "kaning": 8886,
      "uzukla": 8887,
      "zakan": 8888,
      "zaqa": 8889,
      "zadigan": 8890,
      "biraq": 8891,
      "xit": 8892,
      "xisob": 8893,
      "sobi": 8894,
      "solingan": 8895,
      "voh": 8896,
      "voop": 8897,
      "teni": 8898,
      "telim": 8899,
      "keldiraxmat": 8900,
      "chada": 8901,
      "chatga": 8902,
      "tul": 8903,
      "tutib": 8904,
      "konik": 8905,
      "kovat": 8906,
      "milk": 8907,
      "nazar": 8908,
      "str": 8909,
      "quli": 8910,
      "qushib": 8911,
      "qupol": 8912,
      "berman": 8913,
      "emasmi": 8914,
      "tavsif": 8915,
      "balama": 8916,
      "marketning": 8917,
      "pulidan": 8918,
      "atmen": 8919,
      "deg": 8920,
      "tezro": 8921,
      "paka": 8922,
      "pasay": 8923,
      "mahsulotlarga": 8924,
      "korb": 8925,
      "koram": 8926,
      "kachestvinniy": 8927,
      "qogi": 8928,
      "mowin": 8929,
      "modeli": 8930,
      "tari": 8931,
      "shaxo": 8932,
      "kichk": 8933,
      "yetti": 8934,
      "borlarga": 8935,
      "boridi": 8936,
      "zari": 8937,
      "hammalarizga": 8938,
      "shem": 8939,
      "boloradi": 8940,
      "ayiq": 8941,
      "likchi": 8942,
      "sinmagan": 8943,
      "xos": 8944,
      "siniyam": 8945,
      "oylamagan": 8946,
      "qilmanglar": 8947,
      "qilganimdek": 8948,
      "kinmas": 8949,
      "kinop": 8950,
      "yonmay": 8951,
      "tushgan": 8952,
      "tushsa": 8953,
      "kiym": 8954,
      "qaychi": 8955,
      "tovarom": 8956,
      "vapwi": 8957,
      "vilo": 8958,
      "viglya": 8959,
      "kelyabdi": 8960,
      "yinim": 8961,
      "kichikligini": 8962,
      "ozidaka": 8963,
      "kurt": 8964,
      "yekadi": 8965,
      "topshi": 8966,
      "toppp": 8967,
      "qollab": 8968,
      "rasmdagidekmas": 8969,
      "uydegi": 8970,
      "qoying": 8971,
      "qoyip": 8972,
      "qoyishga": 8973,
      "etsam": 8974,
      "iwlatmadim": 8975,
      "chamiz": 8976,
      "bulmayapti": 8977,
      "turish": 8978,
      "turmaskan": 8979,
      "juddaxam": 8980,
      "supr": 8981,
      "sumkasi": 8982,
      "ochganda": 8983,
      "martadan": 8984,
      "duo": 8985,
      "bolishini": 8986,
      "oynaga": 8987,
      "pasibo": 8988,
      "stick": 8989,
      "mino": 8990,
      "minusi": 8991,
      "almashib": 8992,
      "korsatilmagan": 8993,
      "izlar": 8994,
      "ved": 8995,
      "vez": 8996,
      "yuzlar": 8997,
      "yuzlarga": 8998,
      "zaryadiyam": 8999,
      "qilgani": 9000,
      "qilganda": 9001,
      "pech": 9002,
      "pemza": 9003,
      "uzukga": 9004,
      "issiqda": 9005,
      "yuborarkan": 9006,
      "olishdan": 9007,
      "tortarkan": 9008,
      "kayp": 9009,
      "yopsh": 9010,
      "podstavka": 9011,
      "poddelkasi": 9012,
      "bilganimda": 9013,
      "ulgir": 9014,
      "bundanam": 9015,
      "orginaldek": 9016,
      "pristavka": 9017,
      "yozd": 9018,
      "yozsam": 9019,
      "aksiyala": 9020,
      "aksiyadan": 9021,
      "boshkasini": 9022,
      "yopishdi": 9023,
      "krea": 9024,
      "oylaganchalik": 9025,
      "qaramasdan": 9026,
      "jem": 9027,
      "masidan": 9028,
      "assalawma": 9029,
      "vaktda": 9030,
      "adaw": 9031,
      "adamga": 9032,
      "shkatulka": 9033,
      "foydalanyapman": 9034,
      "foydalanishni": 9035,
      "korsatilgandan": 9036,
      "korsatilganday": 9037,
      "iloxim": 9038,
      "bolibdi": 9039,
      "paytda": 9040,
      "cobalt": 9041,
      "charger": 9042,
      "isitib": 9043,
      "isitish": 9044,
      "kitobcha": 9045,
      "chiqaruvchilarga": 9046,
      "quloqchinga": 9047,
      "mativiy": 9048,
      "kutkandan": 9049,
      "sharx": 9050,
      "pepsiga": 9051,
      "metrdan": 9052,
      "zvyozd": 9053,
      "chotke": 9054,
      "chotko": 9055,
      "aldamanglar": 9056,
      "gincha": 9057,
      "zooorrr": 9058,
      "tamini": 9059,
      "sirg": 9060,
      "vaqtdan": 9061,
      "ciroylikan": 9062,
      "eshitish": 9063,
      "aylanmas": 9064,
      "aylanmayapti": 9065,
      "yertilib": 9066,
      "berganingiz": 9067,
      "avva": 9068,
      "superrrrrr": 9069,
      "1tasini": 9070,
      "konglimdagi": 9071,
      "lentasi": 9072,
      "malamer": 9073,
      "klasnaya": 9074,
      "klassik": 9075,
      "sveta": 9076,
      "dakamas": 9077,
      "baxosiga": 9078,
      "ushlagich": 9079,
      "bolajonla": 9080,
      "berishipti": 9081,
      "polni": 9082,
      "mahsulotakan": 9083,
      "xonada": 9084,
      "xushmuomala": 9085,
      "ololmadi": 9086,
      "grafi": 9087,
      "toqroq": 9088,
      "achinmadim": 9089,
      "loved": 9090,
      "yuzimda": 9091,
      "hozirda": 9092,
      "soatim": 9093,
      "pragram": 9094,
      "kacestvo": 9095,
      "telifoni": 9096,
      "mokda": 9097,
      "dastasi": 9098,
      "tasni": 9099,
      "mushukcham": 9100,
      "mushuklarim": 9101,
      "maysizmi": 9102,
      "tolan": 9103,
      "xitoyniki": 9104,
      "ortaca": 9105,
      "chiroqlar": 9106,
      "laringga": 9107,
      "chiziq": 9108,
      "kutgandanda": 9109,
      "tabislar": 9110,
      "akuratno": 9111,
      "tanlaganimdan": 9112,
      "tilifon": 9113,
      "plastikdan": 9114,
      "maxsulotiz": 9115,
      "yuriwga": 9116,
      "ishchilar": 9117,
      "bistraya": 9118,
      "stoykimas": 9119,
      "vanna": 9120,
      "munchoq": 9121,
      "tuldir": 9122,
      "kalingina": 9123,
      "ablo": 9124,
      "blut": 9125,
      "noutbook": 9126,
      "eshitilarkan": 9127,
      "rasmdigidek": 9128,
      "kosmetik": 9129,
      "qanaq": 9130,
      "sotila": 9131,
      "xavoga": 9132,
      "taraflama": 9133,
      "sredstvo": 9134,
      "vaqtgacha": 9135,
      "patchi": 9136,
      "zararsiz": 9137,
      "jonatgan": 9138,
      "ilibdi": 9139,
      "cqti": 9140,
      "cqmadi": 9141,
      "muloyim": 9142,
      "sparkka": 9143,
      "premi": 9144,
      "iwlatiwga": 9145,
      "almawtir": 9146,
      "inshaallah": 9147,
      "larimizni": 9148,
      "arziyd": 9149,
      "rasmdigide": 9150,
      "prishol": 9151,
      "gilamchasi": 9152,
      "jonatibsizlar": 9153,
      "oylodm": 9154,
      "padvodka": 9155,
      "krishka": 9156,
      "tunda": 9157,
      "ishlamdi": 9158,
      "filtr": 9159,
      "borilaga": 9160,
      "tashkilotchi": 9161,
      "korobkasi": 9162,
      "cena": 9163,
      "moxchi": 9164,
      "savdoyin": 9165,
      "qulayakan": 9166,
      "sticker": 9167,
      "junatgan": 9168,
      "oxwidi": 9169,
      "shaftoli": 9170,
      "ahvolda": 9171,
      "ornida": 9172,
      "mumknmas": 9173,
      "burchak": 9174,
      "votudim": 9175,
      "polik": 9176,
      "nihoyatda": 9177,
      "nastroyka": 9178,
      "ishiylarga": 9179,
      "kizalogimga": 9180,
      "upakofkasi": 9181,
      "bambuk": 9182,
      "щayet": 9183,
      "yaroqlilik": 9184,
      "yqxshi": 9185,
      "ijobiy": 9186,
      "podushka": 9187,
      "better": 9188,
      "pompa": 9189,
      "hayronman": 9190,
      "uvlajnitel": 9191,
      "aqlli": 9192,
      "tekstura": 9193,
      "zdravstvuyte": 9194,
      "manfaatli": 9195,
      "moljallangan": 9196,
      "minatdorman": 9197,
      "nishtyak": 9198,
      "ruyxatdan": 9199,
      "bejrim": 9200,
      "velosipe": 9201,
      "expected": 9202,
      "osson": 9203,
      "shaxob": 9204,
      "viglyadit": 9205,
      "1soat": 9206,
      "1oydan": 9207,
      "2ga": 9208,
      "31": 9209,
      "77": 9210,
      "710": 9211,
      "avo": 9212,
[...]
