{
  "version": "1.0",
  "truncation": null,
  "padding": null,
  "added_tokens": [
    {
      "id": 0,
      "content": "<pad>",
      "single_word": false,
      "lstrip": false,
      "rstrip": false,
      "normalized": false,
      "special": true
    },
    {
      "id": 1,
      "content": "<unk>",
      "single_word": false,
      "lstrip": false,
      "rstrip": false,
      "normalized": false,
      "special": true
    }
  ],
  "normalizer": null,
  "pre_tokenizer": {
    "type": "Whitespace"
  },
  "post_processor": null,
  "decoder": null,
  "model": {
    "type": "BPE",
    "dropout": null,
    "unk_token": null,
    "continuing_subword_prefix": null,
    "end_of_word_suffix": null,
    "fuse_unk": false,
    "byte_fallback": false,
    "ignore_merges": false,
    "vocab": {
      "<pad>": 0,
      "<unk>": 1,
      "'": 2,
      "0": 3,
      "1": 4,
      "2": 5,
      "3": 6,
      "4": 7,
      "5": 8,
      "6": 9,
      "7": 10,
      "8": 11,
      "9": 12,
      "a": 13,
      "b": 14,
      "c": 15,
      "d": 16,
      "e": 17,
      "f": 18,
      "g": 19,
      "h": 20,
      "i": 21,
      "j": 22,
      "k": 23,
      "l": 24,
      "m": 25,
      "n": 26,
      "o": 27,
      "p": 28,
      "q": 29,
      "r": 30,
      "s": 31,
      "t": 32,
      "u": 33,
      "v": 34,
      "w": 35,
      "x": 36,
      "y": 37,
      "z": 38,
      "ƙ": 39,
      "ɑ": 40,
      "ʙ": 41,
      "щ": 42,
      "є": 43,
      "і": 44,
      "ґ": 45,
      "ҙ": 46,
      "ң": 47,
      "ү": 48,
      "ұ": 49,
      "ҷ": 50,
      "һ": 51,
      "ә": 52,
      "ӯ": 53,
      "๑": 54,
      "ᴠ": 55,
      "ᴡ": 56,
      "ᴢ": 57,
      "⁶": 58,
      "an": 59,
      "ma": 60,
      "di": 61,
      "sh": 62,
      "la": 63,
      "ga": 64,
      "da": 65,
      "ya": 66,
      "or": 67,
      "ch": 68,
      "si": 69,
      "ra": 70,
      "ek": 71,
      "li": 72,
      "ti": 73,
      "yo": 74,
      "shi": 75,
      "ar": 76,
      "zor": 77,
      "ekan": 78,
      "ju": 79,
      "juda": 80,
      "ka": 81,
      "ta": 82,
      "in": 83,
      "mat": 84,
      "am": 85,
      "gan": 86,
      "yax": 87,
      "ke": 88,
      "ni": 89,
      "um": 90,
      "yoq": 91,
      "yaxshi": 92,
      "oy": 93,
      "lar": 94,
      "ol": 95,
      "er": 96,
      "fa": 97,
      "sa": 98,
      "man": 99,
      "ish": 100,
      "lo": 101,
      "chi": 102,
      "ur": 103,
      "sifa": 104,
      "im": 105,
      "ib": 106,
      "dim": 107,
      "un": 108,
      "su": 109,
      "rax": 110,
      "raxmat": 111,
      "ki": 112,
      "bo": 113,
      "on": 114,
      "qi": 115,
      "va": 116,
      "uz": 117,
      "ham": 118,
      "gi": 119,
      "dan": 120,
      "en": 121,
      "yam": 122,
      "qa": 123,
      "ishla": 124,
      "bu": 125,
      "mas": 126,
      "nar": 127,
      "yoqdi": 128,
      "bi": 129,
      "sifati": 130,
      "ot": 131,
      "gap": 132,
      "rah": 133,
      "rahmat": 134,
      "zi": 135,
      "kan": 136,
      "joy": 137,
      "zur": 138,
      "to": 139,
      "uzum": 140,
      "za": 141,
      "kel": 142,
      "ro": 143,
      "cha": 144,
      "so": 145,
      "judayam": 146,
      "men": 147,
      "te": 148,
      "mi": 149,
      "ket": 150,
      "lek": 151,
      "sifat": 152,
      "ajoy": 153,
      "xi": 154,
      "madi": 155,
      "ajoyib": 156,
      "ku": 157,
      "al": 158,
      "ber": 159,
      "yu": 160,
      "per": 161,
      "mar": 162,
      "vo": 163,
      "keldi": 164,
      "sulo": 165,
      "tta": 166,
      "lekin": 167,
      "sulot": 168,
      "ye": 169,
      "super": 170,
      "na": 171,
      "lay": 172,
      "lib": 173,
      "mu": 174,
      "siya": 175,
      "ydi": 176,
      "xam": 177,
      "lan": 178,
      "sifatli": 179,
      "at": 180,
      "as": 181,
      "yap": 182,
      "tib": 183,
      "de": 184,
      "pu": 185,
      "tu": 186,
      "market": 187,
      "menga": 188,
      "qu": 189,
      "ko": 190,
      "tav": 191,
      "lari": 192,
      "uch": 193,
      "roy": 194,
      "mo": 195,
      "kaz": 196,
      "lgan": 197,
      "alo": 198,
      "royli": 199,
      "st": 200,
      "emas": 201,
      "katta": 202,
      "ina": 203,
      "siz": 204,
      "manga": 205,
      "kor": 206,
      "chiroyli": 207,
      "uchun": 208,
      "ganim": 209,
      "ri": 210,
      "oldim": 211,
      "laman": 212,
      "yapti": 213,
      "narsa": 214,
      "mah": 215,
      "qo": 216,
      "ras": 217,
      "puli": 218,
      "ladi": 219,
      "tavsiya": 220,
      "ini": 221,
      "no": 222,
      "bol": 223,
      "narxi": 224,
      "bor": 225,
      "mahsulot": 226,
      "bir": 227,
      "hi": 228,
      "arz": 229,
      "uman": 230,
      "salo": 231,
      "che": 232,
      "chiq": 233,
      "be": 234,
      "ba": 235,
      "tez": 236,
      "arzi": 237,
      "umuman": 238,
      "le": 239,
      "dagi": 240,
      "ran": 241,
      "dek": 242,
      "kum": 243,
      "kon": 244,
      "pa": 245,
      "oq": 246,
      "puliga": 247,
      "zakaz": 248,
      "assalo": 249,
      "ja": 250,
      "tar": 251,
      "rasm": 252,
      "oma": 253,
      "kun": 254,
      "sha": 255,
      "qilaman": 256,
      "zar": 257,
      "max": 258,
      "yok": 259,
      "me": 260,
      "mer": 261,
      "larga": 262,
      "bosh": 263,
      "oli": 264,
      "arzon": 265,
      "maydi": 266,
      "yan": 267,
      "assalomu": 268,
      "oldi": 269,
      "qulay": 270,
      "raz": 271,
      "yet": 272,
      "ing": 273,
      "wi": 274,
      "zarya": 275,
      "rak": 276,
      "may": 277,
      "marketga": 278,
      "omad": 279,
      "yur": 280,
      "ay": 281,
      "do": 282,
      "lik": 283,
      "oz": 284,
      "qat": 285,
      "maxsulot": 286,
      "razmer": 287,
      "chest": 288,
      "il": 289,
      "kut": 290,
      "kachest": 291,
      "olgan": 292,
      "tir": 293,
      "00": 294,
      "kot": 295,
      "hamma": 296,
      "re": 297,
      "uv": 298,
      "qil": 299,
      "ha": 300,
      "pro": 301,
      "san": 302,
      "chk": 303,
      "ozi": 304,
      "fon": 305,
      "lich": 306,
      "shun": 307,
      "sifatiga": 308,
      "sov": 309,
      "otlich": 310,
      "kichk": 311,
      "ganimdan": 312,
      "ne": 313,
      "sini": 314,
      "tele": 315,
      "imga": 316,
      "sin": 317,
      "yoqti": 318,
      "hidi": 319,
      "qay": 320,
      "boshqa": 321,
      "kotta": 322,
      "tma": 323,
      "ari": 324,
      "ddi": 325,
      "chik": 326,
      "shu": 327,
      "buyur": 328,
      "she": 329,
      "narxiga": 330,
      "yin": 331,
      "kichkina": 332,
      "mga": 333,
      "yana": 334,
      "ey": 335,
      "uzumga": 336,
      "day": 337,
      "yuk": 338,
      "sot": 339,
      "faqat": 340,
      "shni": 341,
      "zga": 342,
      "ishlashi": 343,
      "akan": 344,
      "gina": 345,
      "ori": 346,
      "mayapti": 347,
      "bera": 348,
      "ishi": 349,
      "xo": 350,
      "soat": 351,
      "boladi": 352,
      "var": 353,
      "kasi": 354,
      "zaryad": 355,
      "laykum": 356,
      "yoqmadi": 357,
      "arziydi": 358,
      "alaykum": 359,
      "yaxwi": 360,
      "se": 361,
      "narx": 362,
      "yetib": 363,
      "telefon": 364,
      "aqa": 365,
      "sam": 366,
      "dara": 367,
      "kachestvo": 368,
      "daraja": 369,
      "ichi": 370,
      "roq": 371,
      "bul": 372,
      "bola": 373,
      "lab": 374,
      "lishi": 375,
      "xa": 376,
      "qoy": 377,
      "po": 378,
      "qan": 379,
      "uvchi": 380,
      "yuq": 381,
      "ir": 382,
      "bdi": 383,
      "tur": 384,
      "tovar": 385,
      "gandim": 386,
      "bilan": 387,
      "yokdi": 388,
      "ovo": 389,
      "qilib": 390,
      "gin": 391,
      "las": 392,
      "kur": 393,
      "rasmdagi": 394,
      "darajada": 395,
      "vi": 396,
      "buyurtma": 397,
      "deb": 398,
      "rangi": 399,
      "berish": 400,
      "ursan": 401,
      "ik": 402,
      "gri": 403,
      "uddi": 404,
      "sal": 405,
      "lin": 406,
      "mon": 407,
      "kiy": 408,
      "ho": 409,
      "ok": 410,
      "chiqdi": 411,
      "is": 412,
      "kin": 413,
      "larni": 414,
      "oyla": 415,
      "bun": 416,
      "yon": 417,
      "miz": 418,
      "mos": 419,
      "kunda": 420,
      "masla": 421,
      "rang": 422,
      "aley": 423,
      "gani": 424,
      "kerak": 425,
      "lish": 426,
      "bitta": 427,
      "sotuvchi": 428,
      "laga": 429,
      "imi": 430,
      "zorakan": 431,
      "xidi": 432,
      "aleykum": 433,
      "tish": 434,
      "yetkaz": 435,
      "iw": 436,
      "ursand": 437,
      "uy": 438,
      "madim": 439,
      "maz": 440,
      "ancha": 441,
      "yekan": 442,
      "qaytar": 443,
      "yum": 444,
      "edi": 445,
      "sovga": 446,
      "ishlat": 447,
      "sta": 448,
      "ginal": 449,
      "oyda": 450,
      "oo": 451,
      "yah": 452,
      "olib": 453,
      "top": 454,
      "ligi": 455,
      "tida": 456,
      "sifatsiz": 457,
      "mazza": 458,
      "magan": 459,
      "kam": 460,
      "siga": 461,
      "kattakon": 462,
      "yara": 463,
      "tush": 464,
      "masa": 465,
      "foyda": 466,
      "dm": 467,
      "vaq": 468,
      "kar": 469,
      "yetkazib": 470,
      "maga": 471,
      "lat": 472,
      "kop": 473,
      "immat": 474,
      "otlichno": 475,
      "et": 476,
      "mum": 477,
      "qiz": 478,
      "rosa": 479,
      "tan": 480,
      "tilgan": 481,
      "gli": 482,
      "qoldi": 483,
      "uncha": 484,
      "ji": 485,
      "ganda": 486,
      "qol": 487,
      "yabdi": 488,
      "yomon": 489,
      "vot": 490,
      "dda": 491,
      "endi": 492,
      "niy": 493,
      "kutganimdan": 494,
      "qilgan": 495,
      "ochi": 496,
      "keyin": 497,
      "giz": 498,
      "mal": 499,
      "uzi": 500,
      "marta": 501,
      "vap": 502,
      "brak": 503,
      "boldi": 504,
      "cham": 505,
      "hat": 506,
      "kichik": 507,
      "larkan": 508,
      "ammo": 509,
      "larim": 510,
      "beraman": 511,
      "yahshi": 512,
      "xursand": 513,
      "ona": 514,
      "ishlamadi": 515,
      "lash": 516,
      "klas": 517,
      "pas": 518,
      "min": 519,
      "ora": 520,
      "kottakon": 521,
      "eri": 522,
      "yumsh": 523,
      "10": 524,
      "arzidi": 525,
      "qimmat": 526,
      "ov": 527,
      "yoz": 528,
      "bar": 529,
      "ishlatib": 530,
      "kat": 531,
      "yarasha": 532,
      "rasmda": 533,
      "sum": 534,
      "rkan": 535,
      "glar": 536,
      "mumkin": 537,
      "dam": 538,
      "och": 539,
      "arid": 540,
      "edim": 541,
      "ob": 542,
      "alma": 543,
      "us": 544,
      "shir": 545,
      "xuddi": 546,
      "rr": 547,
      "mba": 548,
      "ush": 549,
      "ut": 550,
      "bop": 551,
      "yek": 552,
      "niq": 553,
      "hammaga": 554,
      "tadi": 555,
      "klass": 556,
      "korsa": 557,
      "rat": 558,
      "ushni": 559,
      "masi": 560,
      "pul": 561,
      "uzu": 562,
      "iz": 563,
      "hammasi": 564,
      "bomba": 565,
      "yop": 566,
      "maslahat": 567,
      "af": 568,
      "rasmdagidek": 569,
      "bat": 570,
      "radi": 571,
      "moq": 572,
      "ani": 573,
      "gil": 574,
      "mayman": 575,
      "beri": 576,
      "naushni": 577,
      "buni": 578,
      "bil": 579,
      "almash": 580,
      "lariga": 581,
      "yi": 582,
      "ski": 583,
      "togri": 584,
      "we": 585,
      "olgandim": 586,
      "tirib": 587,
      "xol": 588,
      "sizlarga": 589,
      "yubor": 590,
      "olish": 591,
      "nor": 592,
      "tek": 593,
      "lani": 594,
      "joyi": 595,
      "ul": 596,
      "kachestva": 597,
      "yuz": 598,
      "lagan": 599,
      "fek": 600,
      "tr": 601,
      "afsu": 602,
      "ros": 603,
      "sotib": 604,
      "ishlayapti": 605,
      "ishlamayapti": 606,
      "fi": 607,
      "oni": 608,
      "nima": 609,
      "naya": 610,
      "razmeri": 611,
      "midi": 612,
      "ovoz": 613,
      "naushnik": 614,
      "yumshoq": 615,
      "sim": 616,
      "mani": 617,
      "dik": 618,
      "iwla": 619,
      "yen": 620,
      "pi": 621,
      "ak": 622,
      "suv": 623,
      "fsiya": 624,
      "kir": 625,
      "votti": 626,
      "original": 627,
      "maza": 628,
      "tin": 629,
      "ter": 630,
      "bolishi": 631,
      "dir": 632,
      "oyna": 633,
      "ming": 634,
      "ovozi": 635,
      "tel": 636,
      "prosta": 637,
      "du": 638,
      "ali": 639,
      "ech": 640,
      "vaqtida": 641,
      "judda": 642,
      "imli": 643,
      "tasi": 644,
      "ichida": 645,
      "dar": 646,
      "kelmadi": 647,
      "dimi": 648,
      "tim": 649,
      "sizlar": 650,
      "zaryadi": 651,
      "kutganim": 652,
      "yat": 653,
      "vapshe": 654,
      "qaytarib": 655,
      "shib": 656,
      "arkan": 657,
      "eng": 658,
      "voti": 659,
      "tafsiya": 660,
      "bal": 661,
      "langan": 662,
      "qildim": 663,
      "materi": 664,
      "inishi": 665,
      "kil": 666,
      "masakan": 667,
      "sup": 668,
      "xil": 669,
      "hamyon": 670,
      "os": 671,
      "xarid": 672,
      "kay": 673,
      "op": 674,
      "ikki": 675,
      "ishlar": 676,
      "gini": 677,
      "sto": 678,
      "qulo": 679,
      "sen": 680,
      "ozir": 681,
      "and": 682,
      "afsus": 683,
      "rossa": 684,
      "nega": 685,
      "otlichnaya": 686,
      "sumka": 687,
      "sotuvchiga": 688,
      "vor": 689,
      "pti": 690,
      "taman": 691,
      "yor": 692,
      "yot": 693,
      "aa": 694,
      "past": 695,
      "ve": 696,
      "bolsa": 697,
      "har": 698,
      "adi": 699,
      "chiqmadi": 700,
      "xiz": 701,
      "bozor": 702,
      "buladi": 703,
      "bizga": 704,
      "ef": 705,
      "upa": 706,
      "yaxshimas": 707,
      "til": 708,
      "lekn": 709,
      "toza": 710,
      "moqchi": 711,
      "mni": 712,
      "far": 713,
      "ox": 714,
      "ru": 715,
      "gar": 716,
      "kov": 717,
      "pod": 718,
      "tik": 719,
      "rivo": 720,
      "kulay": 721,
      "huddi": 722,
      "000": 723,
      "yengil": 724,
      "issi": 725,
      "qanday": 726,
      "bara": 727,
      "olishni": 728,
      "rivoj": 729,
      "vashe": 730,
      "ver": 731,
      "chin": 732,
      "yozi": 733,
      "kaga": 734,
      "vva": 735,
      "arzimaydi": 736,
      "chot": 737,
      "sfa": 738,
      "ishga": 739,
      "kilib": 740,
      "ilti": 741,
      "oldin": 742,
      "ishlari": 743,
      "sila": 744,
      "hali": 745,
      "bunaqa": 746,
      "xat": 747,
      "berishdi": 748,
      "amo": 749,
      "kra": 750,
      "kilgan": 751,
      "latda": 752,
      "nik": 753,
      "gir": 754,
      "ilo": 755,
      "kani": 756,
      "pe": 757,
      "kilaman": 758,
      "iltimos": 759,
      "yoqimli": 760,
      "yar": 761,
      "tara": 762,
      "supper": 763,
      "glim": 764,
      "ochib": 765,
      "fta": 766,
      "tiq": 767,
      "idi": 768,
      "shunaqa": 769,
      "bn": 770,
      "sur": 771,
      "yoki": 772,
      "masdan": 773,
      "baraka": 774,
      "gun": 775,
      "oylaganimdan": 776,
      "tavar": 777,
      "imni": 778,
      "oyin": 779,
      "alda": 780,
      "uu": 781,
      "oro": 782,
      "aka": 783,
      "zaka": 784,
      "mahsulotni": 785,
      "tak": 786,
      "shim": 787,
      "bolar": 788,
      "lekum": 789,
      "go": 790,
      "th": 791,
      "korinishi": 792,
      "boshka": 793,
      "prosto": 794,
      "yapman": 795,
      "ci": 796,
      "chexol": 797,
      "pasi": 798,
      "uzuk": 799,
      "udim": 800,
      "upakov": 801,
      "qora": 802,
      "doim": 803,
      "oye": 804,
      "100": 805,
      "ayt": 806,
      "oldik": 807,
      "quloq": 808,
      "lam": 809,
      "tacha": 810,
      "stav": 811,
      "ip": 812,
      "kere": 813,
      "choq": 814,
      "xodim": 815,
      "bugun": 816,
      "yuv": 817,
      "batar": 818,
      "qara": 819,
      "yn": 820,
      "effek": 821,
      "bolib": 822,
      "jamo": 823,
      "yokti": 824,
      "ishon": 825,
      "qur": 826,
      "it": 827,
      "ix": 828,
      "roz": 829,
      "oddi": 830,
      "fe": 831,
      "yapdi": 832,
      "qilish": 833,
      "ishlatish": 834,
      "bersin": 835,
      "dka": 836,
      "issiq": 837,
      "olganim": 838,
      "yekdi": 839,
      "norm": 840,
      "tiga": 841,
      "odam": 842,
      "oddiy": 843,
      "ila": 844,
      "qib": 845,
      "tor": 846,
      "qop": 847,
      "kiyim": 848,
      "miman": 849,
      "xammasi": 850,
      "vob": 851,
      "sala": 852,
      "zo": 853,
      "ketdi": 854,
      "je": 855,
      "zil": 856,
      "biz": 857,
      "glimga": 858,
      "tura": 859,
      "ozgina": 860,
      "nu": 861,
      "etib": 862,
      "hamyonbop": 863,
      "korin": 864,
      "12": 865,
      "jamoa": 866,
      "ixcham": 867,
      "udo": 868,
      "narxiyam": 869,
      "pri": 870,
      "larini": 871,
      "yozilgan": 872,
      "qabul": 873,
      "yangi": 874,
      "mam": 875,
      "gandan": 876,
      "materiali": 877,
      "qilgandim": 878,
      "ning": 879,
      "tash": 880,
      "larimga": 881,
      "nars": 882,
      "shuncha": 883,
      "qizimga": 884,
      "yab": 885,
      "dagidek": 886,
      "15": 887,
      "tekshir": 888,
      "noye": 889,
      "aksiya": 890,
      "sor": 891,
      "gizga": 892,
      "mayabdi": 893,
      "niga": 894,
      "hida": 895,
      "yosh": 896,
      "allo": 897,
      "ildi": 898,
      "hech": 899,
      "alekum": 900,
      "kom": 901,
      "javob": 902,
      "chka": 903,
      "yol": 904,
      "shin": 905,
      "pay": 906,
      "kelib": 907,
      "unchalik": 908,
      "kiz": 909,
      "rek": 910,
      "ishladi": 911,
      "ishilaga": 912,
      "spasi": 913,
      "soch": 914,
      "sp": 915,
      "yopish": 916,
      "rasim": 917,
      "qolgan": 918,
      "chasi": 919,
      "shuni": 920,
      "rabo": 921,
      "qor": 922,
      "kordim": 923,
      "xizmat": 924,
      "uni": 925,
      "haqi": 926,
      "lamiz": 927,
      "alohida": 928,
      "degi": 929,
      "inchi": 930,
      "ibdi": 931,
      "foydalan": 932,
      "qul": 933,
      "foni": 934,
      "olaman": 935,
      "digan": 936,
      "tishi": 937,
      "singan": 938,
      "tushdi": 939,
      "kutganimdek": 940,
      "gon": 941,
      "rabota": 942,
      "kre": 943,
      "kuy": 944,
      "narsekan": 945,
      "rozi": 946,
      "hozir": 947,
      "del": 948,
      "ram": 949,
      "ada": 950,
      "tuga": 951,
      "maslaxat": 952,
      "zakas": 953,
      "bob": 954,
      "orginal": 955,
      "biroz": 956,
      "chotki": 957,
      "xammaga": 958,
      "maxsulotni": 959,
      "bittasi": 960,
      "manglar": 961,
      "salom": 962,
      "qilin": 963,
      "pun": 964,
      "ishlarin": 965,
      "ligini": 966,
      "yul": 967,
      "20": 968,
      "chun": 969,
      "kachestvasi": 970,
      "etibor": 971,
      "chiqar": 972,
      "ce": 973,
      "gacha": 974,
      "olin": 975,
      "sav": 976,
      "assala": 977,
      "spasibo": 978,
      "almashtirib": 979,
      "bek": 980,
      "yog": 981,
      "iloji": 982,
      "esa": 983,
      "yil": 984,
      "tini": 985,
      "ishlarizga": 986,
      "nat": 987,
      "buldi": 988,
      "bas": 989,
      "limga": 990,
      "tugri": 991,
      "birinchi": 992,
      "oyoq": 993,
      "zin": 994,
      "vaqt": 995,
      "xar": 996,
      "qin": 997,
      "dona": 998,
      "nimaga": 999,
      "ortacha": 1000,
      "assalom": 1001,
      "oyi": 1002,
      "char": 1003,
      "nati": 1004,
      "holatda": 1005,
      "aman": 1006,
      "bergan": 1007,
      "malol": 1008,
      "sena": 1009,
      "sho": 1010,
      "uchi": 1011,
      "lov": 1012,
      "bel": 1013,
      "lama": 1014,
      "zu": 1015,
      "tiyin": 1016,
      "meni": 1017,
      "inglar": 1018,
      "ketti": 1019,
      "jon": 1020,
      "xamma": 1021,
      "liq": 1022,
      "kn": 1023,
      "son": 1024,
      "hol": 1025,
      "hursand": 1026,
      "buyurt": 1027,
      "kal": 1028,
      "keladi": 1029,
      "rabotayet": 1030,
      "bemalol": 1031,
      "mela": 1032,
      "quvva": 1033,
      "niqsa": 1034,
      "dor": 1035,
      "kru": 1036,
      "stavka": 1037,
      "ganimda": 1038,
      "qiy": 1039,
      "goo": 1040,
      "fakat": 1041,
      "bundan": 1042,
      "bolalar": 1043,
      "qanaqa": 1044,
      "sifatiyam": 1045,
      "ayniqsa": 1046,
      "ulan": 1047,
      "bosa": 1048,
      "ishlab": 1049,
      "ank": 1050,
      "kaytar": 1051,
      "kol": 1052,
      "qis": 1053,
      "narxga": 1054,
      "rok": 1055,
      "berdi": 1056,
      "almashtir": 1057,
      "kito": 1058,
      "taroq": 1059,
      "ozim": 1060,
      "moqchiman": 1061,
      "tami": 1062,
      "tiyinga": 1063,
      "tka": 1064,
      "moni": 1065,
      "korsatilgan": 1066,
      "otlichnoye": 1067,
      "soatga": 1068,
      "shar": 1069,
      "vak": 1070,
      "arzimi": 1071,
      "chli": 1072,
      "bow": 1073,
      "etaman": 1074,
      "boshqacha": 1075,
      "diza": 1076,
      "xoro": 1077,
      "ketgan": 1078,
      "xox": 1079,
      "jamoasiga": 1080,
      "lardan": 1081,
      "karob": 1082,
      "maqul": 1083,
      "sidan": 1084,
      "xali": 1085,
      "upakovka": 1086,
      "kim": 1087,
      "kora": 1088,
      "assalamu": 1089,
      "buyurtmani": 1090,
      "dey": 1091,
      "eshi": 1092,
      "yup": 1093,
      "good": 1094,
      "ca": 1095,
      "ct": 1096,
      "barcha": 1097,
      "oxsha": 1098,
      "narhi": 1099,
      "kitob": 1100,
      "ge": 1101,
      "uyla": 1102,
      "turadi": 1103,
      "om": 1104,
      "tli": 1105,
      "dax": 1106,
      "qilmayman": 1107,
      "sez": 1108,
      "yaxshikan": 1109,
      "sinib": 1110,
      "bl": 1111,
      "sani": 1112,
      "atir": 1113,
      "jir": 1114,
      "yir": 1115,
      "farz": 1116,
      "narxda": 1117,
      "quloqchin": 1118,
      "shat": 1119,
      "mad": 1120,
      "kelgan": 1121,
      "imiz": 1122,
      "shina": 1123,
      "vapwe": 1124,
      "oson": 1125,
      "ley": 1126,
      "air": 1127,
      "for": 1128,
      "shunchaki": 1129,
      "berib": 1130,
      "met": 1131,
      "mol": 1132,
      "ishlamaydi": 1133,
      "layman": 1134,
      "alloh": 1135,
      "larda": 1136,
      "pods": 1137,
      "sham": 1138,
      "tiniq": 1139,
      "duz": 1140,
      "boli": 1141,
      "gizni": 1142,
      "tekshirib": 1143,
      "bolmaydi": 1144,
      "viy": 1145,
      "not": 1146,
      "skidka": 1147,
      "2ta": 1148,
      "zik": 1149,
      "bermayman": 1150,
      "kup": 1151,
      "marketdan": 1152,
      "koz": 1153,
      "es": 1154,
      "fet": 1155,
      "kruto": 1156,
      "massa": 1157,
      "zaryadka": 1158,
      "og": 1159,
      "zv": 1160,
      "yulduz": 1161,
      "ich": 1162,
      "orqa": 1163,
      "joyida": 1164,
      "lati": 1165,
      "kemadi": 1166,
      "kursa": 1167,
      "foydasi": 1168,
      "ichidan": 1169,
      "bowqa": 1170,
      "qina": 1171,
      "olma": 1172,
      "db": 1173,
      "ishlamay": 1174,
      "baland": 1175,
      "unaqa": 1176,
      "rasvo": 1177,
      "ii": 1178,
      "ketadi": 1179,
      "qalin": 1180,
      "mato": 1181,
      "kerakli": 1182,
      "olmadim": 1183,
      "qili": 1184,
      "rasa": 1185,
      "tasha": 1186,
      "qizi": 1187,
      "muammo": 1188,
      "hid": 1189,
      "udob": 1190,
      "bormi": 1191,
      "stan": 1192,
      "sti": 1193,
      "zal": 1194,
      "nun": 1195,
      "natija": 1196,
      "ux": 1197,
      "uzun": 1198,
      "gich": 1199,
      "gu": 1200,
      "isi": 1201,
      "ide": 1202,
      "ishni": 1203,
      "tomoni": 1204,
      "ota": 1205,
      "tga": 1206,
      "tovarni": 1207,
      "mazali": 1208,
      "mayda": 1209,
      "bolardi": 1210,
      "uzilib": 1211,
      "dib": 1212,
      "mamnun": 1213,
      "ee": 1214,
      "xursandman": 1215,
      "musta": 1216,
      "krem": 1217,
      "harid": 1218,
      "judaham": 1219,
      "chikdi": 1220,
      "qar": 1221,
      "kod": 1222,
      "foydali": 1223,
      "shirin": 1224,
      "ishlaydi": 1225,
      "ketarkan": 1226,
      "yokmadi": 1227,
      "kuni": 1228,
      "qopqo": 1229,
      "ishlangan": 1230,
      "tol": 1231,
      "gayam": 1232,
      "bermiman": 1233,
      "ola": 1234,
      "sek": 1235,
      "chunki": 1236,
      "tiri": 1237,
      "turarkan": 1238,
      "nozik": 1239,
      "ishlash": 1240,
      "bozordan": 1241,
      "sla": 1242,
      "beradi": 1243,
      "ang": 1244,
      "uzoq": 1245,
      "lon": 1246,
      "vawe": 1247,
      "ishlati": 1248,
      "komp": 1249,
      "daxshat": 1250,
      "sida": 1251,
      "undan": 1252,
      "boladimi": 1253,
      "kul": 1254,
      "qattiq": 1255,
      "50": 1256,
      "rasmdagidan": 1257,
      "oyinchoq": 1258,
      "sovgaga": 1259,
      "xozir": 1260,
      "shok": 1261,
      "qildi": 1262,
      "metr": 1263,
      "yilgan": 1264,
      "lanib": 1265,
      "arzimidi": 1266,
      "vol": 1267,
      "degan": 1268,
      "but": 1269,
      "11": 1270,
      "imdan": 1271,
      "ishlashiga": 1272,
      "effekti": 1273,
      "saba": 1274,
      "stoy": 1275,
      "sof": 1276,
      "sil": 1277,
      "ekran": 1278,
      "oynak": 1279,
      "ideal": 1280,
      "mati": 1281,
      "qiladi": 1282,
      "lariyam": 1283,
      "lim": 1284,
      "jona": 1285,
      "umi": 1286,
      "yer": 1287,
      "telefonga": 1288,
      "rakan": 1289,
      "afsuslan": 1290,
      "xodimlariga": 1291,
      "ishlatsa": 1292,
      "doq": 1293,
      "baho": 1294,
      "judaxam": 1295,
      "hidiga": 1296,
      "ikkin": 1297,
      "kichikroq": 1298,
      "fo": 1299,
      "nis": 1300,
      "ganimdek": 1301,
      "oglimga": 1302,
      "berdim": 1303,
      "tibdi": 1304,
      "ginali": 1305,
      "turibdi": 1306,
      "ishdi": 1307,
      "raxmet": 1308,
      "br": 1309,
      "ochen": 1310,
      "kus": 1311,
      "vet": 1312,
      "tushun": 1313,
      "korib": 1314,
      "ilgan": 1315,
      "mart": 1316,
      "olishga": 1317,
      "sm": 1318,
      "nam": 1319,
      "wa": 1320,
      "berishi": 1321,
      "siy": 1322,
      "tira": 1323,
      "ogan": 1324,
      "sz": 1325,
      "larin": 1326,
      "qoladi": 1327,
      "bejir": 1328,
      "dab": 1329,
      "kutgan": 1330,
      "lasi": 1331,
      "pr": 1332,
      "tezda": 1333,
      "ikkinchi": 1334,
      "bejirim": 1335,
      "shka": 1336,
      "ovoldim": 1337,
      "ishlatishga": 1338,
      "zakazim": 1339,
      "nisbat": 1340,
      "zoo": 1341,
      "kimga": 1342,
      "mudda": 1343,
      "sangiz": 1344,
      "quy": 1345,
      "quvvat": 1346,
      "30": 1347,
      "pka": 1348,
      "bulishi": 1349,
      "batarey": 1350,
      "yal": 1351,
      "qiyin": 1352,
      "kopro": 1353,
      "sak": 1354,
      "narsani": 1355,
      "nisbatan": 1356,
      "gur": 1357,
      "osh": 1358,
      "ogri": 1359,
      "bilmadim": 1360,
      "chiqib": 1361,
      "safar": 1362,
      "soz": 1363,
      "tezkor": 1364,
      "gim": 1365,
      "very": 1366,
      "eka": 1367,
      "bolsin": 1368,
      "kecha": 1369,
      "oludim": 1370,
      "bulsa": 1371,
      "xamyon": 1372,
      "telefoni": 1373,
      "yoni": 1374,
      "telefonni": 1375,
      "sfati": 1376,
      "kunga": 1377,
      "juddayam": 1378,
      "yupqa": 1379,
      "kina": 1380,
      "mdan": 1381,
      "zam": 1382,
      "uyga": 1383,
      "agar": 1384,
      "siniq": 1385,
      "smart": 1386,
      "chilik": 1387,
      "toldi": 1388,
      "vkus": 1389,
      "uzim": 1390,
      "buzu": 1391,
      "xech": 1392,
      "qizim": 1393,
      "vat": 1394,
      "ishlayabdi": 1395,
      "shunday": 1396,
      "delka": 1397,
      "boldim": 1398,
      "tab": 1399,
      "tushib": 1400,
      "tarkan": 1401,
      "idish": 1402,
      "gozal": 1403,
      "mera": 1404,
      "aso": 1405,
      "kormadim": 1406,
      "aylan": 1407,
      "yahwi": 1408,
      "rib": 1409,
      "olcham": 1410,
      "onam": 1411,
      "rangidan": 1412,
      "tinga": 1413,
      "material": 1414,
      "bass": 1415,
      "alba": 1416,
      "olishi": 1417,
      "oylagan": 1418,
      "magandim": 1419,
      "lasa": 1420,
      "dala": 1421,
      "olganimga": 1422,
      "uzumdan": 1423,
      "vom": 1424,
      "hafta": 1425,
      "zoor": 1426,
      "plas": 1427,
      "mahsulotga": 1428,
      "konglim": 1429,
      "aj": 1430,
      "tok": 1431,
      "zaryadkasi": 1432,
      "magazin": 1433,
      "airpods": 1434,
      "tushmadi": 1435,
      "yori": 1436,
      "tufta": 1437,
      "vaktida": 1438,
      "medi": 1439,
      "mayin": 1440,
      "koy": 1441,
      "boshi": 1442,
      "kichkin": 1443,
      "ega": 1444,
      "fis": 1445,
      "pep": 1446,
      "bog": 1447,
      "albatta": 1448,
      "koldi": 1449,
      "mahsulo": 1450,
      "az": 1451,
      "minut": 1452,
      "aridim": 1453,
      "tarafi": 1454,
      "fect": 1455,
      "zvrat": 1456,
      "tuw": 1457,
      "ozini": 1458,
      "qoyil": 1459,
      "fut": 1460,
      "chok": 1461,
      "nan": 1462,
      "sr": 1463,
      "sig": 1464,
      "hodim": 1465,
      "ime": 1466,
      "qadoq": 1467,
      "toy": 1468,
      "uq": 1469,
      "dostavka": 1470,
      "bolarkan": 1471,
      "udi": 1472,
      "lkn": 1473,
      "hoh": 1474,
      "kattaroq": 1475,
      "the": 1476,
      "buz": 1477,
      "silaga": 1478,
      "oda": 1479,
      "ishlamas": 1480,
      "tori": 1481,
      "kamera": 1482,
      "yani": 1483,
      "bekor": 1484,
      "kk": 1485,
      "ishlavotti": 1486,
      "yemas": 1487,
      "pol": 1488,
      "bermadi": 1489,
      "hon": 1490,
      "ql": 1491,
      "chiqa": 1492,
      "zaryat": 1493,
      "ishilarga": 1494,
      "lishdi": 1495,
      "kimmat": 1496,
      "pla": 1497,
      "uje": 1498,
      "karta": 1499,
      "yotgan": 1500,
      "oylagandim": 1501,
      "aytilgan": 1502,
      "futbol": 1503,
      "larimni": 1504,
      "kabel": 1505,
      "toliq": 1506,
      "malum": 1507,
      "yarim": 1508,
      "thank": 1509,
      "ishlaringizga": 1510,
      "uvdim": 1511,
      "mamnunman": 1512,
      "shiq": 1513,
      "vash": 1514,
      "pulga": 1515,
      "dokon": 1516,
      "lip": 1517,
      "lini": 1518,
      "mushu": 1519,
      "aldab": 1520,
      "xl": 1521,
      "musor": 1522,
      "qog": 1523,
      "xidiga": 1524,
      "hozircha": 1525,
      "shampun": 1526,
      "avva": 1527,
      "tip": 1528,
      "maxsulo": 1529,
      "par": 1530,
      "1ta": 1531,
      "ksiya": 1532,
      "tda": 1533,
      "olmanglar": 1534,
      "laydi": 1535,
      "yozib": 1536,
      "minnat": 1537,
      "zorrr": 1538,
      "malo": 1539,
      "xolatda": 1540,
      "yordam": 1541,
      "oila": 1542,
      "chiqti": 1543,
      "rostan": 1544,
      "ranglari": 1545,
      "yabti": 1546,
      "zurakan": 1547,
      "sir": 1548,
      "ker": 1549,
      "garan": 1550,
      "oldm": 1551,
      "ichidagi": 1552,
      "fun": 1553,
      "omi": 1554,
      "boy": 1555,
      "omela": 1556,
      "rasmdegi": 1557,
      "xida": 1558,
      "bergandim": 1559,
      "eski": 1560,
      "vse": 1561,
      "minnatdor": 1562,
      "ln": 1563,
      "щe": 1564,
      "deyilgan": 1565,
      "nej": 1566,
      "gni": 1567,
      "aniq": 1568,
      "ken": 1569,
      "lardim": 1570,
      "ishda": 1571,
      "bilin": 1572,
      "qoyib": 1573,
      "ser": 1574,
      "olganimdan": 1575,
      "qoniq": 1576,
      "koni": 1577,
      "udar": 1578,
      "vizor": 1579,
      "usti": 1580,
      "zon": 1581,
      "lak": 1582,
      "kic": 1583,
      "sina": 1584,
      "kech": 1585,
      "rilgan": 1586,
      "olila": 1587,
      "idek": 1588,
      "xona": 1589,
      "mana": 1590,
      "talab": 1591,
      "shunga": 1592,
      "sotuv": 1593,
      "butun": 1594,
      "para": 1595,
      "sela": 1596,
      "ruch": 1597,
      "mang": 1598,
      "qb": 1599,
      "haqiqat": 1600,
      "qolyapti": 1601,
      "holda": 1602,
      "asosiy": 1603,
      "dayam": 1604,
      "dabdala": 1605,
      "sob": 1606,
      "korsat": 1607,
      "mur": 1608,
      "oladi": 1609,
      "yumshok": 1610,
      "yasi": 1611,
      "zorr": 1612,
      "aytgan": 1613,
      "ishonchli": 1614,
      "lariz": 1615,
      "yni": 1616,
      "aloxida": 1617,
      "reklama": 1618,
      "mustah": 1619,
      "qilishi": 1620,
      "maskan": 1621,
      "ozidan": 1622,
      "tanlov": 1623,
      "ladim": 1624,
      "keti": 1625,
      "imda": 1626,
      "mini": 1627,
      "stva": 1628,
      "musr": 1629,
      "bolmadi": 1630,
      "sekin": 1631,
      "mustahkam": 1632,
      "taq": 1633,
      "zakazimni": 1634,
      "razmerga": 1635,
      "kutkan": 1636,
      "vide": 1637,
      "koproq": 1638,
      "pulimga": 1639,
      "vashshe": 1640,
      "bra": 1641,
      "dur": 1642,
      "ss": 1643,
      "sib": 1644,
      "effekt": 1645,
      "raman": 1646,
      "oqib": 1647,
      "red": 1648,
      "vkusno": 1649,
      "qotib": 1650,
      "pax": 1651,
      "you": 1652,
      "som": 1653,
      "kota": 1654,
      "qoya": 1655,
      "ishli": 1656,
      "yetadi": 1657,
      "narsalar": 1658,
      "lashi": 1659,
      "shik": 1660,
      "ishlata": 1661,
      "qolarkan": 1662,
      "minga": 1663,
      "sotuvchilarga": 1664,
      "mumkinmas": 1665,
      "mazasi": 1666,
      "ug": 1667,
      "uk": 1668,
      "buyurtmamni": 1669,
      "ullas": 1670,
      "eken": 1671,
      "etiborli": 1672,
      "garanti": 1673,
      "kno": 1674,
      "lardi": 1675,
      "ishlama": 1676,
      "baxo": 1677,
      "qoydim": 1678,
      "mumkun": 1679,
      "qoray": 1680,
      "kak": 1681,
      "ishlatilgan": 1682,
      "sar": 1683,
      "xal": 1684,
      "ladimi": 1685,
      "ishlamayabdi": 1686,
      "otkir": 1687,
      "tugab": 1688,
      "xoxlagan": 1689,
      "choy": 1690,
      "chida": 1691,
      "tug": 1692,
      "mok": 1693,
      "maxsulotga": 1694,
      "iwlat": 1695,
      "sk": 1696,
      "tilayman": 1697,
      "tagi": 1698,
      "gandi": 1699,
      "teg": 1700,
      "sev": 1701,
      "normal": 1702,
      "charcham": 1703,
      "paket": 1704,
      "40": 1705,
      "alish": 1706,
      "chon": 1707,
      "silar": 1708,
      "gel": 1709,
      "yib": 1710,
      "mashina": 1711,
      "tomon": 1712,
      "der": 1713,
      "farzan": 1714,
      "muro": 1715,
      "qolimga": 1716,
      "rangli": 1717,
      "tanlagan": 1718,
      "digi": 1719,
      "olmadi": 1720,
      "sog": 1721,
      "olishim": 1722,
      "aynan": 1723,
      "iy": 1724,
      "yeken": 1725,
      "ty": 1726,
      "ten": 1727,
      "biza": 1728,
      "achin": 1729,
      "uchib": 1730,
      "malumot": 1731,
      "gakan": 1732,
      "manda": 1733,
      "ganimga": 1734,
      "savdo": 1735,
      "jat": 1736,
      "ton": 1737,
      "kutib": 1738,
      "havo": 1739,
      "kutganimdanam": 1740,
      "orniga": 1741,
      "shadi": 1742,
      "rez": 1743,
      "televizor": 1744,
      "boshida": 1745,
      "asosiysi": 1746,
      "eto": 1747,
      "ler": 1748,
      "mm": 1749,
      "dog": 1750,
      "sovg": 1751,
      "qaz": 1752,
      "kundan": 1753,
      "kizimga": 1754,
      "pepsi": 1755,
      "ven": 1756,
      "laring": 1757,
      "ishlavoti": 1758,
      "sovka": 1759,
      "kurdim": 1760,
      "rar": 1761,
      "gilo": 1762,
      "tog": 1763,
      "qizib": 1764,
      "ochilgan": 1765,
      "dizayn": 1766,
      "karobka": 1767,
      "kurat": 1768,
      "zildi": 1769,
      "1kunda": 1770,
      "pulini": 1771,
      "farq": 1772,
      "rangini": 1773,
      "sabab": 1774,
      "poq": 1775,
      "mak": 1776,
      "olsa": 1777,
      "chegir": 1778,
      "kurinishi": 1779,
      "bolgan": 1780,
      "plast": 1781,
      "efek": 1782,
      "tni": 1783,
      "usb": 1784,
      "qilingan": 1785,
      "bur": 1786,
      "jmi": 1787,
      "joni": 1788,
      "bervor": 1789,
      "kildim": 1790,
      "yolgon": 1791,
      "avval": 1792,
      "sya": 1793,
      "buyum": 1794,
      "kok": 1795,
      "narsasi": 1796,
      "sfatli": 1797,
      "turdi": 1798,
      "yumshoqqina": 1799,
      "ikkita": 1800,
      "ogandim": 1801,
      "yaxsh": 1802,
      "berildi": 1803,
      "xozircha": 1804,
      "23": 1805,
      "kalon": 1806,
      "yaxw": 1807,
      "adash": 1808,
      "nma": 1809,
      "kotar": 1810,
      "qayta": 1811,
      "kaytarib": 1812,
      "matosi": 1813,
      "funksiya": 1814,
      "av": 1815,
      "gram": 1816,
      "amiz": 1817,
      "lok": 1818,
      "xid": 1819,
      "ichiga": 1820,
      "xato": 1821,
      "yotibdi": 1822,
      "tay": 1823,
      "biri": 1824,
      "farzandim": 1825,
      "shundan": 1826,
      "bunday": 1827,
      "futbolka": 1828,
      "xush": 1829,
      "daz": 1830,
      "lida": 1831,
      "shikar": 1832,
      "tam": 1833,
      "jal": 1834,
      "oka": 1835,
      "perfect": 1836,
      "kelibdi": 1837,
      "fka": 1838,
      "yaroq": 1839,
      "choynak": 1840,
      "mik": 1841,
      "noqulay": 1842,
      "yetka": 1843,
      "jiyan": 1844,
      "kalta": 1845,
      "niki": 1846,
      "sochi": 1847,
      "len": 1848,
      "daka": 1849,
      "qismi": 1850,
      "yoqadi": 1851,
      "bulib": 1852,
      "buyurtmam": 1853,
      "ushla": 1854,
      "shiga": 1855,
      "arginal": 1856,
      "chet": 1857,
      "kilish": 1858,
      "qot": 1859,
      "tikilgan": 1860,
      "beril": 1861,
      "nasa": 1862,
      "0000": 1863,
      "promo": 1864,
      "uylaganimdan": 1865,
      "co": 1866,
      "ldi": 1867,
      "udm": 1868,
      "narsam": 1869,
      "anchadan": 1870,
      "55": 1871,
      "buk": 1872,
      "muh": 1873,
      "hidiyam": 1874,
      "moqda": 1875,
      "tov": 1876,
      "ah": 1877,
      "ax": 1878,
      "sve": 1879,
      "mcha": 1880,
      "uglimga": 1881,
      "kiya": 1882,
      "farzand": 1883,
      "chap": 1884,
      "taro": 1885,
      "ozgar": 1886,
      "azgina": 1887,
      "chegirma": 1888,
      "25": 1889,
      "asal": 1890,
      "omadi": 1891,
      "xaridim": 1892,
      "raxmad": 1893,
      "miydi": 1894,
      "qilsam": 1895,
      "ligiga": 1896,
      "yomonmas": 1897,
      "hone": 1898,
      "14": 1899,
      "umm": 1900,
      "ishlataman": 1901,
      "rassa": 1902,
      "qarab": 1903,
      "massaj": 1904,
      "miy": 1905,
      "18": 1906,
      "ogir": 1907,
      "otkaz": 1908,
      "nafis": 1909,
      "doimgi": 1910,
      "bank": 1911,
      "fle": 1912,
      "ingiz": 1913,
      "niya": 1914,
      "ollo": 1915,
      "pad": 1916,
      "xizmati": 1917,
      "karobkasi": 1918,
      "yuzimga": 1919,
      "if": 1920,
      "qogan": 1921,
      "borib": 1922,
      "melar": 1923,
      "kley": 1924,
      "rarkan": 1925,
      "inter": 1926,
      "narhiga": 1927,
      "qdi": 1928,
      "shunaka": 1929,
      "ishlatdim": 1930,
      "buzuq": 1931,
      "atak": 1932,
      "xoh": 1933,
      "batare": 1934,
      "komplek": 1935,
      "kla": 1936,
      "danam": 1937,
      "soatni": 1938,
      "pra": 1939,
      "uyin": 1940,
      "shov": 1941,
      "kanday": 1942,
      "qaraganda": 1943,
      "ummuman": 1944,
      "bomidi": 1945,
      "bolajon": 1946,
      "chidam": 1947,
      "moshina": 1948,
      "mayli": 1949,
      "ozimga": 1950,
      "iga": 1951,
      "tiradi": 1952,
      "maska": 1953,
      "barib": 1954,
      "oyiq": 1955,
      "oglim": 1956,
      "pishi": 1957,
      "yaxshiroq": 1958,
      "saq": 1959,
      "svet": 1960,
      "olmayapti": 1961,
      "mir": 1962,
      "voob": 1963,
      "rasmdaka": 1964,
      "vori": 1965,
      "wer": 1966,
      "tilib": 1967,
      "net": 1968,
      "dazmol": 1969,
      "mikra": 1970,
      "rosayam": 1971,
      "xorosho": 1972,
      "zooor": 1973,
      "xamyonbop": 1974,
      "kipri": 1975,
      "rogi": 1976,
      "bering": 1977,
      "musur": 1978,
      "pulim": 1979,
      "ikka": 1980,
      "ap": 1981,
      "real": 1982,
      "togrisi": 1983,
      "oqi": 1984,
      "tal": 1985,
      "toq": 1986,
      "merka": 1987,
      "ishlaringa": 1988,
      "imei": 1989,
      "nejniy": 1990,
      "ishchi": 1991,
      "berilgan": 1992,
      "afsuski": 1993,
      "punk": 1994,
      "gra": 1995,
      "lami": 1996,
      "imcha": 1997,
      "borakan": 1998,
      "olinglar": 1999,
      "dra": 2000,
      "quti": 2001,
      "kkur": 2002,
      "lka": 2003,
      "yogi": 2004,
      "barchaga": 2005,
      "loyiq": 2006,
      "sun": 2007,
      "vozvrat": 2008,
      "nabor": 2009,
      "yuqori": 2010,
      "voman": 2011,
      "likni": 2012,
      "tanla": 2013,
      "lashga": 2014,
      "ishlashlari": 2015,
      "baribir": 2016,
      "sari": 2017,
      "shti": 2018,
      "kelishi": 2019,
      "lot": 2020,
      "beli": 2021,
      "mazzali": 2022,
      "tashakkur": 2023,
      "qlaman": 2024,
      "tokilib": 2025,
      "joz": 2026,
      "lmagan": 2027,
      "tri": 2028,
      "insof": 2029,
      "hamda": 2030,
      "kuchli": 2031,
      "yuzni": 2032,
      "yashi": 2033,
      "hiz": 2034,
      "ligidan": 2035,
      "barakali": 2036,
      "cho": 2037,
      "turib": 2038,
      "tas": 2039,
      "oqar": 2040,
      "13": 2041,
      "sora": 2042,
      "lada": 2043,
      "zak": 2044,
      "ishin": 2045,
      "ting": 2046,
      "pam": 2047,
      "shek": 2048,
      "yaqin": 2049,
      "jud": 2050,
      "kura": 2051,
      "kiyib": 2052,
      "kopi": 2053,
      "qopqogi": 2054,
      "qim": 2055,
      "qila": 2056,
      "linglar": 2057,
      "dr": 2058,
      "yoo": 2059,
      "oydan": 2060,
      "ayni": 2061,
      "sovun": 2062,
      "yabman": 2063,
      "ex": 2064,
      "solib": 2065,
      "qancha": 2066,
      "ikkilan": 2067,
      "bozorda": 2068,
      "blu": 2069,
      "udobniy": 2070,
      "qolib": 2071,
      "ciroyli": 2072,
      "qidir": 2073,
      "nice": 2074,
      "ishlatma": 2075,
      "narmal": 2076,
      "rov": 2077,
      "olganda": 2078,
      "soatda": 2079,
      "masu": 2080,
      "power": 2081,
      "bittada": 2082,
      "upakovkasi": 2083,
      "iphone": 2084,
      "mokchi": 2085,
      "chidamli": 2086,
      "sos": 2087,
      "ketyapti": 2088,
      "maslaha": 2089,
      "tekis": 2090,
      "tasir": 2091,
      "idishi": 2092,
      "fir": 2093,
      "him": 2094,
      "nadi": 2095,
      "aloqa": 2096,
      "litr": 2097,
      "ekanu": 2098,
      "bon": 2099,
      "olilar": 2100,
      "ayr": 2101,
      "wu": 2102,
      "olmas": 2103,
      "otzi": 2104,
      "miga": 2105,
      "maydigan": 2106,
      "tirish": 2107,
      "hamyonbob": 2108,
      "qimi": 2109,
      "usha": 2110,
      "raq": 2111,
      "teli": 2112,
      "yapmiz": 2113,
      "berarkan": 2114,
      "chan": 2115,
      "zori": 2116,
      "qon": 2117,
      "urtacha": 2118,
      "kattagina": 2119,
      "his": 2120,
      "yator": 2121,
      "hodimlariga": 2122,
      "xu": 2123,
      "magni": 2124,
      "chini": 2125,
      "juna": 2126,
      "ishlarkan": 2127,
      "uyda": 2128,
      "haqiqiy": 2129,
      "etu": 2130,
      "tv": 2131,
      "yozuv": 2132,
      "maslahatim": 2133,
      "kr": 2134,
      "manimcha": 2135,
      "sota": 2136,
      "laridan": 2137,
      "uxsha": 2138,
      "kg": 2139,
      "ura": 2140,
      "olsam": 2141,
      "qizil": 2142,
      "qalam": 2143,
      "buzildi": 2144,
      "sinab": 2145,
      "kara": 2146,
      "qoli": 2147,
      "taraf": 2148,
      "el": 2149,
      "kras": 2150,
      "xullas": 2151,
      "orna": 2152,
      "ajoyip": 2153,
      "yurishga": 2154,
      "ushbu": 2155,
      "telfon": 2156,
      "oling": 2157,
      "kuz": 2158,
      "madm": 2159,
      "mashin": 2160,
      "sizga": 2161,
      "best": 2162,
      "shimcha": 2163,
      "45": 2164,
      "fan": 2165,
      "biy": 2166,
      "sovgasi": 2167,
      "batareyka": 2168,
      "gilof": 2169,
      "uc": 2170,
      "wat": 2171,
      "unadi": 2172,
      "xira": 2173,
      "xitoy": 2174,
      "kilgandim": 2175,
      "dizayni": 2176,
      "essiz": 2177,
      "tika": 2178,
      "ishlatyapman": 2179,
      "por": 2180,
      "suyuq": 2181,
      "menda": 2182,
      "bay": 2183,
      "padar": 2184,
      "rezin": 2185,
      "16": 2186,
      "bman": 2187,
      "ili": 2188,
      "soqol": 2189,
      "kutilgan": 2190,
      "chiqari": 2191,
      "sizlardan": 2192,
      "mala": 2193,
      "ketib": 2194,
      "kilishi": 2195,
      "hajmi": 2196,
      "tolov": 2197,
      "boglan": 2198,
      "oh": 2199,
      "bos": 2200,
      "oth": 2201,
      "otka": 2202,
      "sotish": 2203,
      "mijoz": 2204,
      "hatto": 2205,
      "video": 2206,
      "uj": 2207,
      "imkoni": 2208,
      "oziga": 2209,
      "qogoz": 2210,
      "ruchka": 2211,
      "garantiya": 2212,
      "otziv": 2213,
      "shdi": 2214,
      "soa": 2215,
      "superrr": 2216,
      "elek": 2217,
      "idan": 2218,
      "diy": 2219,
      "chek": 2220,
      "qigandim": 2221,
      "hil": 2222,
      "kurin": 2223,
      "teri": 2224,
      "urmat": 2225,
      "lingan": 2226,
      "karop": 2227,
      "suvga": 2228,
      "fen": 2229,
      "joylari": 2230,
      "24": 2231,
      "ach": 2232,
      "ong": 2233,
      "originali": 2234,
      "rasimda": 2235,
      "menimcha": 2236,
      "iwi": 2237,
      "mda": 2238,
      "bita": 2239,
      "ustiga": 2240,
      "mingga": 2241,
      "boyi": 2242,
      "zilgan": 2243,
      "sizlarmi": 2244,
      "onamga": 2245,
      "plastik": 2246,
      "muhimi": 2247,
      "birga": 2248,
      "kickina": 2249,
      "yaroqsiz": 2250,
      "tt": 2251,
      "zer": 2252,
      "olmay": 2253,
      "uzumda": 2254,
      "oooo": 2255,
      "redmi": 2256,
      "olmaydi": 2257,
      "qolaman": 2258,
      "bolalarga": 2259,
      "negadir": 2260,
      "fik": 2261,
      "gimga": 2262,
      "liga": 2263,
      "bazi": 2264,
      "bunaka": 2265,
      "kutganimdanda": 2266,
      "termos": 2267,
      "dastavka": 2268,
      "ishgan": 2269,
      "soti": 2270,
      "martta": 2271,
      "konfet": 2272,
      "ling": 2273,
      "yulduzcha": 2274,
      "kursatilgan": 2275,
      "plastmassa": 2276,
      "pon": 2277,
      "tti": 2278,
      "galati": 2279,
      "kichkinar": 2280,
      "qorayib": 2281,
      "ladigan": 2282,
      "xidiyam": 2283,
      "kabeli": 2284,
      "raxma": 2285,
      "xolda": 2286,
      "promokod": 2287,
      "oya": 2288,
      "ula": 2289,
      "wo": 2290,
      "organ": 2291,
      "chikmadi": 2292,
      "mikro": 2293,
      "90": 2294,
      "kl": 2295,
      "otib": 2296,
      "qirilgan": 2297,
      "ozida": 2298,
      "salfet": 2299,
      "quvvati": 2300,
      "ble": 2301,
      "plan": 2302,
      "pers": 2303,
      "qolamiz": 2304,
      "ganiga": 2305,
      "sochni": 2306,
      "kuyib": 2307,
      "minnatdorman": 2308,
      "chidasa": 2309,
      "bizaga": 2310,
      "shikarno": 2311,
      "mish": 2312,
      "qoshib": 2313,
      "xolos": 2314,
      "chang": 2315,
      "nim": 2316,
      "sayam": 2317,
      "jaq": 2318,
      "qoydi": 2319,
      "priyat": 2320,
      "rasimdagi": 2321,
      "orqali": 2322,
      "ska": 2323,
      "lah": 2324,
      "bulgan": 2325,
      "narh": 2326,
      "qaytib": 2327,
      "boshqalarga": 2328,
      "bunga": 2329,
      "ayol": 2330,
      "ban": 2331,
      "daman": 2332,
      "vaw": 2333,
      "ketar": 2334,
      "aslida": 2335,
      "deyar": 2336,
      "sep": 2337,
      "turi": 2338,
      "buzi": 2339,
      "erta": 2340,
      "koramiz": 2341,
      "rasmdagiday": 2342,
      "ganidan": 2343,
      "korsatish": 2344,
      "maq": 2345,
      "surat": 2346,
      "sifatida": 2347,
      "zirak": 2348,
      "qilsa": 2349,
      "narxlari": 2350,
      "qoniqar": 2351,
      "daje": 2352,
      "qilarkan": 2353,
      "aaa": 2354,
      "sung": 2355,
      "deyarli": 2356,
      "ayo": 2357,
      "buy": 2358,
      "kamchilik": 2359,
      "keyn": 2360,
      "qip": 2361,
      "mida": 2362,
      "xaridor": 2363,
      "ishlatishni": 2364,
      "poro": 2365,
      "chiroq": 2366,
      "somga": 2367,
      "narxini": 2368,
      "17": 2369,
      "sme": 2370,
      "ulab": 2371,
      "mav": 2372,
      "lig": 2373,
      "yoqim": 2374,
      "oylab": 2375,
      "arzimas": 2376,
      "belgi": 2377,
      "urmatli": 2378,
      "3ta": 2379,
      "tra": 2380,
      "bez": 2381,
      "mey": 2382,
      "qaytarmoqchiman": 2383,
      "balki": 2384,
      "chiqadi": 2385,
      "jaqsi": 2386,
      "nol": 2387,
      "chroyli": 2388,
      "kegin": 2389,
      "berila": 2390,
      "norozi": 2391,
      "olchami": 2392,
      "hal": 2393,
      "zan": 2394,
      "silarga": 2395,
      "temir": 2396,
      "ishlatgan": 2397,
      "vomman": 2398,
      "murojat": 2399,
      "yom": 2400,
      "ingi": 2401,
      "bermaydi": 2402,
      "assaloma": 2403,
      "sfat": 2404,
      "thanks": 2405,
      "shovqin": 2406,
      "99": 2407,
      "xkam": 2408,
      "chalik": 2409,
      "muoma": 2410,
      "kurib": 2411,
      "poddelka": 2412,
      "adashib": 2413,
      "voobщe": 2414,
      "buzilib": 2415,
      "pan": 2416,
      "shiy": 2417,
      "nomer": 2418,
      "batareka": 2419,
      "servi": 2420,
      "60": 2421,
      "tili": 2422,
      "sifatga": 2423,
      "dep": 2424,
      "marketda": 2425,
      "moshin": 2426,
      "izdan": 2427,
      "yuzga": 2428,
      "avto": 2429,
      "planshe": 2430,
      "qimat": 2431,
      "oylaganimdek": 2432,
      "batareykasi": 2433,
      "vari": 2434,
      "ishlami": 2435,
      "nout": 2436,
      "qayer": 2437,
      "qani": 2438,
      "topila": 2439,
      "krasi": 2440,
      "kalonka": 2441,
      "zni": 2442,
      "arzim": 2443,
      "rangiyam": 2444,
      "ilova": 2445,
      "dgan": 2446,
      "ful": 2447,
      "kib": 2448,
      "oc": 2449,
      "key": 2450,
      "tosh": 2451,
      "hisob": 2452,
      "kunglim": 2453,
      "lagandek": 2454,
      "olganimda": 2455,
      "pampers": 2456,
      "skiy": 2457,
      "ladan": 2458,
      "kelarkan": 2459,
      "musi": 2460,
      "qoyilgan": 2461,
      "yekti": 2462,
      "bilma": 2463,
      "song": 2464,
      "tushunmadim": 2465,
      "smartfon": 2466,
      "kiprik": 2467,
      "com": 2468,
      "ekanda": 2469,
      "kich": 2470,
      "tola": 2471,
      "chiroylik": 2472,
      "razmerini": 2473,
      "zaryadkaga": 2474,
      "xaqi": 2475,
      "ixchamgina": 2476,
      "mustaxkam": 2477,
      "chozi": 2478,
      "say": 2479,
      "qoldir": 2480,
      "ratsiya": 2481,
      "hursandman": 2482,
      "sezmadim": 2483,
      "haqiqatdan": 2484,
      "blueto": 2485,
      "nur": 2486,
      "siyam": 2487,
      "like": 2488,
      "tiyot": 2489,
      "madik": 2490,
      "mahsulotlar": 2491,
      "jak": 2492,
      "qiludim": 2493,
      "edik": 2494,
      "maxsuloti": 2495,
      "olamiz": 2496,
      "oyga": 2497,
      "pudra": 2498,
      "jonat": 2499,
      "parashok": 2500,
      "vawwe": 2501,
      "gen": 2502,
      "ida": 2503,
      "wga": 2504,
      "archa": 2505,
      "buladimi": 2506,
      "zalo": 2507,
      "kuchi": 2508,
      "bolalarim": 2509,
      "qopqoq": 2510,
      "sababi": 2511,
      "den": 2512,
      "yakan": 2513,
      "tabi": 2514,
      "yuter": 2515,
      "kongil": 2516,
      "qulogi": 2517,
      "konglimdagidek": 2518,
      "mahsuloti": 2519,
      "plo": 2520,
      "qoldim": 2521,
      "qari": 2522,
      "simi": 2523,
      "yaxshimi": 2524,
      "mizga": 2525,
      "maysiz": 2526,
      "krasof": 2527,
      "quruq": 2528,
      "its": 2529,
      "doimgidek": 2530,
      "ujas": 2531,
      "masin": 2532,
      "tag": 2533,
      "unga": 2534,
      "yetarkan": 2535,
      "shuning": 2536,
      "xoxla": 2537,
      "pl": 2538,
      "inga": 2539,
      "gichi": 2540,
      "uuuu": 2541,
      "knopka": 2542,
      "charchaman": 2543,
      "poma": 2544,
      "maro": 2545,
      "yali": 2546,
      "beringlar": 2547,
      "yut": 2548,
      "defek": 2549,
      "ista": 2550,
      "farqi": 2551,
      "rivojini": 2552,
      "xodimlari": 2553,
      "poroshok": 2554,
      "bluetooth": 2555,
      "chu": 2556,
      "qachon": 2557,
      "ochilib": 2558,
      "kli": 2559,
      "dasta": 2560,
      "tiv": 2561,
      "rasmga": 2562,
      "sovetu": 2563,
      "xaridimdan": 2564,
      "fleshka": 2565,
      "makul": 2566,
      "dav": 2567,
      "shisha": 2568,
      "olmagan": 2569,
      "stek": 2570,
      "yirtilgan": 2571,
      "bti": 2572,
      "ly": 2573,
      "sif": 2574,
      "tiyn": 2575,
      "kis": 2576,
      "kodi": 2577,
      "xafa": 2578,
      "rangda": 2579,
      "yopil": 2580,
      "haqida": 2581,
      "ponra": 2582,
      "arzimedi": 2583,
      "kadan": 2584,
      "qilamiz": 2585,
      "yaxwikan": 2586,
      "yuborishi": 2587,
      "rossayam": 2588,
      "hizmat": 2589,
      "gr": 2590,
      "od": 2591,
      "wunaqa": 2592,
      "tiy": 2593,
      "ami": 2594,
      "oyim": 2595,
      "ovozlari": 2596,
      "ishlaring": 2597,
      "aja": 2598,
      "tat": 2599,
      "bomadi": 2600,
      "yetar": 2601,
      "kichkinagina": 2602,
      "ochki": 2603,
      "issik": 2604,
      "yoshli": 2605,
      "oxi": 2606,
      "ochiq": 2607,
      "tax": 2608,
      "ishdan": 2609,
      "ishoni": 2610,
      "ishlayapdi": 2611,
      "bolmas": 2612,
      "tirdi": 2613,
      "berar": 2614,
      "arziydigan": 2615,
      "1010": 2616,
      "yuborib": 2617,
      "tozala": 2618,
      "rasimdagidek": 2619,
      "qilishim": 2620,
      "qimiman": 2621,
      "asalo": 2622,
      "gb": 2623,
      "omat": 2624,
      "vur": 2625,
      "toch": 2626,
      "buldim": 2627,
      "bulmaydi": 2628,
      "bulsin": 2629,
      "duyu": 2630,
      "kutganimday": 2631,
      "toldir": 2632,
      "choklari": 2633,
      "bb": 2634,
      "eh": 2635,
      "ml": 2636,
      "vib": 2637,
      "mapti": 2638,
      "mayapdi": 2639,
      "kabi": 2640,
      "end": 2641,
      "qoshimcha": 2642,
      "qolda": 2643,
      "yuzim": 2644,
      "yorug": 2645,
      "sovetuyu": 2646,
      "19": 2647,
      "aga": 2648,
      "bla": 2649,
      "of": 2650,
      "zilib": 2651,
      "muomi": 2652,
      "qildik": 2653,
      "oziyam": 2654,
      "foiz": 2655,
      "voy": 2656,
      "ykan": 2657,
      "qigan": 2658,
      "buli": 2659,
      "bulardi": 2660,
      "teshik": 2661,
      "kutmagandim": 2662,
      "35": 2663,
      "vchi": 2664,
      "pulimni": 2665,
      "bolgani": 2666,
      "tarif": 2667,
      "ishlatmadim": 2668,
      "steklo": 2669,
      "tezligi": 2670,
      "narxlar": 2671,
      "narmalni": 2672,
      "aloqaga": 2673,
      "39": 2674,
      "din": 2675,
      "lashib": 2676,
      "yaq": 2677,
      "vab": 2678,
      "sifatini": 2679,
      "larizga": 2680,
      "reme": 2681,
      "xavo": 2682,
      "tasiri": 2683,
      "taba": 2684,
      "kelmaydi": 2685,
      "tuk": 2686,
      "koraman": 2687,
      "let": 2688,
      "tarozi": 2689,
      "xafta": 2690,
      "kurmadim": 2691,
      "holati": 2692,
      "naushnikni": 2693,
      "tavarni": 2694,
      "tayyor": 2695,
      "34": 2696,
      "bum": 2697,
      "tsa": 2698,
      "xon": 2699,
      "kelishdi": 2700,
      "love": 2701,
      "sura": 2702,
      "gapyoq": 2703,
      "lagayam": 2704,
      "yengi": 2705,
      "oldingi": 2706,
      "barakasini": 2707,
      "qorq": 2708,
      "kutkanimdan": 2709,
      "mn": 2710,
      "sn": 2711,
      "ular": 2712,
      "orta": 2713,
      "ortiq": 2714,
      "keli": 2715,
      "oluvdim": 2716,
      "otmagan": 2717,
      "momi": 2718,
      "yetqaz": 2719,
      "iwlamadi": 2720,
      "pomada": 2721,
      "zza": 2722,
      "yedi": 2723,
      "yonmayapti": 2724,
      "uylagan": 2725,
      "suvni": 2726,
      "jamoasi": 2727,
      "mushuk": 2728,
      "keng": 2729,
      "bilindi": 2730,
      "ftar": 2731,
      "guz": 2732,
      "orginali": 2733,
      "ketibdi": 2734,
      "giya": 2735,
      "kamchi": 2736,
      "minus": 2737,
      "gul": 2738,
      "mada": 2739,
      "keta": 2740,
      "gaplash": 2741,
      "narsalari": 2742,
      "narsalarni": 2743,
      "maxsulotlar": 2744,
      "illi": 2745,
      "yonmadi": 2746,
      "tani": 2747,
      "rrrr": 2748,
      "iwlatib": 2749,
      "sfatiga": 2750,
      "oxshab": 2751,
      "omen": 2752,
      "kegan": 2753,
      "samsung": 2754,
      "qoysa": 2755,
      "berishga": 2756,
      "yarawa": 2757,
      "tiynga": 2758,
      "hush": 2759,
      "pen": 2760,
      "kace": 2761,
      "ishlariga": 2762,
      "uzimga": 2763,
      "rost": 2764,
      "desam": 2765,
      "pushti": 2766,
      "yanada": 2767,
      "pulti": 2768,
      "ingichka": 2769,
      "oganimga": 2770,
      "urniga": 2771,
      "vop": 2772,
      "kocha": 2773,
      "dostav": 2774,
      "podar": 2775,
      "unchali": 2776,
      "qolga": 2777,
      "oxshaydi": 2778,
      "ucun": 2779,
      "noroziman": 2780,
      "38": 2781,
      "don": 2782,
      "lu": 2783,
      "oji": 2784,
      "daftar": 2785,
      "kuydi": 2786,
      "zakazlarim": 2787,
      "qoygan": 2788,
      "naushniklar": 2789,
      "marotaba": 2790,
      "ara": 2791,
      "akurat": 2792,
      "muz": 2793,
      "kada": 2794,
      "chib": 2795,
      "kiyin": 2796,
      "det": 2797,
      "qozon": 2798,
      "yig": 2799,
      "pichoq": 2800,
      "notogri": 2801,
      "elektr": 2802,
      "shga": 2803,
      "davom": 2804,
      "oylik": 2805,
      "chalar": 2806,
      "inadi": 2807,
      "chiroylikan": 2808,
      "rasmi": 2809,
      "qaytara": 2810,
      "xaki": 2811,
      "ushlab": 2812,
      "yuvib": 2813,
      "charchamanglar": 2814,
      "eti": 2815,
      "gre": 2816,
      "sori": 2817,
      "uma": 2818,
      "lad": 2819,
      "ekanku": 2820,
      "chigi": 2821,
      "kiri": 2822,
      "kishiga": 2823,
      "birak": 2824,
      "narsalarim": 2825,
      "dovol": 2826,
      "zaryadchik": 2827,
      "ganidim": 2828,
      "uyna": 2829,
      "ooo": 2830,
      "oppoq": 2831,
      "yuvish": 2832,
      "yetkazildi": 2833,
      "varian": 2834,
      "2marta": 2835,
      "ad": 2836,
      "olardim": 2837,
      "uw": 2838,
      "uza": 2839,
      "tukilib": 2840,
      "qolar": 2841,
      "rasam": 2842,
      "ikkilanib": 2843,
      "isit": 2844,
      "kle": 2845,
      "kolgan": 2846,
      "ngizni": 2847,
      "tlari": 2848,
      "van": 2849,
      "tidan": 2850,
      "kafo": 2851,
      "kepti": 2852,
      "kanfet": 2853,
      "tegi": 2854,
      "beriw": 2855,
      "sovuq": 2856,
      "kopga": 2857,
      "iwlawi": 2858,
      "kizim": 2859,
      "savol": 2860,
      "almashtirsa": 2861,
      "uylagandim": 2862,
      "umidda": 2863,
      "batareya": 2864,
      "layapti": 2865,
      "kelgani": 2866,
      "solish": 2867,
      "bersam": 2868,
      "kutgandan": 2869,
      "qoyish": 2870,
      "upako": 2871,
      "yirtilib": 2872,
      "ekrani": 2873,
      "guncha": 2874,
      "jim": 2875,
      "mun": 2876,
      "xudo": 2877,
      "vazvrat": 2878,
      "joylash": 2879,
      "tugi": 2880,
      "rik": 2881,
      "anchaga": 2882,
      "krasota": 2883,
      "turar": 2884,
      "note": 2885,
      "kozoynak": 2886,
      "kompyuter": 2887,
      "paxta": 2888,
      "sariq": 2889,
      "telifon": 2890,
      "omelar": 2891,
      "pkasi": 2892,
      "olmoqchi": 2893,
      "bermoqchiman": 2894,
      "kofe": 2895,
      "dosh": 2896,
      "zaryadnik": 2897,
      "mazasiga": 2898,
      "rekomen": 2899,
      "guruch": 2900,
      "ajo": 2901,
      "salfetka": 2902,
      "jaksi": 2903,
      "fu": 2904,
      "he": 2905,
      "this": 2906,
      "chniy": 2907,
      "kali": 2908,
      "olo": 2909,
      "bomaydi": 2910,
      "shax": 2911,
      "bolamga": 2912,
      "bolajoni": 2913,
      "votdi": 2914,
      "klassno": 2915,
      "alishtirib": 2916,
      "ela": 2917,
      "ll": 2918,
      "yasa": 2919,
      "zorga": 2920,
      "sakan": 2921,
      "ishlamidi": 2922,
      "mush": 2923,
      "olishin": 2924,
      "zaryadlash": 2925,
      "turgan": 2926,
      "ganidek": 2927,
      "rator": 2928,
      "bildi": 2929,
      "boyicha": 2930,
      "sni": 2931,
      "voldim": 2932,
      "teshi": 2933,
      "ketmas": 2934,
      "bervori": 2935,
      "arzirkan": 2936,
      "ozroq": 2937,
      "olibman": 2938,
      "akkurat": 2939,
      "afsusdaman": 2940,
      "xatto": 2941,
      "noutbuk": 2942,
      "gor": 2943,
      "daqa": 2944,
      "inson": 2945,
      "ishlame": 2946,
      "bili": 2947,
      "otgan": 2948,
      "kottaro": 2949,
      "yorqin": 2950,
      "issiqqina": 2951,
      "bekorga": 2952,
      "rostanam": 2953,
      "farzandimga": 2954,
      "80": 2955,
      "id": 2956,
      "muzi": 2957,
      "pman": 2958,
      "xoli": 2959,
      "lif": 2960,
      "kap": 2961,
      "mening": 2962,
      "kupro": 2963,
      "nosoz": 2964,
      "kopir": 2965,
      "pult": 2966,
      "boshkacha": 2967,
      "uglim": 2968,
      "mabdi": 2969,
      "shlan": 2970,
      "bolish": 2971,
      "marketka": 2972,
      "korob": 2973,
      "narsaga": 2974,
      "parat": 2975,
      "tarok": 2976,
      "yetmadi": 2977,
      "chikar": 2978,
      "odamlarni": 2979,
      "kotakon": 2980,
      "olar": 2981,
      "amga": 2982,
      "chiz": 2983,
      "gist": 2984,
      "bular": 2985,
      "zapax": 2986,
      "xia": 2987,
      "musir": 2988,
      "quali": 2989,
      "korgan": 2990,
      "yurib": 2991,
      "bolam": 2992,
      "quri": 2993,
      "odamni": 2994,
      "qisqa": 2995,
      "ikkalasi": 2996,
      "22": 2997,
      "olarkan": 2998,
      "xursan": 2999,
      "tasav": 3000,
      "vau": 3001,
      "togir": 3002,
      "yokimli": 3003,
      "yanayam": 3004,
      "shekilli": 3005,
      "rekomenduyu": 3006,
      "au": 3007,
      "isha": 3008,
      "aldan": 3009,
      "baquvvat": 3010,
      "afsuslandim": 3011,
      "sotuvga": 3012,
      "bonus": 3013,
      "70": 3014,
      "zda": 3015,
      "yati": 3016,
      "kuch": 3017,
      "aldim": 3018,
      "wifi": 3019,
      "produ": 3020,
      "necha": 3021,
      "tishga": 3022,
      "krasovka": 3023,
      "muddati": 3024,
      "farzandlarim": 3025,
      "unda": 3026,
      "gapyo": 3027,
      "joyda": 3028,
      "birdan": 3029,
      "dirib": 3030,
      "kayfi": 3031,
      "ck": 3032,
      "otir": 3033,
      "sga": 3034,
      "shidi": 3035,
      "keyingi": 3036,
      "malen": 3037,
      "hohla": 3038,
      "stvasi": 3039,
      "ollox": 3040,
      "quality": 3041,
      "asi": 3042,
      "kros": 3043,
      "dip": 3044,
      "biram": 3045,
      "rahma": 3046,
      "zarar": 3047,
      "tushi": 3048,
      "bolmayapti": 3049,
      "bolmasa": 3050,
      "oliw": 3051,
      "arzonroq": 3052,
      "quril": 3053,
      "almashtirish": 3054,
      "eshiti": 3055,
      "yashil": 3056,
      "himoya": 3057,
      "ishonib": 3058,
      "xudi": 3059,
      "yos": 3060,
      "qizalo": 3061,
      "alka": 3062,
      "kosme": 3063,
      "hich": 3064,
      "iwlamayapti": 3065,
      "efekti": 3066,
      "internet": 3067,
      "mikrafoni": 3068,
      "hu": 3069,
      "nmaga": 3070,
      "kabul": 3071,
      "larimiz": 3072,
      "imba": 3073,
      "tox": 3074,
      "milo": 3075,
      "vosi": 3076,
      "chikib": 3077,
      "berishmadi": 3078,
      "imiy": 3079,
      "foydasini": 3080,
      "yopti": 3081,
      "yotganda": 3082,
      "ishonch": 3083,
      "kichkinaroq": 3084,
      "umiddaman": 3085,
      "opi": 3086,
      "yak": 3087,
      "narkan": 3088,
      "algan": 3089,
      "nav": 3090,
      "mul": 3091,
      "tul": 3092,
      "stre": 3093,
      "tmayapti": 3094,
      "qanda": 3095,
      "oylaganim": 3096,
      "uuu": 3097,
      "raqam": 3098,
      "oyog": 3099,
      "otki": 3100,
      "boshqasini": 3101,
      "sotuvchilar": 3102,
      "niksa": 3103,
      "spir": 3104,
      "bosayam": 3105,
      "upakovkada": 3106,
      "yonib": 3107,
      "olishilani": 3108,
      "turipti": 3109,
      "yetqazib": 3110,
      "1000": 3111,
      "oyok": 3112,
      "kata": 3113,
      "kelish": 3114,
      "umman": 3115,
      "ertalab": 3116,
      "vasi": 3117,
      "qoshiq": 3118,
      "dagilarga": 3119,
      "ishib": 3120,
      "bolad": 3121,
      "kirib": 3122,
      "aaaa": 3123,
      "kereli": 3124,
      "payt": 3125,
      "umid": 3126,
      "pryam": 3127,
      "tabiiy": 3128,
      "krasofka": 3129,
      "amal": 3130,
      "xtida": 3131,
      "tikilishi": 3132,
      "ketmaydi": 3133,
      "kuk": 3134,
      "sinte": 3135,
      "bolalarimga": 3136,
      "allox": 3137,
      "natijasi": 3138,
      "rezina": 3139,
      "ilib": 3140,
      "mash": 3141,
      "zara": 3142,
      "zakol": 3143,
      "aloo": 3144,
      "boshladi": 3145,
      "sezil": 3146,
      "soray": 3147,
      "korsatilgandek": 3148,
      "quloqchinlar": 3149,
      "silliq": 3150,
      "sms": 3151,
      "malomerka": 3152,
      "jiyanimga": 3153,
      "berilmadi": 3154,
      "komplekt": 3155,
      "musiqa": 3156,
      "lk": 3157,
      "ogi": 3158,
      "kishi": 3159,
      "zakazni": 3160,
      "kasiga": 3161,
      "telefonda": 3162,
      "rrr": 3163,
      "silami": 3164,
      "nuq": 3165,
      "planshet": 3166,
      "kachi": 3167,
      "kasini": 3168,
      "insha": 3169,
      "kanaka": 3170,
      "ketmadi": 3171,
      "ayniksa": 3172,
      "ishim": 3173,
      "yaxwimas": 3174,
      "qande": 3175,
      "uzidan": 3176,
      "tadigan": 3177,
      "foydalanib": 3178,
      "ayolimga": 3179,
      "mavjud": 3180,
      "kafolat": 3181,
      "ilar": 3182,
      "siq": 3183,
      "taqib": 3184,
      "qal": 3185,
      "tushadi": 3186,
      "yuborgan": 3187,
      "yengilgina": 3188,
      "xoxlagandek": 3189,
      "ab": 3190,
      "mater": 3191,
      "yaxshisi": 3192,
      "uzini": 3193,
      "busa": 3194,
      "uzummarket": 3195,
      "dedi": 3196,
      "zaryatka": 3197,
      "oylagandan": 3198,
      "yozgan": 3199,
      "baro": 3200,
      "yubordim": 3201,
      "razmeriyam": 3202,
      "shart": 3203,
      "boliwi": 3204,
      "hisobga": 3205,
      "kamchiligi": 3206,
      "200": 3207,
      "rali": 3208,
      "ragi": 3209,
      "tiw": 3210,
      "kalari": 3211,
      "uzur": 3212,
      "shapka": 3213,
      "yetkazishdi": 3214,
      "qaytarildi": 3215,
      "topshir": 3216,
      "pasta": 3217,
      "kachestvasiga": 3218,
      "tashqari": 3219,
      "skidkada": 3220,
      "talabga": 3221,
      "rezul": 3222,
      "assalomalekum": 3223,
      "bras": 3224,
      "ft": 3225,
      "haridim": 3226,
      "jo": 3227,
      "ofis": 3228,
      "uka": 3229,
      "yaxshilab": 3230,
      "qir": 3231,
      "bersa": 3232,
      "poch": 3233,
      "bittasini": 3234,
      "xizma": 3235,
      "qilishga": 3236,
      "bolila": 3237,
      "mahsulotim": 3238,
      "qadoqlangan": 3239,
      "rasmdegidek": 3240,
      "muroja": 3241,
      "fikr": 3242,
      "kt": 3243,
      "yman": 3244,
      "ort": 3245,
      "lidan": 3246,
      "kalin": 3247,
      "beryapti": 3248,
      "borligi": 3249,
      "maxsu": 3250,
      "lashda": 3251,
      "qimmatroq": 3252,
      "tilyator": 3253,
      "tort": 3254,
      "paypoq": 3255,
      "telefonimga": 3256,
      "funksiyasi": 3257,
      "ez": 3258,
      "kuya": 3259,
      "lanmagan": 3260,
      "larida": 3261,
      "topdim": 3262,
      "radigan": 3263,
      "yarmi": 3264,
      "tamiga": 3265,
      "kursat": 3266,
      "qarli": 3267,
      "laringiz": 3268,
      "ishlamayapdi": 3269,
      "zang": 3270,
      "olcha": 3271,
      "sab": 3272,
      "qiyn": 3273,
      "des": 3274,
      "yurish": 3275,
      "razmerlari": 3276,
      "pulni": 3277,
      "sensor": 3278,
      "150": 3279,
      "shunisi": 3280,
      "beki": 3281,
      "type": 3282,
      "klavi": 3283,
      "ertaga": 3284,
      "opisani": 3285,
      "osha": 3286,
      "slar": 3287,
      "kanda": 3288,
      "zurr": 3289,
      "yuvi": 3290,
      "kopay": 3291,
      "bollarimga": 3292,
      "razmerda": 3293,
      "tovarga": 3294,
      "kildi": 3295,
      "pastroq": 3296,
      "tashki": 3297,
      "mokchiman": 3298,
      "sorayman": 3299,
      "masman": 3300,
      "tavfsiya": 3301,
      "korinadi": 3302,
      "qana": 3303,
      "zakaza": 3304,
      "tishibdi": 3305,
      "mikrafon": 3306,
      "muomala": 3307,
      "balo": 3308,
      "kast": 3309,
      "bolinglar": 3310,
      "quley": 3311,
      "kazib": 3312,
      "tirmadi": 3313,
      "res": 3314,
      "kasiyam": 3315,
      "pochka": 3316,
      "onaviy": 3317,
      "odamlani": 3318,
      "foydalanish": 3319,
      "nimagadir": 3320,
      "qiyshiq": 3321,
      "iwilaga": 3322,
      "yaqshi": 3323,
      "cu": 3324,
      "qish": 3325,
      "yutu": 3326,
      "model": 3327,
      "bollarim": 3328,
      "set": 3329,
      "turishi": 3330,
      "almaw": 3331,
      "sharh": 3332,
      "olmayapman": 3333,
      "xamyonbob": 3334,
      "zamonaviy": 3335,
      "knopkasi": 3336,
      "olloh": 3337,
      "hay": 3338,
      "obor": 3339,
      "pat": 3340,
      "qmadi": 3341,
      "sko": 3342,
      "ugri": 3343,
      "dit": 3344,
      "gal": 3345,
      "suvi": 3346,
      "bumaydi": 3347,
      "marketni": 3348,
      "qoshi": 3349,
      "mayka": 3350,
      "sezildi": 3351,
      "bolardim": 3352,
      "vaqtda": 3353,
      "xoroshiy": 3354,
      "sevimli": 3355,
      "yoqimsiz": 3356,
      "yuborishibdi": 3357,
      "asalomu": 3358,
      "500": 3359,
      "kni": 3360,
      "qilar": 3361,
      "oto": 3362,
      "zadi": 3363,
      "bermayapti": 3364,
      "liklar": 3365,
      "bulmadi": 3366,
      "chotkiy": 3367,
      "taklif": 3368,
      "qopol": 3369,
      "olingan": 3370,
      "udobni": 3371,
      "tirilgan": 3372,
      "normalno": 3373,
      "tugilgan": 3374,
      "malenkiy": 3375,
      "xx": 3376,
      "lagich": 3377,
      "larimi": 3378,
      "mitti": 3379,
      "allah": 3380,
      "chiqarkan": 3381,
      "metal": 3382,
      "yetmayapti": 3383,
      "yumw": 3384,
      "tanlab": 3385,
      "qilishni": 3386,
      "qiziqarli": 3387,
      "ayron": 3388,
      "32": 3389,
      "bri": 3390,
      "vil": 3391,
      "daqi": 3392,
      "kamiga": 3393,
      "quvat": 3394,
      "korpu": 3395,
      "chikti": 3396,
      "zaryadga": 3397,
      "ventilyator": 3398,
      "1tasi": 3399,
      "36": 3400,
      "ikan": 3401,
      "ici": 3402,
      "lya": 3403,
      "vin": 3404,
      "anca": 3405,
      "rakat": 3406,
      "yogli": 3407,
      "kela": 3408,
      "vazi": 3409,
      "qarasam": 3410,
      "bularkan": 3411,
      "qola": 3412,
      "chehol": 3413,
      "vilo": 3414,
      "vaqti": 3415,
      "yumsho": 3416,
      "stoit": 3417,
      "oylaganimdanam": 3418,
      "issiqina": 3419,
      "oshxona": 3420,
      "ajra": 3421,
      "omadilani": 3422,
      "esh": 3423,
      "pish": 3424,
      "mabman": 3425,
      "gaz": 3426,
      "shini": 3427,
      "zoraka": 3428,
      "sama": 3429,
      "bilgan": 3430,
      "dagiday": 3431,
      "rasmdigi": 3432,
      "yetb": 3433,
      "uvchilarga": 3434,
      "oynasi": 3435,
      "telni": 3436,
      "korsatilganidek": 3437,
      "magazindan": 3438,
      "achindim": 3439,
      "qoniqarli": 3440,
      "bildiraman": 3441,
      "klaviat": 3442,
      "daqiqa": 3443,
      "croyli": 3444,
      "von": 3445,
      "anten": 3446,
      "zakazimi": 3447,
      "doimiy": 3448,
      "tovarlar": 3449,
      "qizlarimga": 3450,
      "balzam": 3451,
      "aldash": 3452,
      "yuvganda": 3453,
      "120": 3454,
      "kuydim": 3455,
      "telefonim": 3456,
      "xalq": 3457,
      "yumwoq": 3458,
      "43": 3459,
      "44": 3460,
      "sol": 3461,
      "uta": 3462,
      "maj": 3463,
      "sion": 3464,
      "inst": 3465,
      "bosi": 3466,
      "tut": 3467,
      "tarqa": 3468,
      "dok": 3469,
      "tirsa": 3470,
      "topish": 3471,
      "vordim": 3472,
      "kutgandek": 3473,
      "larizni": 3474,
      "qoyarkan": 3475,
      "dastafka": 3476,
      "ehtiyot": 3477,
      "murojaat": 3478,
      "dga": 3479,
      "ezilib": 3480,
      "dak": 3481,
      "ornat": 3482,
      "takan": 3483,
      "oludm": 3484,
      "bolishdi": 3485,
      "vaz": 3486,
      "tokilgan": 3487,
      "rom": 3488,
      "yuqa": 3489,
      "yetip": 3490,
      "narxidan": 3491,
      "dagidan": 3492,
      "dogi": 3493,
      "shunda": 3494,
      "telga": 3495,
      "lovchi": 3496,
      "stoykiy": 3497,
      "yerda": 3498,
      "haftada": 3499,
      "efekt": 3500,
      "hurmatli": 3501,
      "pp": 3502,
      "sraz": 3503,
      "yogakan": 3504,
      "unday": 3505,
      "bosin": 3506,
      "zakasi": 3507,
      "keldim": 3508,
      "soni": 3509,
      "sifatsz": 3510,
      "tezlik": 3511,
      "kottagina": 3512,
      "yuborilgan": 3513,
      "adigan": 3514,
      "kichkinekan": 3515,
      "zaryatkasi": 3516,
      "achki": 3517,
      "33": 3518,
      "usi": 3519,
      "makar": 3520,
      "kili": 3521,
      "aller": 3522,
      "superr": 3523,
      "ston": 3524,
      "nech": 3525,
      "qaysi": 3526,
      "soatdan": 3527,
      "qilganimdan": 3528,
      "ulgur": 3529,
      "biriga": 3530,
      "nasadka": 3531,
      "ishingizga": 3532,
      "ishlaringga": 3533,
      "cti": 3534,
      "oganim": 3535,
      "uyal": 3536,
      "dast": 3537,
      "old": 3538,
      "joyga": 3539,
      "tova": 3540,
      "ment": 3541,
      "yeb": 3542,
      "nasib": 3543,
      "sizmi": 3544,
      "narsala": 3545,
      "qovoti": 3546,
      "ingina": 3547,
      "tishdi": 3548,
      "utkir": 3549,
      "bunisi": 3550,
      "yigi": 3551,
      "kizib": 3552,
      "chiqarilgan": 3553,
      "kongildagidek": 3554,
      "jni": 3555,
      "srogi": 3556,
      "ust": 3557,
      "usta": 3558,
      "yuzi": 3559,
      "gandek": 3560,
      "ishle": 3561,
      "chiqara": 3562,
      "boya": 3563,
      "vay": 3564,
      "gilam": 3565,
      "nasiya": 3566,
      "emasman": 3567,
      "kachestvosi": 3568,
      "oylamagandim": 3569,
      "qaytardim": 3570,
      "simsiz": 3571,
      "ciqdi": 3572,
      "aytgandim": 3573,
      "qiling": 3574,
      "tugma": 3575,
      "qaytaraman": 3576,
      "jar": 3577,
      "spo": 3578,
      "anti": 3579,
      "yonadi": 3580,
      "yoqmi": 3581,
      "chay": 3582,
      "kupi": 3583,
      "yug": 3584,
      "kordik": 3585,
      "qosh": 3586,
      "yetmaydi": 3587,
      "shuna": 3588,
      "boshqasi": 3589,
      "vapshi": 3590,
      "ovqat": 3591,
      "yilga": 3592,
      "eee": 3593,
      "reklamada": 3594,
      "ishlidi": 3595,
      "xushboy": 3596,
      "buzilgan": 3597,
      "ojiz": 3598,
      "ih": 3599,
      "my": 3600,
      "lil": 3601,
      "tigi": 3602,
      "just": 3603,
      "chiqi": 3604,
      "masligi": 3605,
      "beras": 3606,
      "ayb": 3607,
      "uvchan": 3608,
      "buyurtmalarim": 3609,
      "sotuvchidan": 3610,
      "toplam": 3611,
      "uzuklar": 3612,
      "10000": 3613,
      "almashtirishni": 3614,
      "eshitil": 3615,
      "zorrrr": 3616,
      "olishingizni": 3617,
      "щi": 3618,
      "tiz": 3619,
      "yotib": 3620,
      "erib": 3621,
      "ketvoti": 3622,
      "bermas": 3623,
      "chiqyapti": 3624,
      "sovu": 3625,
      "holat": 3626,
      "korsatadi": 3627,
      "kayf": 3628,
      "tilmagan": 3629,
      "eshit": 3630,
      "natijasini": 3631,
      "linib": 3632,
      "wow": 3633,
      "great": 3634,
      "yostiq": 3635,
      "hullas": 3636,
      "iladi": 3637,
      "pre": 3638,
      "wdi": 3639,
      "yla": 3640,
      "olmayman": 3641,
      "ishlarga": 3642,
      "buyon": 3643,
      "chalari": 3644,
      "ril": 3645,
      "bolmagan": 3646,
      "sotvo": 3647,
      "qaytarsam": 3648,
      "kilmayman": 3649,
      "effect": 3650,
      "udobno": 3651,
      "2chi": 3652,
      "dori": 3653,
      "ed": 3654,
      "fil": 3655,
      "hursan": 3656,
      "ps": 3657,
      "seri": 3658,
      "tuz": 3659,
      "orga": 3660,
      "chilar": 3661,
      "book": 3662,
      "ishlamoqda": 3663,
      "bist": 3664,
      "bitasi": 3665,
      "noq": 3666,
      "chiqqan": 3667,
      "aytma": 3668,
      "sindi": 3669,
      "qoysam": 3670,
      "maslaxa": 3671,
      "sumkani": 3672,
      "ope": 3673,
      "arzimiydi": 3674,
      "namlan": 3675,
      "qutisi": 3676,
      "srazu": 3677,
      "mne": 3678,
      "zorekan": 3679,
      "yaxshiyu": 3680,
      "jama": 3681,
      "singlimga": 3682,
      "bolaga": 3683,
      "iste": 3684,
      "yarashdi": 3685,
      "bildim": 3686,
      "vaqtga": 3687,
      "qiziqib": 3688,
      "farzandlarimga": 3689,
      "vabshe": 3690,
      "majbur": 3691,
      "4ta": 3692,
      "ger": 3693,
      "izga": 3694,
      "jam": 3695,
      "vu": 3696,
      "xim": 3697,
      "topa": 3698,
      "chat": 3699,
      "koja": 3700,
      "mom": 3701,
      "qoq": 3702,
      "yetyapti": 3703,
      "regist": 3704,
      "turmaydi": 3705,
      "berilar": 3706,
      "dukon": 3707,
      "darrov": 3708,
      "vordi": 3709,
      "hidli": 3710,
      "stoyki": 3711,
      "ikkala": 3712,
      "muzika": 3713,
      "56": 3714,
      "hudi": 3715,
      "lap": 3716,
      "davo": 3717,
      "kelar": 3718,
      "oylayman": 3719,
      "tepa": 3720,
      "olgandan": 3721,
      "qiluvdim": 3722,
      "masaj": 3723,
      "almashtirsam": 3724,
      "afsuslanmadim": 3725,
      "ajoib": 3726,
      "nal": 3727,
      "yoti": 3728,
      "ekanman": 3729,
      "junat": 3730,
      "yaxshimasakan": 3731,
      "olmasa": 3732,
      "chiro": 3733,
      "kist": 3734,
      "qovotti": 3735,
      "mex": 3736,
      "kurtka": 3737,
      "hola": 3738,
      "kamp": 3739,
      "qolyabdi": 3740,
      "yopishib": 3741,
      "senu": 3742,
      "tashlab": 3743,
      "aksiyalar": 3744,
      "chiqarib": 3745,
      "brend": 3746,
      "hohlagan": 3747,
      "pishir": 3748,
      "padarka": 3749,
      "klaviatura": 3750,
      "dkasi": 3751,
      "nya": 3752,
      "ylar": 3753,
      "olga": 3754,
      "chizi": 3755,
      "qilo": 3756,
      "chaga": 3757,
      "aybi": 3758,
      "selar": 3759,
      "tanlo": 3760,
      "votgan": 3761,
      "kattaro": 3762,
      "klasss": 3763,
      "izoh": 3764,
      "duxi": 3765,
      "chotka": 3766,
      "oldindan": 3767,
      "spar": 3768,
      "olaver": 3769,
      "yaltira": 3770,
      "maktab": 3771,
      "mashinka": 3772,
      "remeshok": 3773,
      "maslaxatim": 3774,
      "moy": 3775,
      "oor": 3776,
      "magani": 3777,
      "chani": 3778,
      "shibdi": 3779,
      "dani": 3780,
      "olgandik": 3781,
      "xoja": 3782,
      "kiysa": 3783,
      "ustida": 3784,
      "ovozni": 3785,
      "oynab": 3786,
      "sensori": 3787,
      "qurib": 3788,
      "yopishtir": 3789,
      "minutda": 3790,
      "oladigan": 3791,
      "watch": 3792,
      "tashkilot": 3793,
      "em": 3794,
      "ror": 3795,
      "razi": 3796,
      "bilib": 3797,
      "tex": 3798,
      "mode": 3799,
      "rasmini": 3800,
      "turmas": 3801,
      "bunda": 3802,
      "ichki": 3803,
      "ikkinchisi": 3804,
      "sveti": 3805,
      "turibti": 3806,
      "defekt": 3807,
      "muomila": 3808,
      "42": 3809,
      "cok": 3810,
      "fli": 3811,
      "xay": 3812,
      "ore": 3813,
      "keb": 3814,
      "gidan": 3815,
      "sox": 3816,
      "xolati": 3817,
      "sumga": 3818,
      "skid": 3819,
      "sumkaga": 3820,
      "korinishidan": 3821,
      "qilinglar": 3822,
      "qilip": 3823,
      "qiziq": 3824,
      "slabiy": 3825,
      "ahvol": 3826,
      "tanlagandim": 3827,
      "sfatsiz": 3828,
      "ajayib": 3829,
      "dovolen": 3830,
      "tasavvur": 3831,
      "hoz": 3832,
      "nn": 3833,
      "masha": 3834,
      "shva": 3835,
      "kerek": 3836,
      "yaxshiga": 3837,
      "vaщe": 3838,
      "buyir": 3839,
      "rahmad": 3840,
      "nast": 3841,
      "ganimday": 3842,
      "rishi": 3843,
      "rilib": 3844,
      "nov": 3845,
      "chexoli": 3846,
      "zaryati": 3847,
      "kachestven": 3848,
      "chamga": 3849,
      "kattarok": 3850,
      "razmeriga": 3851,
      "veradi": 3852,
      "maxsulotim": 3853,
      "mikrofon": 3854,
      "servis": 3855,
      "sposi": 3856,
      "37": 3857,
      "5000": 3858,
      "n1": 3859,
      "pech": 3860,
      "qli": 3861,
      "yendi": 3862,
      "lakan": 3863,
      "sich": 3864,
      "nimasi": 3865,
      "olmang": 3866,
      "fay": 3867,
      "suz": 3868,
      "ketkaz": 3869,
      "bergani": 3870,
      "arzonga": 3871,
      "boshqasiga": 3872,
      "beramiz": 3873,
      "berishti": 3874,
      "qilganim": 3875,
      "pijama": 3876,
      "tinniq": 3877,
      "bozorga": 3878,
      "xatdan": 3879,
      "pect": 3880,
      "rozimasman": 3881,
      "holos": 3882,
      "ulanmayapti": 3883,
      "kitobni": 3884,
      "qidirib": 3885,
      "ziraklar": 3886,
      "kleyi": 3887,
      "ds": 3888,
      "iq": 3889,
      "lyu": 3890,
      "ryuk": 3891,
      "law": 3892,
      "ekn": 3893,
      "tilab": 3894,
      "juday": 3895,
      "oyl": 3896,
      "unca": 3897,
      "uzgar": 3898,
      "ishlamasakan": 3899,
      "masam": 3900,
      "uzummarketga": 3901,
      "sochiq": 3902,
      "lanishi": 3903,
      "aytaman": 3904,
      "adap": 3905,
      "product": 3906,
      "zakolka": 3907,
      "ukamga": 3908,
      "shvabra": 3909,
      "6r": 3910,
      "shum": 3911,
      "tamiz": 3912,
      "talon": 3913,
      "nie": 3914,
      "uning": 3915,
      "giga": 3916,
      "buyi": 3917,
      "bilamiz": 3918,
      "chadi": 3919,
      "atro": 3920,
      "qolim": 3921,
      "bori": 3922,
      "padelka": 3923,
      "kutgandim": 3924,
      "buyurma": 3925,
      "berasizlarmi": 3926,
      "narxlarda": 3927,
      "foydasiz": 3928,
      "barchasi": 3929,
      "delkasi": 3930,
      "soati": 3931,
      "batarekasi": 3932,
      "bilmayapman": 3933,
      "yuribman": 3934,
      "materyali": 3935,
      "makaron": 3936,
      "amas": 3937,
      "kekan": 3938,
      "dil": 3939,
      "yoqib": 3940,
      "chilarga": 3941,
      "kilingan": 3942,
      "bogani": 3943,
      "miza": 3944,
      "shay": 3945,
      "ariginal": 3946,
      "yetkazish": 3947,
      "ishlatvomman": 3948,
      "olishmadi": 3949,
      "tingiz": 3950,
      "siladan": 3951,
      "xodimlarga": 3952,
      "aksiyada": 3953,
      "tugrisi": 3954,
      "bolilar": 3955,
      "zoooor": 3956,
      "tuwdi": 3957,
      "malomer": 3958,
      "jalka": 3959,
      "krasivo": 3960,
      "ortiqcha": 3961,
      "guzal": 3962,
      "blok": 3963,
      "dus": 3964,
      "osa": 3965,
      "oganimdan": 3966,
      "mayap": 3967,
      "gam": 3968,
      "dada": 3969,
      "tinik": 3970,
      "tiful": 3971,
      "zormas": 3972,
      "ketvotti": 3973,
      "razmerim": 3974,
      "tursa": 3975,
      "turmush": 3976,
      "vaqtim": 3977,
      "jonatib": 3978,
      "rezinka": 3979,
      "taglik": 3980,
      "vibratsiya": 3981,
      "spirt": 3982,
      "zakazala": 3983,
      "pli": 3984,
      "xb": 3985,
      "matsiya": 3986,
      "chaqa": 3987,
      "xisob": 3988,
      "pub": 3989,
      "mahkam": 3990,
      "program": 3991,
      "nechi": 3992,
      "ishlatvoman": 3993,
      "arzidigan": 3994,
      "ovoldik": 3995,
      "yozilmagan": 3996,
      "sps": 3997,
      "ishlirkan": 3998,
      "vopshe": 3999,
      "krossovka": 4000,
      "rezultat": 4001,
      "respect": 4002,
      "ihcham": 4003,
      "ryukzak": 4004,
      "amaz": 4005,
      "ifor": 4006,
      "oshi": 4007,
      "ple": 4008,
      "vir": 4009,
      "xurmatli": 4010,
      "zz": 4011,
      "lamasi": 4012,
      "arginali": 4013,
      "tasini": 4014,
      "nika": 4015,
      "fati": 4016,
      "bomi": 4017,
      "bila": 4018,
      "chali": 4019,
      "marke": 4020,
      "laydigan": 4021,
      "bolganda": 4022,
      "biror": 4023,
      "beau": 4024,
      "boshladim": 4025,
      "yetmas": 4026,
      "maydimi": 4027,
      "zaryadni": 4028,
      "xabar": 4029,
      "ochsam": 4030,
      "yekmadi": 4031,
      "joyiga": 4032,
      "quyib": 4033,
      "batareyasi": 4034,
      "bolajonlar": 4035,
      "istemol": 4036,
      "jen": 4037,
      "prek": 4038,
      "ws": 4039,
      "zlar": 4040,
      "mali": 4041,
      "shop": 4042,
      "tali": 4043,
      "olmoqchiman": 4044,
      "erga": 4045,
      "chiman": 4046,
      "bogan": 4047,
      "kuyu": 4048,
      "mux": 4049,
      "mes": 4050,
      "eyn": 4051,
      "ikta": 4052,
      "ranglar": 4053,
      "yozdim": 4054,
      "yubordi": 4055,
      "dulil": 4056,
      "dars": 4057,
      "dizay": 4058,
      "blen": 4059,
      "bolip": 4060,
      "torisi": 4061,
      "sarga": 4062,
      "tomonlama": 4063,
      "moshinaga": 4064,
      "yetarli": 4065,
      "sintetika": 4066,
      "haridimdan": 4067,
      "beautiful": 4068,
      "dbol": 4069,
      "foto": 4070,
      "hudo": 4071,
      "mag": 4072,
      "made": 4073,
      "mayabti": 4074,
      "umu": 4075,
      "tom": 4076,
      "ydir": 4077,
      "bolla": 4078,
      "borsam": 4079,
      "shaya": 4080,
      "qilmoqchiman": 4081,
      "mingdan": 4082,
      "oxshidi": 4083,
      "deyish": 4084,
      "sezdim": 4085,
      "orqasi": 4086,
      "mumkunmas": 4087,
      "lent": 4088,
      "xohla": 4089,
      "qolibdi": 4090,
      "firma": 4091,
      "variant": 4092,
      "dastur": 4093,
      "21": 4094,
      "5ta": 4095,
      "mya": 4096,
      "pot": 4097,
      "rgi": 4098,
      "arli": 4099,
      "kizi": 4100,
      "mil": 4101,
      "kuniga": 4102,
      "tux": 4103,
      "tube": 4104,
      "tulov": 4105,
      "mahsu": 4106,
      "pamada": 4107,
      "harakat": 4108,
      "ichib": 4109,
      "korinishiga": 4110,
      "zuur": 4111,
      "minutga": 4112,
      "sotuvchini": 4113,
      "paddelka": 4114,
      "xakikat": 4115,
      "upakofka": 4116,
      "fudbol": 4117,
      "braslet": 4118,
      "prekras": 4119,
      "aat": 4120,
      "rin": 4121,
      "uda": 4122,
      "shtri": 4123,
      "lamadi": 4124,
      "orat": 4125,
      "val": 4126,
      "keld": 4127,
      "kochib": 4128,
      "pachka": 4129,
      "ishilani": 4130,
      "qangi": 4131,
      "kiyishga": 4132,
      "qaytarish": 4133,
      "gizlar": 4134,
      "ovora": 4135,
      "tozalab": 4136,
      "yirtiq": 4137,
      "rasayam": 4138,
      "oylaganmdan": 4139,
      "sababli": 4140,
      "powerbank": 4141,
      "krish": 4142,
      "zanjir": 4143,
      "spark": 4144,
      "nastroy": 4145,
      "amazing": 4146,
      "kimi": 4147,
      "stil": 4148,
      "wor": 4149,
      "anda": 4150,
      "taf": 4151,
      "loq": 4152,
      "chixol": 4153,
      "kilo": 4154,
      "zat": 4155,
      "chala": 4156,
      "mikin": 4157,
      "kutar": 4158,
      "yutib": 4159,
      "vodka": 4160,
      "qob": 4161,
      "arzir": 4162,
      "sinik": 4163,
      "xamasi": 4164,
      "tushti": 4165,
      "tusharkan": 4166,
      "fili": 4167,
      "maniki": 4168,
      "dorman": 4169,
      "uzoqqa": 4170,
      "mushugim": 4171,
      "funksiyalari": 4172,
      "ishchilariga": 4173,
      "gradus": 4174,
      "sorab": 4175,
      "malamerka": 4176,
      "tanlovi": 4177,
      "1kun": 4178,
      "adm": 4179,
      "fla": 4180,
      "ilishi": 4181,
      "jin": 4182,
      "koyla": 4183,
      "ulash": 4184,
      "vno": 4185,
      "xoz": 4186,
      "rasi": 4187,
      "yoda": 4188,
      "bomasa": 4189,
      "zurrr": 4190,
      "xich": 4191,
      "alham": 4192,
      "yedim": 4193,
      "nasos": 4194,
      "quyosh": 4195,
      "korini": 4196,
      "birxil": 4197,
      "shakar": 4198,
      "zarkan": 4199,
      "yetdi": 4200,
      "vid": 4201,
      "oradi": 4202,
      "aniya": 4203,
      "tinglar": 4204,
      "ovoziyam": 4205,
      "ball": 4206,
      "yupka": 4207,
      "leykum": 4208,
      "sekun": 4209,
      "odamga": 4210,
      "chetko": 4211,
      "magnit": 4212,
      "rostdan": 4213,
      "bekiston": 4214,
      "41": 4215,
      "jet": 4216,
      "km": 4217,
      "slo": 4218,
      "rad": 4219,
      "ketishi": 4220,
      "larsiz": 4221,
      "urna": 4222,
      "unaka": 4223,
      "kelganda": 4224,
      "xamda": 4225,
      "dagisi": 4226,
      "tari": 4227,
      "otlichniy": 4228,
      "nexia": 4229,
      "xola": 4230,
      "sezi": 4231,
      "gizda": 4232,
      "aytsam": 4233,
      "kuygan": 4234,
      "muddatli": 4235,
      "kamerasi": 4236,
      "poluchi": 4237,
      "jonimga": 4238,
      "tiradigan": 4239,
      "qoniqarsiz": 4240,
      "oylabman": 4241,
      "ishlatganman": 4242,
      "allergiya": 4243,
      "9000": 4244,
      "ahi": 4245,
      "aparat": 4246,
      "horo": 4247,
      "sred": 4248,
      "tuman": 4249,
      "ushi": 4250,
      "win": 4251,
      "shot": 4252,
      "tila": 4253,
      "takuyu": 4254,
      "kiladi": 4255,
      "rog": 4256,
      "ketyabdi": 4257,
      "bolyapti": 4258,
      "dagilar": 4259,
      "maykan": 4260,
      "rej": 4261,
      "kiyganda": 4262,
      "uylab": 4263,
      "anchagina": 4264,
      "topib": 4265,
      "almashtr": 4266,
      "norma": 4267,
      "balkim": 4268,
      "effe": 4269,
      "godar": 4270,
      "lampa": 4271,
      "kiyimlarni": 4272,
      "korinish": 4273,
      "charcha": 4274,
      "uzunligi": 4275,
      "yonida": 4276,
      "flesh": 4277,
      "port": 4278,
      "bayram": 4279,
      "xonani": 4280,
      "hushboy": 4281,
      "guni": 4282,
      "lidi": 4283,
      "olmayabdi": 4284,
      "chiroy": 4285,
      "urila": 4286,
      "ent": 4287,
      "tochka": 4288,
      "kelmagan": 4289,
      "stol": 4290,
      "sizlik": 4291,
      "ganimiz": 4292,
      "bajar": 4293,
      "boshqar": 4294,
      "xursandmiz": 4295,
      "yozish": 4296,
      "ullo": 4297,
      "kutganimizdan": 4298,
      "takror": 4299,
      "qiyna": 4300,
      "ustidagi": 4301,
      "alishtir": 4302,
      "axvol": 4303,
      "padarkaga": 4304,
      "halol": 4305,
      "xaqiqat": 4306,
      "opisaniya": 4307,
      "instru": 4308,
      "joq": 4309,
      "ppa": 4310,
      "xor": 4311,
      "shotka": 4312,
      "yooo": 4313,
      "kach": 4314,
      "kechasi": 4315,
      "oyli": 4316,
      "oylan": 4317,
      "fal": 4318,
      "kichi": 4319,
      "zapas": 4320,
      "kelyapti": 4321,
      "ajoyb": 4322,
      "narxida": 4323,
      "bormadi": 4324,
      "yurgandim": 4325,
      "dov": 4326,
      "boshqachasi": 4327,
      "kasida": 4328,
      "imizga": 4329,
      "ovka": 4330,
      "ovoldm": 4331,
      "oynash": 4332,
      "minglik": 4333,
      "paytida": 4334,
      "yulduzga": 4335,
      "oxiri": 4336,
      "blagodar": 4337,
      "egi": 4338,
      "lb": 4339,
      "noy": 4340,
      "ner": 4341,
      "lamaydi": 4342,
      "orzon": 4343,
      "judaa": 4344,
      "qilay": 4345,
      "vati": 4346,
      "vaxtida": 4347,
      "beruvchi": 4348,
      "ydigan": 4349,
      "quyuq": 4350,
      "tavsi": 4351,
      "mox": 4352,
      "moshni": 4353,
      "alooo": 4354,
      "mahsulotdan": 4355,
      "mahsulotlarni": 4356,
      "shab": 4357,
      "qulaylik": 4358,
      "aytib": 4359,
      "shub": 4360,
      "sel": 4361,
      "ochil": 4362,
      "yopiw": 4363,
      "yuzimni": 4364,
      "tildi": 4365,
      "effektini": 4366,
      "bizni": 4367,
      "tashqi": 4368,
      "qolgani": 4369,
      "imizni": 4370,
      "ishlamaydigan": 4371,
      "ichini": 4372,
      "qiladigan": 4373,
      "uyinchok": 4374,
      "kuramiz": 4375,
      "priyatniy": 4376,
      "qayerdan": 4377,
      "yaxshimisiz": 4378,
      "ezilgan": 4379,
      "omanglar": 4380,
      "osela": 4381,
      "xshi": 4382,
      "ortog": 4383,
      "shikast": 4384,
      "vaya": 4385,
      "bulinglar": 4386,
      "joyini": 4387,
      "lekom": 4388,
      "koladi": 4389,
      "led": 4390,
      "zakazlarimni": 4391,
      "olganman": 4392,
      "tirgan": 4393,
      "xajmi": 4394,
      "ranggi": 4395,
      "etka": 4396,
      "ochirib": 4397,
      "animatsiya": 4398,
      "midigan": 4399,
      "qorasidan": 4400,
      "ishonchi": 4401,
      "deyishdi": 4402,
      "iiii": 4403,
      "qalingina": 4404,
      "berishibdi": 4405,
      "cool": 4406,
      "kopiya": 4407,
      "bayra": 4408,
      "kayfiyat": 4409,
      "yotibti": 4410,
      "sposibo": 4411,
      "blan": 4412,
      "kish": 4413,
      "oshir": 4414,
      "odiy": 4415,
      "pur": 4416,
      "qlib": 4417,
      "xxl": 4418,
      "chni": 4419,
      "sili": 4420,
      "yonarkan": 4421,
      "yoqqan": 4422,
      "ishl": 4423,
      "una": 4424,
      "vakum": 4425,
      "nakley": 4426,
      "sifatlik": 4427,
      "hira": 4428,
      "deka": 4429,
      "berishni": 4430,
      "iplari": 4431,
      "qolganlarga": 4432,
      "zvuk": 4433,
      "oilaviy": 4434,
      "somlik": 4435,
      "chegirmalar": 4436,
      "kutilganidek": 4437,
      "mikrofoni": 4438,
      "qurilma": 4439,
      "yotipti": 4440,
      "sichqon": 4441,
      "adapter": 4442,
      "20000": 4443,
      "67": 4444,
      "ac": 4445,
      "ht": 4446,
      "ng": 4447,
      "juft": 4448,
      "niyam": 4449,
      "bomagan": 4450,
      "bomasakan": 4451,
      "one": 4452,
      "qisa": 4453,
      "kelmas": 4454,
      "tem": 4455,
      "much": 4456,
      "tushir": 4457,
      "nomi": 4458,
      "biron": 4459,
      "pach": 4460,
      "tartib": 4461,
      "mizni": 4462,
      "sigadi": 4463,
      "jiri": 4464,
      "ochir": 4465,
      "martada": 4466,
      "kattik": 4467,
      "korsatib": 4468,
      "uzulib": 4469,
      "balan": 4470,
      "andro": 4471,
      "tilla": 4472,
      "tozalash": 4473,
      "ciq": 4474,
      "xoxlasa": 4475,
      "yupqar": 4476,
      "undanam": 4477,
      "hohlagandek": 4478,
      "sevdim": 4479,
      "yetkazi": 4480,
      "chiqarishi": 4481,
      "yutuq": 4482,
      "shtrix": 4483,
      "alhamdulil": 4484,
      "cam": 4485,
      "lyan": 4486,
      "srazi": 4487,
      "tdan": 4488,
      "z6r": 4489,
      "anik": 4490,
      "line": 4491,
      "kala": 4492,
      "indi": 4493,
      "erimga": 4494,
      "bom": 4495,
      "olgani": 4496,
      "sifatigayam": 4497,
      "shukur": 4498,
      "pover": 4499,
      "qilgandik": 4500,
      "aytganda": 4501,
      "daxwat": 4502,
      "berishingizni": 4503,
      "aytilganidek": 4504,
      "garantiyasi": 4505,
      "sochim": 4506,
      "kiyaman": 4507,
      "uyinchoq": 4508,
      "qimir": 4509,
      "ligimni": 4510,
      "xizmatiga": 4511,
      "car": 4512,
      "dlya": 4513,
      "pal": 4514,
      "xmat": 4515,
      "lisi": 4516,
      "tiku": 4517,
      "tikil": 4518,
      "ganman": 4519,
      "imey": 4520,
      "sushi": 4521,
      "kidan": 4522,
      "bura": 4523,
      "desa": 4524,
      "rani": 4525,
      "omayapti": 4526,
      "arzonligiga": 4527,
      "qilmaydi": 4528,
      "unchamas": 4529,
      "suvda": 4530,
      "xodimlar": 4531,
      "koringandi": 4532,
      "tolmadi": 4533,
      "qlb": 4534,
      "really": 4535,
      "malades": 4536,
      "akuratniy": 4537,
      "vosita": 4538,
      "64": 4539,
      "jka": 4540,
      "osi": 4541,
      "ofi": 4542,
      "sli": 4543,
      "kadi": 4544,
      "kache": 4545,
      "yoqd": 4546,
      "bomedi": 4547,
      "bosib": 4548,
      "uzr": 4549,
      "gapir": 4550,
      "voq": 4551,
      "mahsulotning": 4552,
      "chiqmayapti": 4553,
      "likda": 4554,
      "poda": 4555,
      "buning": 4556,
      "ganida": 4557,
      "ishlatolmadim": 4558,
      "minat": 4559,
      "shiringina": 4560,
      "korinishda": 4561,
      "kozon": 4562,
      "stiker": 4563,
      "quydim": 4564,
      "egasiga": 4565,
      "kutkanim": 4566,
      "olmadik": 4567,
      "doglarni": 4568,
      "tovari": 4569,
      "kunglimdagidek": 4570,
      "aldanib": 4571,
      "alhamdulillah": 4572,
      "28": 4573,
      "sro": 4574,
      "zuu": 4575,
      "ana": 4576,
      "dah": 4577,
      "yaman": 4578,
      "chto": 4579,
      "niye": 4580,
      "sas": 4581,
      "kiga": 4582,
      "mukam": 4583,
      "lanadi": 4584,
      "kog": 4585,
      "sizdan": 4586,
      "korish": 4587,
      "bolani": 4588,
      "shak": 4589,
      "hafa": 4590,
      "hato": 4591,
      "hamasi": 4592,
      "qoyila": 4593,
      "votganda": 4594,
      "dushi": 4595,
      "sumkacha": 4596,
      "uzukni": 4597,
      "kechqur": 4598,
      "chetlari": 4599,
      "yuboribsizlar": 4600,
      "aralash": 4601,
      "shaxsan": 4602,
      "bolajonim": 4603,
      "yuvilgan": 4604,
      "dp": 4605,
      "gla": 4606,
      "gona": 4607,
      "jok": 4608,
      "tro": 4609,
      "makiya": 4610,
      "sht": 4611,
      "gach": 4612,
      "chop": 4613,
      "yow": 4614,
      "kas": 4615,
      "kep": 4616,
      "ertasi": 4617,
      "ursa": 4618,
      "bot": 4619,
      "vashi": 4620,
      "joyib": 4621,
      "mikan": 4622,
      "misila": 4623,
      "kulok": 4624,
      "voli": 4625,
      "nauw": 4626,
      "tuldi": 4627,
      "tuvchi": 4628,
      "korsam": 4629,
      "chiqmaydi": 4630,
      "besh": 4631,
      "meydi": 4632,
      "yuribdi": 4633,
      "ilsa": 4634,
      "kasidan": 4635,
      "darajasi": 4636,
      "tushmas": 4637,
      "uziyam": 4638,
      "yahshikan": 4639,
      "ushnik": 4640,
      "ulcham": 4641,
      "ultra": 4642,
      "narhiyam": 4643,
      "laringa": 4644,
      "yalti": 4645,
      "keremas": 4646,
      "soqolni": 4647,
      "tiliman": 4648,
      "kacestva": 4649,
      "300": 4650,
      "gov": 4651,
      "oyogi": 4652,
      "tarz": 4653,
      "wuni": 4654,
      "diyilgan": 4655,
      "dastav": 4656,
      "judaya": 4657,
      "ketish": 4658,
      "urib": 4659,
      "vauv": 4660,
      "bit": 4661,
      "tokil": 4662,
      "teyn": 4663,
      "miri": 4664,
      "kolarkan": 4665,
      "bah": 4666,
      "hamaga": 4667,
      "ishlatyapmiz": 4668,
      "yozsam": 4669,
      "yip": 4670,
      "kutganimde": 4671,
      "kutganimiz": 4672,
      "tortishi": 4673,
      "yoshga": 4674,
      "xoroshaya": 4675,
      "ishlatishim": 4676,
      "basseyn": 4677,
      "hodimlari": 4678,
      "mushugimga": 4679,
      "kerekan": 4680,
      "qoyaman": 4681,
      "yozuvi": 4682,
      "uxshaydi": 4683,
      "adashibman": 4684,
      "sezilmadi": 4685,
      "barobar": 4686,
      "qiynal": 4687,
      "seriy": 4688,
      "zuuur": 4689,
      "mukammal": 4690,
      "ffek": 4691,
      "zum": 4692,
      "kamay": 4693,
      "atkaz": 4694,
      "tukilgan": 4695,
      "qolip": 4696,
      "meva": 4697,
      "dost": 4698,
      "berishda": 4699,
      "klasno": 4700,
      "yuborishgan": 4701,
      "joyidan": 4702,
      "yildan": 4703,
      "oxshash": 4704,
      "qiliw": 4705,
      "isitishi": 4706,
      "haqiqatda": 4707,
      "tonal": 4708,
      "ikkilangandim": 4709,
      "zanjiri": 4710,
      "knopkalari": 4711,
      "yasalgan": 4712,
      "android": 4713,
      "27": 4714,
      "aux": 4715,
      "ep": 4716,
      "gn": 4717,
      "lyat": 4718,
      "ogani": 4719,
      "ub": 4720,
      "latib": 4721,
      "gab": 4722,
      "orni": 4723,
      "art": 4724,
      "ekanraxmat": 4725,
      "erkak": 4726,
      "chir": 4727,
      "sutka": 4728,
      "bub": 4729,
      "maslo": 4730,
      "masdim": 4731,
      "xir": 4732,
      "bersangiz": 4733,
      "layn": 4734,
      "koray": 4735,
      "kordm": 4736,
      "cheti": 4737,
      "baq": 4738,
      "omadim": 4739,
      "yurgan": 4740,
      "rangiga": 4741,
      "kamroq": 4742,
      "almashtiri": 4743,
      "skitka": 4744,
      "ovoziga": 4745,
      "sumkada": 4746,
      "zakazi": 4747,
      "quloqchini": 4748,
      "payti": 4749,
      "yopishmadi": 4750,
      "atirni": 4751,
      "forma": 4752,
      "oshdi": 4753,
      "qoniqmadim": 4754,
      "karobkada": 4755,
      "tovush": 4756,
      "tasirini": 4757,
      "hattoki": 4758,
      "mishka": 4759,
      "chozil": 4760,
      "toxtab": 4761,
      "pubg": 4762,
      "blagodaryu": 4763,
      "tarzda": 4764,
      "ala": 4765,
      "azo": 4766,
      "con": 4767,
      "cotki": 4768,
      "qm": 4769,
      "up": 4770,
      "use": 4771,
      "vka": 4772,
      "magur": 4773,
      "shor": 4774,
      "lashni": 4775,
      "orzu": 4776,
      "ekdi": 4777,
      "tadan": 4778,
      "kelin": 4779,
      "kepka": 4780,
      "oyimga": 4781,
      "qich": 4782,
      "qisam": 4783,
      "maso": 4784,
      "gaplashib": 4785,
      "tusha": 4786,
      "emasku": 4787,
      "rasmdan": 4788,
      "meh": 4789,
      "olip": 4790,
      "dos": 4791,
      "ozgacha": 4792,
      "qayt": 4793,
      "tmagan": 4794,
      "eykan": 4795,
      "pok": 4796,
      "vili": 4797,
      "salgina": 4798,
      "iwon": 4799,
      "uziga": 4800,
      "orasida": 4801,
      "yozaman": 4802,
      "iwlavoti": 4803,
      "termo": 4804,
      "haliyam": 4805,
      "koringan": 4806,
      "yopishtirib": 4807,
      "olmagandim": 4808,
      "qilila": 4809,
      "jonatish": 4810,
      "ogandm": 4811,
      "laringizni": 4812,
      "sigdi": 4813,
      "odatiy": 4814,
      "chontak": 4815,
      "extiyot": 4816,
      "ikkilanmasdan": 4817,
      "organay": 4818,
      "gaplashganda": 4819,
      "akkuratno": 4820,
      "dizayniga": 4821,
      "oganimda": 4822,
      "dal": 4823,
      "yatim": 4824,
      "sik": 4825,
      "arsiz": 4826,
      "keragi": 4827,
      "online": 4828,
      "qizar": 4829,
      "soot": 4830,
      "mis": 4831,
      "emaskan": 4832,
      "qopti": 4833,
      "ayfon": 4834,
      "razmerni": 4835,
      "haq": 4836,
      "ses": 4837,
      "kuryer": 4838,
      "berite": 4839,
      "ishlamayaptiku": 4840,
      "kilsam": 4841,
      "vesh": 4842,
      "odamlar": 4843,
      "tortib": 4844,
      "sport": 4845,
      "kozni": 4846,
      "ishlatip": 4847,
      "zakazimmi": 4848,
      "muddat": 4849,
      "yoriq": 4850,
      "deyilgandi": 4851,
      "korsatyapti": 4852,
      "burcha": 4853,
      "miyman": 4854,
      "magniti": 4855,
      "raxmaat": 4856,
      "blesk": 4857,
      "998": 4858,
      "kodini": 4859,
      "oxirgi": 4860,
      "doyim": 4861,
      "hmat": 4862,
      "loy": 4863,
      "otirib": 4864,
      "qz": 4865,
      "udik": 4866,
      "radar": 4867,
      "tichka": 4868,
      "yoqku": 4869,
      "bup": 4870,
      "rogini": 4871,
      "all": 4872,
      "degani": 4873,
      "tula": 4874,
      "kattasini": 4875,
      "baza": 4876,
      "ozimni": 4877,
      "qilyapti": 4878,
      "etkazib": 4879,
      "barmoq": 4880,
      "olishdi": 4881,
      "tekin": 4882,
      "razmeridan": 4883,
      "qulog": 4884,
      "nikini": 4885,
      "keregi": 4886,
      "prikol": 4887,
      "vakt": 4888,
      "hidlari": 4889,
      "kodni": 4890,
      "qoyadi": 4891,
      "sarf": 4892,
      "xohlagandek": 4893,
      "chozilib": 4894,
      "qopqoqli": 4895,
      "kapsu": 4896,
      "qisqasi": 4897,
      "cute": 4898,
      "operator": 4899,
      "effecti": 4900,
      "kechqurun": 4901,
      "48": 4902,
      "rus": 4903,
      "uji": 4904,
      "xe": 4905,
      "xt": 4906,
      "shan": 4907,
      "lazer": 4908,
      "oralgan": 4909,
      "aromat": 4910,
      "fas": 4911,
      "fast": 4912,
      "salam": 4913,
      "manli": 4914,
      "qilam": 4915,
      "buyam": 4916,
      "tozza": 4917,
      "kuvva": 4918,
      "yech": 4919,
      "yeta": 4920,
      "royxatdan": 4921,
      "uchunam": 4922,
      "qolish": 4923,
      "qoyar": 4924,
      "baga": 4925,
      "likka": 4926,
      "olgandm": 4927,
      "qilmadi": 4928,
      "ishini": 4929,
      "etmayman": 4930,
      "tanal": 4931,
      "jigar": 4932,
      "uzida": 4933,
      "kichikrok": 4934,
      "naushniki": 4935,
      "vsem": 4936,
      "bervorib": 4937,
      "karab": 4938,
      "bazida": 4939,
      "penka": 4940,
      "amalga": 4941,
      "mittigina": 4942,
      "registratsiya": 4943,
      "buyicha": 4944,
      "nauwnik": 4945,
      "26": 4946,
      "bka": 4947,
      "esiz": 4948,
      "holi": 4949,
      "sis": 4950,
      "yaxshii": 4951,
      "olyapti": 4952,
      "onlayn": 4953,
      "qilardim": 4954,
      "uzumni": 4955,
      "laymiz": 4956,
      "muom": 4957,
      "kolamiz": 4958,
      "shaa": 4959,
      "yuri": 4960,
      "ilmadi": 4961,
      "hammasini": 4962,
      "rey": 4963,
      "qilmoqchi": 4964,
      "proda": 4965,
      "ishlashiyam": 4966,
      "podosh": 4967,
      "vidi": 4968,
      "kiyimni": 4969,
      "beriladimi": 4970,
      "fida": 4971,
      "pile": 4972,
      "podvodka": 4973,
      "chexolni": 4974,
      "salafan": 4975,
      "chiqaruvchi": 4976,
      "qattiqroq": 4977,
      "kotarib": 4978,
      "ploxo": 4979,
      "podarkaga": 4980,
      "shlang": 4981,
      "davomida": 4982,
      "koylak": 4983,
      "asab": 4984,
      "clas": 4985,
      "oi": 4986,
      "odi": 4987,
      "osib": 4988,
      "qr": 4989,
      "disp": 4990,
      "shur": 4991,
      "sharkan": 4992,
      "lirkan": 4993,
      "umuma": 4994,
      "savo": 4995,
      "bomapti": 4996,
      "joydan": 4997,
      "mila": 4998,
      "marker": 4999,
      "tulik": 5000,
      "rip": 5001,
      "bormay": 5002,
      "baki": 5003,
      "pachoq": 5004,
      "qattan": 5005,
      "haj": 5006,
      "hayot": 5007,
      "telegram": 5008,
      "pokup": 5009,
      "linza": 5010,
      "ishlatganim": 5011,
      "minna": 5012,
      "oraz": 5013,
      "ochganimda": 5014,
      "koringanidan": 5015,
      "degidek": 5016,
      "tugadi": 5017,
      "eshitish": 5018,
      "bowqacha": 5019,
      "kulrang": 5020,
      "tirarkan": 5021,
      "dokondan": 5022,
      "tanlovda": 5023,
      "youtube": 5024,
      "ayollar": 5025,
      "ponravilo": 5026,
      "muomilasi": 5027,
      "kochada": 5028,
      "elektron": 5029,
      "isitgich": 5030,
      "tarqatish": 5031,
      "blender": 5032,
      "instruksiya": 5033,
      "organayzer": 5034,
      "1marta": 5035,
      "29": 5036,
      "etik": 5037,
      "hayron": 5038,
      "pil": 5039,
      "qgan": 5040,
      "chq": 5041,
      "talik": 5042,
      "yaxahi": 5043,
      "boling": 5044,
      "uzok": 5045,
      "maslik": 5046,
      "gaplashi": 5047,
      "zarat": 5048,
      "tepasi": 5049,
      "yuu": 5050,
      "atr": 5051,
      "stvo": 5052,
      "narsalani": 5053,
      "bollar": 5054,
      "remish": 5055,
      "uvla": 5056,
      "qilmiman": 5057,
      "fonar": 5058,
      "tekinga": 5059,
      "iwlayapti": 5060,
      "oynayapti": 5061,
      "jamosiga": 5062,
      "korinarkan": 5063,
      "foydalanishga": 5064,
      "qilinmagan": 5065,
      "chiqarish": 5066,
      "qanaqadir": 5067,
      "notugri": 5068,
      "muddao": 5069,
      "silagayam": 5070,
      "parf": 5071,
      "laringni": 5072,
      "interne": 5073,
      "xaqiqiy": 5074,
      "ujasnoye": 5075,
      "momila": 5076,
      "detskiy": 5077,
      "yupqaroq": 5078,
      "2000": 5079,
      "cob": 5080,
      "era": 5081,
      "svo": 5082,
      "slish": 5083,
      "teng": 5084,
      "zini": 5085,
      "shnur": 5086,
      "gavno": 5087,
      "yadi": 5088,
      "ergiya": 5089,
      "raxmatt": 5090,
      "tey": 5091,
      "ketmasakan": 5092,
      "kuraman": 5093,
      "pere": 5094,
      "kost": 5095,
      "birtinga": 5096,
      "boshni": 5097,
      "ozimiz": 5098,
      "boshqachar": 5099,
      "zaryadchigi": 5100,
      "hoyat": 5101,
      "klassniy": 5102,
      "bilmayman": 5103,
      "yuborish": 5104,
      "dumalo": 5105,
      "oyincho": 5106,
      "korinishiyam": 5107,
      "bundanda": 5108,
      "quloqchinni": 5109,
      "muammosiz": 5110,
      "afsuslanmaysiz": 5111,
      "vets": 5112,
      "szlar": 5113,
      "zamok": 5114,
      "yoritishi": 5115,
      "etiborliroq": 5116,
      "jallangan": 5117,
      "prastoy": 5118,
      "buyr": 5119,
      "moshinani": 5120,
      "commen": 5121,
      "momiq": 5122,
      "podarka": 5123,
      "kuprok": 5124,
      "1chi": 5125,
      "eli": 5126,
      "mli": 5127,
      "nini": 5128,
      "ngiz": 5129,
      "ustan": 5130,
      "lamas": 5131,
      "cher": 5132,
      "loni": 5133,
      "ishlam": 5134,
      "bula": 5135,
      "yoqdii": 5136,
      "zaga": 5137,
      "zaqaz": 5138,
      "misla": 5139,
      "ketkan": 5140,
      "yurarkan": 5141,
      "yez": 5142,
      "yemon": 5143,
      "koniga": 5144,
      "kormadm": 5145,
      "qow": 5146,
      "aylanib": 5147,
      "qilsin": 5148,
      "turbo": 5149,
      "iwladi": 5150,
      "qolmadi": 5151,
      "simkarta": 5152,
      "negadur": 5153,
      "chotkasi": 5154,
      "qurit": 5155,
      "fel": 5156,
      "koringanidek": 5157,
      "128": 5158,
      "foydalanaman": 5159,
      "soatgayam": 5160,
      "shamol": 5161,
      "ogzi": 5162,
      "jonatishibdi": 5163,
      "ogrit": 5164,
      "haftadan": 5165,
      "kicik": 5166,
      "kickin": 5167,
      "xonaga": 5168,
      "xoxlaganday": 5169,
      "tugmasi": 5170,
      "ifori": 5171,
      "masuli": 5172,
      "junatib": 5173,
      "ponravil": 5174,
      "birdaniga": 5175,
      "ortogimga": 5176,
      "ponravilos": 5177,
      "blo": 5178,
      "blin": 5179,
      "jan": 5180,
      "jovo": 5181,
      "plat": 5182,
      "won": 5183,
      "xot": 5184,
      "liy": 5185,
      "shish": 5186,
      "junati": 5187,
      "kapa": 5188,
      "ganga": 5189,
      "niqob": 5190,
      "oyn": 5191,
      "oylo": 5192,
      "kila": 5193,
      "qadogi": 5194,
      "sotil": 5195,
      "berdik": 5196,
      "berudim": 5197,
      "muka": 5198,
      "lanish": 5199,
      "asl": 5200,
      "kumush": 5201,
      "pauza": 5202,
      "maxkam": 5203,
      "ilmagan": 5204,
      "kottaroq": 5205,
      "remen": 5206,
      "qoyinglar": 5207,
      "bunchalik": 5208,
      "stakan": 5209,
      "masalan": 5210,
      "etgan": 5211,
      "barmo": 5212,
      "dugon": 5213,
      "tavarlar": 5214,
      "kuylak": 5215,
      "zuda": 5216,
      "meniki": 5217,
      "turadigan": 5218,
      "mamnunmiz": 5219,
      "laringizga": 5220,
      "ogriq": 5221,
      "tezkorlik": 5222,
      "table": 5223,
      "nasadkasi": 5224,
      "5555": 5225,
      "sveji": 5226,
      "yoqimtoy": 5227,
      "dengi": 5228,
      "plyon": 5229,
      "bumidi": 5230,
      "bilinadi": 5231,
      "nuqson": 5232,
      "kachistva": 5233,
      "inshaalloh": 5234,
      "fudbolka": 5235,
      "silikon": 5236,
      "dahshat": 5237,
      "400": 5238,
      "alekom": 5239,
      "bam": 5240,
      "eye": 5241,
      "izi": 5242,
      "jinga": 5243,
      "nga": 5244,
      "pir": 5245,
      "ularga": 5246,
      "vf": 5247,
      "vr": 5248,
      "vam": 5249,
      "yy": 5250,
      "oram": 5251,
      "ortasi": 5252,
      "zorkan": 5253,
      "ekanligini": 5254,
      "kadok": 5255,
      "tawa": 5256,
      "yaxщi": 5257,
      "ishlatishi": 5258,
      "bulishdi": 5259,
      "bilinib": 5260,
      "yel": 5261,
      "atga": 5262,
      "degandim": 5263,
      "detal": 5264,
      "pushay": 5265,
      "tugap": 5266,
      "mobil": 5267,
      "boru": 5268,
      "mahsulotlari": 5269,
      "arzoni": 5270,
      "tezroq": 5271,
      "arziy": 5272,
      "jara": 5273,
      "kungil": 5274,
      "ozbekiston": 5275,
      "shundo": 5276,
      "narxlariyam": 5277,
      "telefondan": 5278,
      "rasmdagide": 5279,
      "okar": 5280,
      "isle": 5281,
      "uyni": 5282,
      "topinglar": 5283,
      "qimmatga": 5284,
      "yuzda": 5285,
      "akkum": 5286,
      "versiya": 5287,
      "doimo": 5288,
      "yopishqoq": 5289,
      "kachestvasiyam": 5290,
      "standar": 5291,
      "idealno": 5292,
      "oylagandek": 5293,
      "jiyanim": 5294,
      "xohlagan": 5295,
      "voobshe": 5296,
      "superrrr": 5297,
      "bolajonimga": 5298,
      "xiaomi": 5299,
      "bilganimda": 5300,
      "umumam": 5301,
      "cobal": 5302,
      "masuliyat": 5303,
      "pushaymon": 5304,
      "01": 5305,
      "02": 5306,
      "htida": 5307,
      "oshib": 5308,
      "vani": 5309,
      "mashe": 5310,
      "mayapman": 5311,
      "did": 5312,
      "lax": 5313,
      "tis": 5314,
      "tishni": 5315,
      "olsangiz": 5316,
      "chiligimni": 5317,
      "sut": 5318,
      "box": 5319,
      "vada": 5320,
      "zir": 5321,
      "temiri": 5322,
      "vod": 5323,
      "kori": 5324,
      "korganim": 5325,
      "shaf": 5326,
      "mega": 5327,
      "narxigayam": 5328,
      "faqatgina": 5329,
      "kundalik": 5330,
      "tishlari": 5331,
      "ishlatyabman": 5332,
      "lashdi": 5333,
      "iwlavotti": 5334,
      "telda": 5335,
      "oxwa": 5336,
      "surt": 5337,
      "yuvgandan": 5338,
      "savd": 5339,
      "sharx": 5340,
      "zaryadkada": 5341,
      "tomonidan": 5342,
      "tirar": 5343,
      "kutganmdan": 5344,
      "koyil": 5345,
      "sigmadi": 5346,
      "ustidan": 5347,
      "yumshokkina": 5348,
      "sochimni": 5349,
      "axshi": 5350,
      "apparat": 5351,
      "yaqinda": 5352,
      "rezinkasi": 5353,
      "nimjon": 5354,
      "topshirish": 5355,
      "olaveringlar": 5356,
      "soxta": 5357,
      "admin": 5358,
      "koriniwi": 5359,
      "52": 5360,
      "rum": 5361,
      "tun": 5362,
      "xoraz": 5363,
      "kamer": 5364,
      "ingizni": 5365,
      "niyat": 5366,
      "samar": 5367,
      "imman": 5368,
      "bomas": 5369,
      "onson": 5370,
      "kelsa": 5371,
      "kelsak": 5372,
      "bermidi": 5373,
      "tavari": 5374,
      "paketi": 5375,
      "rasmdi": 5376,
      "recommen": 5377,
      "qildm": 5378,
      "ishiga": 5379,
      "xotira": 5380,
      "pos": 5381,
      "kiyish": 5382,
      "okib": 5383,
      "mazzasi": 5384,
      "klassss": 5385,
      "bilmiman": 5386,
      "yeng": 5387,
      "kirlarni": 5388,
      "tavarga": 5389,
      "yabmiz": 5390,
      "foydalana": 5391,
      "ulanadi": 5392,
      "kolon": 5393,
      "haftaga": 5394,
      "yordamchi": 5395,
      "ishlamayabti": 5396,
      "oqarib": 5397,
      "ayrim": 5398,
      "uxshab": 5399,
      "krassovka": 5400,
      "ornatish": 5401,
      "karopkasi": 5402,
      "kichkinaro": 5403,
      "kamchiliklari": 5404,
      "qayerda": 5405,
      "olmaganda": 5406,
      "kacestvasi": 5407,
      "kimiman": 5408,
      "masofa": 5409,
      "75": 5410,
      "bari": 5411,
      "gh": 5412,
      "mina": 5413,
      "oyo": 5414,
      "zamo": 5415,
      "latta": 5416,
      "chqdi": 5417,
      "limi": 5418,
      "shiko": 5419,
      "taw": 5420,
      "umum": 5421,
      "yaxshirok": 5422,
      "kizil": 5423,
      "bomiydi": 5424,
      "qichi": 5425,
      "zap": 5426,
      "kutaman": 5427,
      "libdi": 5428,
      "kolad": 5429,
      "nosti": 5430,
      "bollarga": 5431,
      "bak": 5432,
      "shah": 5433,
      "arzonligi": 5434,
      "podelka": 5435,
      "turmidi": 5436,
      "tovarlarni": 5437,
      "kerakmi": 5438,
      "ishlatganda": 5439,
      "toplami": 5440,
      "qizlar": 5441,
      "izlab": 5442,
      "olishdan": 5443,
      "yumshoqina": 5444,
      "takoy": 5445,
      "chexolga": 5446,
      "blut": 5447,
      "umiy": 5448,
      "prish": 5449,
      "buzuldi": 5450,
      "plasmassa": 5451,
      "yorilib": 5452,
      "signal": 5453,
      "xalol": 5454,
      "tagiga": 5455,
      "tonalka": 5456,
      "narhga": 5457,
      "yorugligi": 5458,
      "upakof": 5459,
      "akkuratniy": 5460,
      "milota": 5461,
      "oyludim": 5462,
      "xisobga": 5463,
      "govno": 5464,
      "46": 5465,
      "cq": 5466,
      "stik": 5467,
      "ukam": 5468,
      "kemidi": 5469,
      "sul": 5470,
      "kilarkan": 5471,
      "ishlasa": 5472,
      "ishlamedi": 5473,
      "narmanli": 5474,
      "toli": 5475,
      "bermay": 5476,
      "asli": 5477,
      "tushin": 5478,
      "kotib": 5479,
      "bormasdan": 5480,
      "kutmagan": 5481,
      "uvol": 5482,
      "xolat": 5483,
      "ichim": 5484,
      "ginekan": 5485,
      "kiyimga": 5486,
      "ochilmagan": 5487,
      "yozda": 5488,
      "rasmdaqa": 5489,
      "ushka": 5490,
      "terlat": 5491,
      "girlyan": 5492,
      "spasiba": 5493,
      "kunim": 5494,
      "chiqaradi": 5495,
      "dokonga": 5496,
      "sirga": 5497,
      "nejni": 5498,
      "hizmati": 5499,
      "ertasiga": 5500,
      "keys": 5501,
      "bulilar": 5502,
      "buyirtma": 5503,
      "49": 5504,
      "asa": 5505,
      "akum": 5506,
      "awe": 5507,
      "ig": 5508,
      "kta": 5509,
      "tekan": 5510,
      "tkasi": 5511,
      "that": 5512,
      "utir": 5513,
      "xayron": 5514,
      "layam": 5515,
      "kaya": 5516,
      "nib": 5517,
      "chisi": 5518,
      "ishlayabti": 5519,
      "soya": 5520,
      "ted": 5521,
      "bermoqchi": 5522,
      "marka": 5523,
      "naski": 5524,
      "with": 5525,
      "maxsulotdan": 5526,
      "ozidek": 5527,
      "vit": 5528,
      "rangim": 5529,
      "ishlatb": 5530,
      "ishlatganimda": 5531,
      "kopko": 5532,
      "koptok": 5533,
      "togrisini": 5534,
      "tekshi": 5535,
      "tozalarkan": 5536,
      "versal": 5537,
      "issiqlikni": 5538,
      "kiyimlar": 5539,
      "paytda": 5540,
      "kimdir": 5541,
      "iii": 5542,
      "qililar": 5543,
      "toldirib": 5544,
      "hohlasa": 5545,
      "qogozi": 5546,
      "rasmdegidan": 5547,
      "haqiqatan": 5548,
      "ayrli": 5549,
      "rasimdagidan": 5550,
      "defekti": 5551,
      "qorqmasdan": 5552,
      "hohlaganimdek": 5553,
      "yakshi": 5554,
      "skoch": 5555,
      "tikilmagan": 5556,
      "65": 5557,
      "edm": 5558,
      "srok": 5559,
      "zdan": 5560,
      "map": 5561,
      "are": 5562,
      "ining": 5563,
      "ganday": 5564,
      "kes": 5565,
      "nihoyat": 5566,
      "umumiy": 5567,
      "yoqt": 5568,
      "vara": 5569,
      "qap": 5570,
      "ishlato": 5571,
      "mastan": 5572,
      "kelli": 5573,
      "miyapti": 5574,
      "ketga": 5575,
      "voxtida": 5576,
      "kogan": 5577,
      "salomat": 5578,
      "bad": 5579,
      "basi": 5580,
      "kondit": 5581,
      "yanvar": 5582,
      "maxsulotlarni": 5583,
      "sang": 5584,
      "bulmas": 5585,
      "bolalarni": 5586,
      "xaf": 5587,
      "xama": 5588,
      "qaytarb": 5589,
      "ooor": 5590,
      "magandi": 5591,
      "tushmayapti": 5592,
      "qolni": 5593,
      "ishlarilaga": 5594,
      "oylaganimdanda": 5595,
      "koringani": 5596,
      "eshik": 5597,
      "fort": 5598,
      "matodan": 5599,
      "kutganday": 5600,
      "telefonimni": 5601,
      "charchamela": 5602,
      "suratda": 5603,
      "sioner": 5604,
      "chiqishi": 5605,
      "chaqaloq": 5606,
      "sargayib": 5607,
      "pilesos": 5608,
      "byur": 5609,
      "eni": 5610,
      "elar": 5611,
      "hozi": 5612,
      "ipi": 5613,
      "i12": 5614,
      "obi": 5615,
      "vs": 5616,
      "malekum": 5617,
      "dat": 5618,
      "yarkan": 5619,
      "yona": 5620,
      "ardim": 5621,
      "yoqot": 5622,
      "olov": 5623,
      "susiya": 5624,
      "kit": 5625,
      "boganda": 5626,
      "uzo": 5627,
      "gidek": 5628,
      "biladi": 5629,
      "berin": 5630,
      "devor": 5631,
      "kattaligi": 5632,
      "chiqsa": 5633,
      "zarur": 5634,
      "arzonakan": 5635,
      "yetkizib": 5636,
      "maxsulotlari": 5637,
      "ochip": 5638,
      "ochdim": 5639,
      "yopib": 5640,
      "simlari": 5641,
      "ves": 5642,
      "tozalaydi": 5643,
      "tozalashi": 5644,
      "kovrik": 5645,
      "krasov": 5646,
      "yarimi": 5647,
      "yuvsa": 5648,
      "yuvishga": 5649,
      "shokolad": 5650,
      "qalinroq": 5651,
      "yorit": 5652,
      "qadoqda": 5653,
      "qludm": 5654,
      "qoyibman": 5655,
      "zontik": 5656,
      "ruchkasi": 5657,
      "videoda": 5658,
      "gilofi": 5659,
      "plastmas": 5660,
      "punktida": 5661,
      "litrli": 5662,
      "krasivaya": 5663,
      "plus": 5664,
      "shishasi": 5665,
      "beriwdi": 5666,
      "kuchsiz": 5667,
      "qandaydir": 5668,
      "balon": 5669,
      "vazifa": 5670,
      "nasiyaga": 5671,
      "beraslami": 5672,
      "ponravilsya": 5673,
      "muncha": 5674,
      "ogil": 5675,
      "oborib": 5676,
      "slaga": 5677,
      "utmagan": 5678,
      "was": 5679,
      "digon": 5680,
      "ekt": 5681,
      "tidagi": 5682,
      "yozga": 5683,
      "kash": 5684,
      "kechik": 5685,
      "larning": 5686,
      "imkon": 5687,
      "kilamiz": 5688,
      "bomayapti": 5689,
      "bosil": 5690,
      "qadigan": 5691,
      "biroq": 5692,
      "otpra": 5693,
      "tesk": 5694,
      "ketmasa": 5695,
      "ketmidi": 5696,
      "mut": 5697,
      "deydi": 5698,
      "moli": 5699,
      "kattalik": 5700,
      "bolsh": 5701,
      "bolsam": 5702,
      "badan": 5703,
      "shakl": 5704,
      "arzongina": 5705,
      "tirdim": 5706,
      "turish": 5707,
      "karanda": 5708,
      "qizla": 5709,
      "qollan": 5710,
      "qolmaydi": 5711,
      "votkan": 5712,
      "kichiklik": 5713,
      "xariddan": 5714,
      "kaytara": 5715,
      "ruba": 5716,
      "qorasi": 5717,
      "unchalikmas": 5718,
      "donasi": 5719,
      "ishlaydigan": 5720,
      "tegdi": 5721,
      "ranglisi": 5722,
      "ushlamaydi": 5723,
      "massajor": 5724,
      "zorikan": 5725,
      "ornatib": 5726,
      "karopka": 5727,
      "yomgir": 5728,
      "muomalasi": 5729,
      "plomba": 5730,
      "remesho": 5731,
      "guzel": 5732,
      "eshitilishi": 5733,
      "nechta": 5734,
      "kamplek": 5735,
      "xakikatdan": 5736,
      "sekund": 5737,
      "mashenik": 5738,
      "77": 5739,
      "ben": 5740,
      "gga": 5741,
      "kro": 5742,
      "klaman": 5743,
      "ow": 5744,
      "osam": 5745,
      "spa": 5746,
      "xs": 5747,
      "mab": 5748,
      "dila": 5749,
      "daji": 5750,
      "aroq": 5751,
      "ekanlekin": 5752,
      "inob": 5753,
      "ingizga": 5754,
      "olsak": 5755,
      "salat": 5756,
      "bod": 5757,
      "hamme": 5758,
      "gida": 5759,
      "gijim": 5760,
      "ishlay": 5761,
      "rogakan": 5762,
      "mid": 5763,
      "alergiya": 5764,
      "xamen": 5765,
      "xamisha": 5766,
      "landi": 5767,
      "quvon": 5768,
      "narsalarga": 5769,
      "bora": 5770,
      "baquvat": 5771,
      "konteyn": 5772,
      "shayib": 5773,
      "yetsya": 5774,
      "dokoni": 5775,
      "arik": 5776,
      "xotini": 5777,
      "xamaga": 5778,
      "ishlatdik": 5779,
      "ishlattim": 5780,
      "qoldiraman": 5781,
      "uzilgan": 5782,
      "boldik": 5783,
      "iwlatiw": 5784,
      "terini": 5785,
      "bolishini": 5786,
      "yozilganidek": 5787,
      "ilojisi": 5788,
      "bowqaca": 5789,
      "udobna": 5790,
      "basslari": 5791,
      "ranglaridan": 5792,
      "minnatdorchilik": 5793,
      "kilishga": 5794,
      "niyakan": 5795,
      "yozuvlari": 5796,
      "ayollarga": 5797,
      "yoruglik": 5798,
      "bumedi": 5799,
      "kelipti": 5800,
      "keregidi": 5801,
      "wonder": 5802,
      "teskari": 5803,
      "gimni": 5804,
      "kri": 5805,
      "pin": 5806,
      "ts": 5807,
      "ulangan": 5808,
      "wun": 5809,
      "anga": 5810,
      "rav": 5811,
      "ramiz": 5812,
      "ekam": 5813,
      "aro": 5814,
      "tati": 5815,
      "tamin": 5816,
      "ketav": 5817,
      "yaxshiykan": 5818,
      "olb": 5819,
      "ishta": 5820,
      "unuk": 5821,
      "kip": 5822,
      "kigandim": 5823,
      "zay": 5824,
      "zashi": 5825,
      "soda": 5826,
      "some": 5827,
      "ketsa": 5828,
      "sifatliy": 5829,
      "qotadi": 5830,
      "nogo": 5831,
      "jayin": 5832,
      "rejim": 5833,
      "qandey": 5834,
      "berip": 5835,
      "well": 5836,
      "yuborishdi": 5837,
      "trb": 5838,
      "ilohim": 5839,
      "aldashdi": 5840,
      "quloqni": 5841,
      "keladigan": 5842,
      "ulandi": 5843,
      "ulanishi": 5844,
      "uylaganimdek": 5845,
      "kursatish": 5846,
      "muammosi": 5847,
      "zooooor": 5848,
      "plasmas": 5849,
      "koynim": 5850,
      "uggi": 5851,
      "mashinaga": 5852,
      "mashinasi": 5853,
      "yaroqli": 5854,
      "masulyat": 5855,
      "qongi": 5856,
      "teriga": 5857,
      "ayolim": 5858,
      "avtoma": 5859,
      "xoxlaganimdek": 5860,
      "kosmetika": 5861,
      "korpus": 5862,
      "egizak": 5863,
      "inobatga": 5864,
      "achi": 5865,
      "cro": 5866,
      "dru": 5867,
      "emasu": 5868,
      "flo": 5869,
      "i18": 5870,
      "tlar": 5871,
      "uh": 5872,
      "utib": 5873,
      "digani": 5874,
      "tikilish": 5875,
      "shiye": 5876,
      "kamida": 5877,
      "tamom": 5878,
      "ganmi": 5879,
      "kera": 5880,
      "nitsa": 5881,
      "umumman": 5882,
      "larmi": 5883,
      "ere": 5884,
      "onga": 5885,
      "ishlatil": 5886,
      "bik": 5887,
      "chasiga": 5888,
      "chalka": 5889,
      "yey": 5890,
      "lang": 5891,
      "deya": 5892,
      "tus": 5893,
      "tugir": 5894,
      "qula": 5895,
      "arzid": 5896,
      "qatan": 5897,
      "proga": 5898,
      "sana": 5899,
      "berasilami": 5900,
      "xob": 5901,
      "xarak": 5902,
      "ranglariyam": 5903,
      "sotuvchilariga": 5904,
      "uygacha": 5905,
      "qolmay": 5906,
      "larimdan": 5907,
      "utkaz": 5908,
      "tekkis": 5909,
      "trim": 5910,
      "zaryadini": 5911,
      "bizda": 5912,
      "yopishmaydi": 5913,
      "kremni": 5914,
      "assalauma": 5915,
      "lamagandim": 5916,
      "kupir": 5917,
      "qopqog": 5918,
      "tuwmadi": 5919,
      "bravo": 5920,
      "normalniy": 5921,
      "paketga": 5922,
      "yoqadigan": 5923,
      "narmalniy": 5924,
      "karaganda": 5925,
      "qayerga": 5926,
      "kuproq": 5927,
      "togirlab": 5928,
      "skovor": 5929,
      "xalqni": 5930,
      "ahvolda": 5931,
      "muximi": 5932,
      "sichqoncha": 5933,
      "makiyaj": 5934,
      "class": 5935,
      "kamerani": 5936,
      "3marta": 5937,
      "68": 5938,
      "boyin": 5939,
      "hd": 5940,
      "ic": 5941,
      "iladigan": 5942,
      "oti": 5943,
      "omey": 5944,
      "ochadi": 5945,
      "gay": 5946,
      "sinov": 5947,
      "yonar": 5948,
      "kamar": 5949,
      "fatli": 5950,
      "chirogi": 5951,
      "uri": 5952,
      "vauu": 5953,
      "biga": 5954,
      "ziyoda": 5955,
      "soli": 5956,
      "mendan": 5957,
      "ketka": 5958,
      "ketgani": 5959,
      "sifatda": 5960,
      "marketdagi": 5961,
      "kozi": 5962,
      "kobal": 5963,
      "kormadik": 5964,
      "narsalarimni": 5965,
      "bepul": 5966,
      "pakt": 5967,
      "assalomualeykum": 5968,
      "dom": 5969,
      "hama": 5970,
      "hidini": 5971,
      "setka": 5972,
      "qando": 5973,
      "kurdik": 5974,
      "buyurtmalarimni": 5975,
      "berishadi": 5976,
      "tushgan": 5977,
      "tanalka": 5978,
      "mumkinmi": 5979,
      "korsatarkan": 5980,
      "masimdan": 5981,
      "rosti": 5982,
      "iwlaw": 5983,
      "teris": 5984,
      "fark": 5985,
      "vashee": 5986,
      "qilishda": 5987,
      "yolda": 5988,
      "tugaydi": 5989,
      "2023": 5990,
      "ulanib": 5991,
      "ulanmadi": 5992,
      "oxshagan": 5993,
      "tashavor": 5994,
      "vawee": 5995,
      "minnatdormiz": 5996,
      "priyatno": 5997,
      "icida": 5998,
      "ximoya": 5999,
      "shotkasi": 6000,
      "ag": 6001,
      "poli": 6002,
      "xur": 6003,
      "xari": 6004,
      "lagandim": 6005,
      "yod": 6006,
      "shilib": 6007,
      "kashe": 6008,
      "oyib": 6009,
      "urin": 6010,
      "suyuk": 6011,
      "kidek": 6012,
      "hamman": 6013,
      "butil": 6014,
      "chal": 6015,
      "chasini": 6016,
      "keldiku": 6017,
      "nax": 6018,
      "tup": 6019,
      "kozga": 6020,
      "mod": 6021,
      "kattasidan": 6022,
      "ladik": 6023,
      "bolshi": 6024,
      "tarkib": 6025,
      "ilga": 6026,
      "sing": 6027,
      "qayna": 6028,
      "darajadagi": 6029,
      "ichidegi": 6030,
      "lishini": 6031,
      "rangni": 6032,
      "sotuvchilaga": 6033,
      "masidan": 6034,
      "yuboring": 6035,
      "trib": 6036,
      "iwlati": 6037,
      "vapshem": 6038,
      "ishlarizni": 6039,
      "yabr": 6040,
      "spekt": 6041,
      "qoron": 6042,
      "rabotaet": 6043,
      "roziman": 6044,
      "adaw": 6045,
      "oyoqni": 6046,
      "olasizlarmi": 6047,
      "degandi": 6048,
      "printer": 6049,
      "tegib": 6050,
      "berilmagan": 6051,
      "realno": 6052,
      "kraska": 6053,
      "bulgani": 6054,
      "berardim": 6055,
      "surayman": 6056,
      "akuratni": 6057,
      "olodim": 6058,
      "qalbaki": 6059,
      "kelayotgan": 6060,
      "ajralib": 6061,
      "antenna": 6062,
      "zakasimni": 6063,
      "ustki": 6064,
      "bistro": 6065,
      "gunicha": 6066,
      "nakleyka": 6067,
      "hayotda": 6068,
      "slishkom": 6069,
      "vfsiz": 6070,
      "recommend": 6071,
      "qongiroq": 6072,
      "03": 6073,
      "78": 6074,
      "ijo": 6075,
      "luch": 6076,
      "omoqchi": 6077,
      "pper": 6078,
      "skor": 6079,
      "tre": 6080,
      "mara": 6081,
      "taya": 6082,
      "yaxshiyam": 6083,
      "sat": 6084,
      "chizilgan": 6085,
      "kilip": 6086,
      "vato": 6087,
      "sifatixam": 6088,
      "toni": 6089,
      "xilidan": 6090,
      "yuvar": 6091,
      "voz": 6092,
      "ganimde": 6093,
      "noma": 6094,
      "noodatiy": 6095,
      "beza": 6096,
      "kunlarda": 6097,
      "ozbek": 6098,
      "ilt": 6099,
      "tirnoq": 6100,
      "realda": 6101,
      "qilyapman": 6102,
      "hayo": 6103,
      "boladigan": 6104,
      "rasmdagiga": 6105,
      "buyurtmamiz": 6106,
      "salqin": 6107,
      "oylaganimda": 6108,
      "ligida": 6109,
      "yarash": 6110,
      "lator": 6111,
      "qolyapdi": 6112,
      "10ta": 6113,
      "yekimli": 6114,
      "beriladi": 6115,
      "bildir": 6116,
      "kayta": 6117,
      "aldamanglar": 6118,
      "boshkalarga": 6119,
      "quloqqa": 6120,
      "qilishdi": 6121,
      "ishlatishda": 6122,
      "sochlarni": 6123,
      "sprey": 6124,
      "hozirgi": 6125,
      "qiyshayib": 6126,
      "kolyapti": 6127,
      "qism": 6128,
      "monitor": 6129,
      "notori": 6130,
      "matoviy": 6131,
      "qiyinroq": 6132,
      "materialdan": 6133,
      "magazinga": 6134,
      "taqdim": 6135,
      "ishlatamiz": 6136,
      "tagida": 6137,
      "havoga": 6138,
      "bervorgan": 6139,
      "tasma": 6140,
      "tolovga": 6141,
      "liked": 6142,
      "yutgich": 6143,
      "tochno": 6144,
      "teshigi": 6145,
      "kosmetichka": 6146,
      "zanglab": 6147,
      "tashkilotchilarga": 6148,
      "hozr": 6149,
      "kachestvenniy": 6150,
      "judaym": 6151,
      "dadamga": 6152,
      "muommo": 6153,
      "jovob": 6154,
      "otpravili": 6155,
      "konteyner": 6156,
      "wonderful": 6157,
      "2kunda": 6158,
      "3000": 6159,
      "800": 6160,
      "lsa": 6161,
      "ny": 6162,
      "play": 6163,
      "qn": 6164,
      "qmiman": 6165,
      "slov": 6166,
      "tws": 6167,
      "ularni": 6168,
      "disam": 6169,
      "davol": 6170,
      "chno": 6171,
      "siyani": 6172,
      "yob": 6173,
      "yoh": 6174,
      "kechikib": 6175,
      "kimat": 6176,
      "qirilib": 6177,
      "vaaa": 6178,
      "uzay": 6179,
      "ishlatim": 6180,
      "ishlamiy": 6181,
      "bug": 6182,
      "kana": 6183,
      "kancha": 6184,
      "sokol": 6185,
      "bervotti": 6186,
      "yesh": 6187,
      "naq": 6188,
      "lantir": 6189,
      "tushuni": 6190,
      "quyi": 6191,
      "mow": 6192,
      "kattalar": 6193,
      "sizlarni": 6194,
      "bormaydi": 6195,
      "shakli": 6196,
      "meman": 6197,
      "dokoniga": 6198,
      "razmerdan": 6199,
      "proma": 6200,
      "turmasakan": 6201,
      "tovarim": 6202,
      "rangdan": 6203,
      "qaytarmoqchi": 6204,
      "maganman": 6205,
      "tanlashda": 6206,
      "votka": 6207,
      "yahshimas": 6208,
      "qimmatro": 6209,
      "barbir": 6210,
      "barchan": 6211,
      "izda": 6212,
      "naushnikka": 6213,
      "termiz": 6214,
      "kildik": 6215,
      "kaytib": 6216,
      "baravar": 6217,
      "oyinlar": 6218,
      "yuvdim": 6219,
      "reklamasi": 6220,
      "yopishtirilgan": 6221,
      "cel": 6222,
      "tashab": 6223,
      "muammoni": 6224,
      "haridor": 6225,
      "qarshi": 6226,
      "tushunarsiz": 6227,
      "idishda": 6228,
      "idishlar": 6229,
      "aytganday": 6230,
      "iwlatsa": 6231,
      "bolganlarga": 6232,
      "xidli": 6233,
      "punkt": 6234,
      "tasvir": 6235,
      "ishingizni": 6236,
      "ishlamiyapti": 6237,
      "kismi": 6238,
      "etiroz": 6239,
      "korobka": 6240,
      "shunaqangi": 6241,
      "programma": 6242,
      "tikuv": 6243,
      "kutganimizdek": 6244,
      "savolim": 6245,
      "rubashka": 6246,
      "2kun": 6247,
      "ele": 6248,
      "etilgan": 6249,
      "lux": 6250,
      "oganidim": 6251,
      "rdi": 6252,
      "way": 6253,
      "shtu": 6254,
      "dami": 6255,
      "chora": 6256,
      "sia": 6257,
      "rab": 6258,
      "yotadi": 6259,
      "ardi": 6260,
      "jude": 6261,
      "tabiy": 6262,
      "kesh": 6263,
      "kebdi": 6264,
      "kevotti": 6265,
      "yaxshigina": 6266,
      "yamman": 6267,
      "ishlatadi": 6268,
      "masdi": 6269,
      "zav": 6270,
      "rohmat": 6271,
      "xis": 6272,
      "kuu": 6273,
      "kuyi": 6274,
      "vox": 6275,
      "yezilgan": 6276,
      "nay": 6277,
      "muamo": 6278,
      "assal": 6279,
      "quydi": 6280,
      "alos": 6281,
      "high": 6282,
      "leniya": 6283,
      "rasmdek": 6284,
      "doska": 6285,
      "rel": 6286,
      "respekt": 6287,
      "qilsak": 6288,
      "nes": 6289,
      "tmadim": 6290,
      "kichkinalik": 6291,
      "qoydik": 6292,
      "qand": 6293,
      "turila": 6294,
      "gandaka": 6295,
      "qolsa": 6296,
      "qollab": 6297,
      "hatdan": 6298,
      "orab": 6299,
      "ochgan": 6300,
      "battar": 6301,
      "yirik": 6302,
      "oxwi": 6303,
      "vaqtni": 6304,
      "sharf": 6305,
      "skidkalar": 6306,
      "nozikroq": 6307,
      "idealniy": 6308,
      "jonatilgan": 6309,
      "yonidagi": 6310,
      "achinmaysiz": 6311,
      "televizorga": 6312,
      "jonim": 6313,
      "upakovkasiyam": 6314,
      "krut": 6315,
      "sotila": 6316,
      "raxmaaat": 6317,
      "kutkanimdanam": 6318,
      "tasavur": 6319,
      "navushnik": 6320,
      "tuldir": 6321,
      "korpusi": 6322,
      "chaynik": 6323,
      "prekrasno": 6324,
      "sezilar": 6325,
      "xaqiqatdan": 6326,
      "pachti": 6327,
      "kapsula": 6328,
      "kuvvat": 6329,
      "uvlajni": 6330,
      "1kunga": 6331,
      "can": 6332,
      "dol": 6333,
      "ei": 6334,
      "fer": 6335,
      "nek": 6336,
      "opa": 6337,
      "olas": 6338,
      "rim": 6339,
      "rdim": 6340,
      "uli": 6341,
      "ulasa": 6342,
      "veri": 6343,
      "zot": 6344,
      "yarok": 6345,
      "ray": 6346,
      "rakam": 6347,
      "limon": 6348,
      "yoshi": 6349,
      "yomi": 6350,
      "ololmadim": 6351,
      "chika": 6352,
      "urgan": 6353,
      "vas": 6354,
      "bumadi": 6355,
      "master": 6356,
      "kelguncha": 6357,
      "romol": 6358,
      "misiz": 6359,
      "leki": 6360,
      "madir": 6361,
      "vomiz": 6362,
      "assalam": 6363,
      "tuh": 6364,
      "kunni": 6365,
      "kotari": 6366,
      "sovut": 6367,
      "singlim": 6368,
      "chikari": 6369,
      "beradigan": 6370,
      "labni": 6371,
      "kino": 6372,
      "qaytarishni": 6373,
      "mazzasiga": 6374,
      "tanlash": 6375,
      "tanaga": 6376,
      "jida": 6377,
      "minusi": 6378,
      "tilnik": 6379,
      "oxshi": 6380,
      "qorasini": 6381,
      "quloqda": 6382,
      "rasimdaka": 6383,
      "qilindi": 6384,
      "yilda": 6385,
      "kaytardim": 6386,
      "xoroshe": 6387,
      "ichlari": 6388,
      "balandligi": 6389,
      "tashadi": 6390,
      "brendi": 6391,
      "bilmadimu": 6392,
      "yonishi": 6393,
      "ishlatayapman": 6394,
      "niyatim": 6395,
      "grami": 6396,
      "kutilganidan": 6397,
      "maqta": 6398,
      "maqsa": 6399,
      "suratdagidek": 6400,
      "avtomobil": 6401,
      "chuda": 6402,
      "ajayip": 6403,
      "typec": 6404,
      "xohlaganimdek": 6405,
      "work": 6406,
      "zumda": 6407,
      "baqvat": 6408,
      "qmmat": 6409,
      "boshqacharoq": 6410,
      "svejiy": 6411,
      "trimmer": 6412,
      "85": 6413,
      "bin": 6414,
      "cas": 6415,
      "fani": 6416,
      "get": 6417,
      "klent": 6418,
      "qlar": 6419,
      "sey": 6420,
      "voradi": 6421,
      "mapman": 6422,
      "diq": 6423,
      "disk": 6424,
      "yaga": 6425,
      "yakin": 6426,
      "chyot": 6427,
      "ekanrahmat": 6428,
      "katush": 6429,
      "taloni": 6430,
      "kechi": 6431,
      "lom": 6432,
      "los": 6433,
      "suar": 6434,
      "vav": 6435,
      "birov": 6436,
      "gapyuq": 6437,
      "joyni": 6438,
      "uzumdagi": 6439,
      "uzumdagilarga": 6440,
      "xit": 6441,
      "kupay": 6442,
      "aldov": 6443,
      "koch": 6444,
      "korganimda": 6445,
      "risi": 6446,
      "qom": 6447,
      "baja": 6448,
      "arzimasakan": 6449,
      "konsil": 6450,
      "jada": 6451,
      "shaxob": 6452,
      "mech": 6453,
      "oldida": 6454,
      "qulaygina": 6455,
      "razmat": 6456,
      "had": 6457,
      "proble": 6458,
      "qaynoq": 6459,
      "sotgan": 6460,
      "bulmasa": 6461,
      "pom": 6462,
      "turmadi": 6463,
      "uylamagandim": 6464,
      "qaytarsa": 6465,
      "sovgalar": 6466,
      "ishlatganimdan": 6467,
      "vaqtini": 6468,
      "orada": 6469,
      "uslu": 6470,
      "korsatma": 6471,
      "izlar": 6472,
      "ulcha": 6473,
      "figa": 6474,
      "ovozini": 6475,
      "duo": 6476,
      "kutganimdaka": 6477,
      "aytkan": 6478,
      "tekshirdim": 6479,
      "sochga": 6480,
      "foydalansa": 6481,
      "tishini": 6482,
      "oyoqda": 6483,
      "oyoqqa": 6484,
      "geli": 6485,
      "orqasida": 6486,
      "yerga": 6487,
      "yerdan": 6488,
      "olchamlari": 6489,
      "ishlamaskan": 6490,
      "zorrrrr": 6491,
      "ketipti": 6492,
      "ranglisidan": 6493,
      "lerkan": 6494,
      "laringga": 6495,
      "xushbuy": 6496,
      "vorila": 6497,
      "rogidan": 6498,
      "kraskasi": 6499,
      "zerik": 6500,
      "xaridorlarga": 6501,
      "tatsiya": 6502,
      "yigish": 6503,
      "fikrim": 6504,
      "antena": 6505,
      "aytmasa": 6506,
      "aytmaganda": 6507,
      "krishkasi": 6508,
      "windo": 6509,
      "opisaniyada": 6510,
      "sassiq": 6511,
      "qilamn": 6512,
      "kapalak": 6513,
      "girlyanda": 6514,
      "konditsioner": 6515,
      "byurtma": 6516,
      "iltmos": 6517,
      "rohmatullo": 6518,
      "05": 6519,
      "1ga": 6520,
      "bro": 6521,
      "cen": 6522,
      "fin": 6523,
      "huggi": 6524,
      "kb": 6525,
      "mb": 6526,
      "mot": 6527,
      "naman": 6528,
      "ochik": 6529,
      "rol": 6530,
      "yaz": 6531,
      "chkasi": 6532,
      "yodi": 6533,
      "ekanmenga": 6534,
      "tala": 6535,
      "tavak": 6536,
      "kesa": 6537,
      "mandan": 6538,
      "ishti": 6539,
      "raxmattt": 6540,
      "kirilgan": 6541,
      "kichigi": 6542,
      "vaf": 6543,
      "uzbek": 6544,
      "uzogi": 6545,
      "ishlatar": 6546,
      "ishlagani": 6547,
      "bilaman": 6548,
      "ote": 6549,
      "tokon": 6550,
      "toladim": 6551,
      "sok": 6552,
      "miq": 6553,
      "mima": 6554,
      "bermiyman": 6555,
      "yemes": 6556,
      "sifatliroq": 6557,
      "deganda": 6558,
      "quv": 6559,
      "kotara": 6560,
      "kofta": 6561,
      "tavsif": 6562,
      "noski": 6563,
      "bolt": 6564,
      "arzimagan": 6565,
      "yursa": 6566,
      "prodav": 6567,
      "seni": 6568,
      "samo": 6569,
      "bolali": 6570,
      "kiydim": 6571,
      "kiyimi": 6572,
      "ganila": 6573,
      "kerakmas": 6574,
      "qaytarip": 6575,
      "pasda": 6576,
      "bombaa": 6577,
      "bilsa": 6578,
      "kilsa": 6579,
      "opti": 6580,
      "harf": 6581,
      "tozaladi": 6582,
      "thing": 6583,
      "ciqmadi": 6584,
      "odamla": 6585,
      "materialiga": 6586,
      "materialiyam": 6587,
      "shingiz": 6588,
      "sochlarim": 6589,
      "spon": 6590,
      "yuldi": 6591,
      "kaytarmokchiman": 6592,
      "kompaniya": 6593,
      "airpodsni": 6594,
      "oilamiz": 6595,
      "qoyadigan": 6596,
      "sarson": 6597,
      "skrom": 6598,
      "xushmuomala": 6599,
      "nasatka": 6600,
      "narsamni": 6601,
      "doimgiday": 6602,
      "ingizda": 6603,
      "excel": 6604,
      "boglansam": 6605,
      "shovqinsiz": 6606,
      "yaxshimisizlar": 6607,
      "tarifga": 6608,
      "vanna": 6609,
      "samarali": 6610,
      "sional": 6611,
      "antiqa": 6612,
      "axvolda": 6613,
      "moxchi": 6614,
      "bayramga": 6615,
      "podarok": 6616,
      "dumaloq": 6617,
      "akkumul": 6618,
      "soyabon": 6619,
      "karandash": 6620,
      "xarakteris": 6621,
      "judeyam": 6622,
      "krutoy": 6623,
      "huggies": 6624,
      "tavakkal": 6625,
      "54": 6626,
      "azi": 6627,
      "by": 6628,
      "band": 6629,
      "goni": 6630,
      "jani": 6631,
      "kran": 6632,
      "kari": 6633,
      "mz": 6634,
      "nme": 6635,
      "oa": 6636,
      "oga": 6637,
      "odim": 6638,
      "qp": 6639,
      "qlgan": 6640,
      "uya": 6641,
      "didi": 6642,
      "ral": 6643,
      "ekon": 6644,
      "liz": 6645,
      "list": 6646,
      "tion": 6647,
      "ekanuzum": 6648,
      "kaf": 6649,
      "taqin": 6650,
      "sayo": 6651,
      "losi": 6652,
      "vatli": 6653,
      "ishlamiydi": 6654,
      "ishlavotdi": 6655,
      "bulish": 6656,
      "yoqdiraxmat": 6657,
      "zurrrr": 6658,
      "touch": 6659,
      "chada": 6660,
      "solin": 6661,
      "tega": 6662,
      "bermagan": 6663,
      "yechi": 6664,
      "nas": 6665,
      "nazar": 6666,
      "ass": 6667,
      "kolaman": 6668,
      "kopa": 6669,
      "mov": 6670,
      "korgandim": 6671,
      "pulimi": 6672,
      "pulizga": 6673,
      "chem": 6674,
      "bax": 6675,
      "pake": 6676,
      "kunlik": 6677,
      "kungacha": 6678,
      "oliwi": 6679,
      "ozga": 6680,
      "sinf": 6681,
      "qaytarvor": 6682,
      "etsam": 6683,
      "qilgani": 6684,
      "qilganimda": 6685,
      "baroka": 6686,
      "yeki": 6687,
      "izni": 6688,
      "yit": 6689,
      "ovozda": 6690,
      "tinch": 6691,
      "bolishiga": 6692,
      "tozalar": 6693,
      "surib": 6694,
      "qaramay": 6695,
      "qiber": 6696,
      "tashla": 6697,
      "tekshirish": 6698,
      "foydalandim": 6699,
      "tugasa": 6700,
      "ishlaringizda": 6701,
      "bundanam": 6702,
      "guli": 6703,
      "olasiz": 6704,
      "tirip": 6705,
      "slabi": 6706,
      "ishlatiladi": 6707,
      "zaryatkaga": 6708,
      "oilamizga": 6709,
      "rasmdegide": 6710,
      "normalni": 6711,
      "charchamang": 6712,
      "ranglisini": 6713,
      "komplektda": 6714,
      "suyuqlik": 6715,
      "soatini": 6716,
      "kichgina": 6717,
      "rahmaat": 6718,
      "kukmara": 6719,
      "nuqta": 6720,
      "ornatdim": 6721,
      "yaltirab": 6722,
      "moshniy": 6723,
      "dekabr": 6724,
      "chopper": 6725,
      "kulokchin": 6726,
      "jigarrang": 6727,
      "standart": 6728,
      "awesome": 6729,
      "bolshoye": 6730,
      "axir": 6731,
      "bre": 6732,
      "doro": 6733,
      "eta": 6734,
      "ewi": 6735,
      "kini": 6736,
      "skot": 6737,
      "wti": 6738,
      "wim": 6739,
      "shta": 6740,
      "yac": 6741,
      "ekann": 6742,
      "taga": 6743,
      "kegani": 6744,
      "kevoti": 6745,
      "nimadir": 6746,
      "faoli": 6747,
      "ishlan": 6748,
      "chilariga": 6749,
      "gisi": 6750,
      "buv": 6751,
      "buya": 6752,
      "bilo": 6753,
      "otta": 6754,
      "toshi": 6755,
      "tolab": 6756,
      "tolagan": 6757,
      "somdan": 6758,
      "solingan": 6759,
      "ketyapdi": 6760,
      "bervoti": 6761,
      "bersn": 6762,
      "yeg": 6763,
      "asta": 6764,
      "deli": 6765,
      "kolib": 6766,
      "ganimni": 6767,
      "riga": 6768,
      "bet": 6769,
      "bezak": 6770,
      "bag": 6771,
      "mayla": 6772,
      "maylar": 6773,
      "qilb": 6774,
      "kichkinasi": 6775,
      "ishlashini": 6776,
      "qoyishi": 6777,
      "buyurtmalar": 6778,
      "tushar": 6779,
      "glimni": 6780,
      "jiga": 6781,
      "minan": 6782,
      "ushlaydi": 6783,
      "korsatmayapti": 6784,
      "almashtira": 6785,
      "tekwi": 6786,
      "tru": 6787,
      "telfoni": 6788,
      "rozgor": 6789,
      "yozilgani": 6790,
      "paydo": 6791,
      "sochlar": 6792,
      "universal": 6793,
      "vaqtdan": 6794,
      "moljallangan": 6795,
      "egalariga": 6796,
      "aytilgandek": 6797,
      "dokonlardan": 6798,
      "sirpan": 6799,
      "tagidan": 6800,
      "silarmi": 6801,
      "xatolik": 6802,
      "ozgarish": 6803,
      "ishingiz": 6804,
      "qimma": 6805,
      "qimoq": 6806,
      "tochna": 6807,
      "dostavili": 6808,
      "kompyuterga": 6809,
      "qizalogimga": 6810,
      "boyalib": 6811,
      "ishonchim": 6812,
      "ustanovka": 6813,
      "vazifasini": 6814,
      "sezilarli": 6815,
      "excellent": 6816,
      "04": 6817,
      "brat": 6818,
      "dekan": 6819,
      "etma": 6820,
      "gm": 6821,
      "iyat": 6822,
      "nt": 6823,
      "non": 6824,
      "piz": 6825,
      "tunda": 6826,
      "uradi": 6827,
      "wam": 6828,
      "wok": 6829,
      "damas": 6830,
      "chog": 6831,
      "kasme": 6832,
      "inda": 6833,
      "insta": 6834,
      "ganini": 6835,
      "yoqligi": 6836,
      "olmokchi": 6837,
      "fason": 6838,
      "chip": 6839,
      "chiki": 6840,
      "kizik": 6841,
      "qimadi": 6842,
      "uzil": 6843,
      "kanal": 6844,
      "keltirib": 6845,
      "sodda": 6846,
      "telimga": 6847,
      "yuva": 6848,
      "nafas": 6849,
      "tufli": 6850,
      "kof": 6851,
      "pulilaga": 6852,
      "puligayam": 6853,
      "shahar": 6854,
      "qulayligi": 6855,
      "ingla": 6856,
      "ozm": 6857,
      "kutdim": 6858,
      "zaryadlovchi": 6859,
      "turinglar": 6860,
      "ikkta": 6861,
      "hox": 6862,
      "buncha": 6863,
      "iwga": 6864,
      "uyim": 6865,
      "yahsh": 6866,
      "topolmadim": 6867,
      "qilganman": 6868,
      "martalik": 6869,
      "brakmi": 6870,
      "minu": 6871,
      "minli": 6872,
      "yozmadi": 6873,
      "olishda": 6874,
      "teks": 6875,
      "laniyam": 6876,
      "terla": 6877,
      "sizlarda": 6878,
      "opke": 6879,
      "harorat": 6880,
      "bozordagi": 6881,
      "farki": 6882,
      "haligacha": 6883,
      "god": 6884,
      "zilmagan": 6885,
      "kompakt": 6886,
      "yolga": 6887,
      "payda": 6888,
      "yopishtirish": 6889,
      "chiqaruvchilarga": 6890,
      "eshitib": 6891,
      "oxshamaydi": 6892,
      "format": 6893,
      "molo": 6894,
      "metrli": 6895,
      "metrlik": 6896,
      "parda": 6897,
      "paketni": 6898,
      "avvalgi": 6899,
      "chetki": 6900,
      "rassayam": 6901,
      "komplektida": 6902,
      "junatish": 6903,
      "uralgan": 6904,
      "mijozlarga": 6905,
      "imkoniyat": 6906,
      "plastikdan": 6907,
      "oooooooo": 6908,
      "chiroqlari": 6909,
      "toshlari": 6910,
      "comfor": 6911,
      "jonatgan": 6912,
      "dostavku": 6913,
      "vositasi": 6914,
      "oylaganimday": 6915,
      "kachistvasi": 6916,
      "brasle": 6917,
      "maxsulat": 6918,
      "tovara": 6919,
      "ishledi": 6920,
      "chiqarar": 6921,
      "vuyet": 6922,
      "boricha": 6923,
      "shopper": 6924,
      "nastroyka": 6925,
      "xozr": 6926,
      "rejimi": 6927,
      "kutkanimdek": 6928,
      "oylodim": 6929,
      "avtomatik": 6930,
      "keshbek": 6931,
      "110": 6932,
      "cun": 6933,
      "dush": 6934,
      "dvoy": 6935,
      "jos": 6936,
      "jom": 6937,
      "lga": 6938,
      "odka": 6939,
      "svi": 6940,
      "yun": 6941,
      "ykum": 6942,
      "yeri": 6943,
      "maqom": 6944,
      "yatiga": 6945,
      "timga": 6946,
      "zorku": 6947,
      "yoqo": 6948,
      "yaxshiro": 6949,
      "kilin": 6950,
      "enga": 6951,
      "yamon": 6952,
      "nari": 6953,
      "topo": 6954,
      "kuti": 6955,
      "beruvdim": 6956,
      "pud": 6957,
      "tuliq": 6958,
      "kore": 6959,
      "qogani": 6960,
      "chiqmas": 6961,
      "chiqvoti": 6962,
      "pasay": 6963,
      "oliy": 6964,
      "maysizlar": 6965,
      "ilgich": 6966,
      "tirishga": 6967,
      "chkina": 6968,
      "shunde": 6969,
      "xojat": 6970,
      "qoyi": 6971,
      "qoyilar": 6972,
      "turmayapti": 6973,
      "qilibman": 6974,
      "kurer": 6975,
      "rasmdagidey": 6976,
      "buyurtmami": 6977,
      "yonyapti": 6978,
      "yonmaydi": 6979,
      "iwlarizga": 6980,
      "uydagi": 6981,
      "mumkn": 6982,
      "uzilish": 6983,
      "martalab": 6984,
      "berilishi": 6985,
      "yuzdagi": 6986,
      "kiludim": 6987,
      "xaridlar": 6988,
      "vorarkan": 6989,
      "oxsharkan": 6990,
      "goh": 6991,
      "korinib": 6992,
      "price": 6993,
      "tashkil": 6994,
      "narseykan": 6995,
      "kelibti": 6996,
      "buyurtman": 6997,
      "almashtirmoqchiman": 6998,
      "esla": 6999,
      "olmabman": 7000,
      "isiq": 7001,
      "shirinlik": 7002,
      "qopqogini": 7003,
      "aylandi": 7004,
      "olishilarni": 7005,
      "ishlamayopti": 7006,
      "televizorni": 7007,
      "saqlash": 7008,
      "realni": 7009,
      "chogi": 7010,
      "qidirgan": 7011,
      "litrlik": 7012,
      "banan": 7013,
      "assalomaleykum": 7014,
      "ilovasi": 7015,
      "dovolna": 7016,
      "bervorishibdi": 7017,
      "tizimi": 7018,
      "skidkaga": 7019,
      "mashaalloh": 7020,
      "fleshkani": 7021,
      "yaltiroq": 7022,
      "burchak": 7023,
      "plombasi": 7024,
      "katushka": 7025,
      "4000": 7026,
      "5g": 7027,
      "fos": 7028,
      "hona": 7029,
      "iki": 7030,
      "lla": 7031,
      "mman": 7032,
      "mdek": 7033,
      "mln": 7034,
      "pet": 7035,
      "spi": 7036,
      "upo": 7037,
      "vora": 7038,
      "xonam": 7039,
      "andi": 7040,
      "shr": 7041,
      "chki": 7042,
      "lit": 7043,
      "tilida": 7044,
      "your": 7045,
      "kesi": 7046,
      "keganda": 7047,
      "yaxshilekin": 7048,
      "kisto": 7049,
      "kizalo": 7050,
      "enno": 7051,
      "buyu": 7052,
      "masku": 7053,
      "maskani": 7054,
      "bira": 7055,
      "bilish": 7056,
      "zadigan": 7057,
      "rout": 7058,
      "sosi": 7059,
      "teja": 7060,
      "kutamiz": 7061,
      "yechib": 7062,
      "tutab": 7063,
      "inakan": 7064,
      "korila": 7065,
      "uchunmi": 7066,
      "noki": 7067,
      "arzedi": 7068,
      "chiqvotti": 7069,
      "bataf": 7070,
      "kottekan": 7071,
      "chkimga": 7072,
      "sem": 7073,
      "sepa": 7074,
      "labda": 7075,
      "iwlangan": 7076,
      "ishlatkan": 7077,
      "sigayam": 7078,
      "sigarkan": 7079,
      "karo": 7080,
      "klassnaya": 7081,
      "bilmay": 7082,
      "yubora": 7083,
      "aliw": 7084,
      "kayer": 7085,
      "yotgani": 7086,
      "tikib": 7087,
      "rivojlan": 7088,
      "shunaqasi": 7089,
      "upakovkani": 7090,
      "qaramasdan": 7091,
      "kiyimda": 7092,
      "vobshe": 7093,
      "priz": 7094,
      "tashladi": 7095,
      "aksiyaga": 7096,
      "tugayapti": 7097,
      "xoroshiye": 7098,
      "beribsizlar": 7099,
      "kursatadi": 7100,
      "stic": 7101,
      "olasizmi": 7102,
      "namoz": 7103,
      "quyish": 7104,
      "magazinda": 7105,
      "odatda": 7106,
      "honor": 7107,
      "qldm": 7108,
      "bilinmadi": 7109,
      "bilinmaydi": 7110,
      "qoniqtirmadi": 7111,
      "reklamadagidek": 7112,
      "paketda": 7113,
      "tomondan": 7114,
      "kurinishidan": 7115,
      "choynakni": 7116,
      "noqulaylik": 7117,
      "asalcha": 7118,
      "otkazib": 7119,
      "rovka": 7120,
      "kuza": 7121,
      "kutilgandek": 7122,
      "yulduzchaga": 7123,
      "kliyen": 7124,
      "asalomalekum": 7125,
      "munosib": 7126,
      "ikkalasiyam": 7127,
      "toxta": 7128,
      "chiziq": 7129,
      "texnika": 7130,
      "talonini": 7131,
      "mahsulat": 7132,
      "filiali": 7133,
      "sushilka": 7134,
      "bahor": 7135,
      "gaplashish": 7136,
      "buyrtma": 7137,
      "kolonka": 7138,
      "ichimlik": 7139,
      "xamenbop": 7140,
      "windows": 7141,
      "1dona": 7142,
      "aql": 7143,
      "atigi": 7144,
      "cali": 7145,
      "cqdi": 7146,
      "dd": 7147,
      "ging": 7148,
      "han": 7149,
      "igr": 7150,
      "jno": 7151,
      "ky": 7152,
      "lyator": 7153,
      "qishda": 7154,
      "ron": 7155,
      "sv": 7156,
      "tuza": 7157,
      "vv": 7158,
      "zla": 7159,
      "laz": 7160,
      "lavan": 7161,
      "chuzilib": 7162,
      "yokadi": 7163,
      "kafel": 7164,
      "tapochka": 7165,
      "yoqsa": 7166,
      "olyapman": 7167,
      "bonu": 7168,
      "uzm": 7169,
      "gila": 7170,
      "qatiq": 7171,
      "ishlamasa": 7172,
      "masekan": 7173,
      "yoqdiuzum": 7174,
      "otdi": 7175,
      "gapi": 7176,
      "zuri": 7177,
      "zator": 7178,
      "roxmat": 7179,
      "mentari": 7180,
      "kuta": 7181,
      "vohtida": 7182,
      "yeffek": 7183,
      "nak": 7184,
      "muo": 7185,
      "sifatlikan": 7186,
      "yapt": 7187,
      "yapan": 7188,
      "qoz": 7189,
      "qolay": 7190,
      "nomiga": 7191,
      "arzan": 7192,
      "betakror": 7193,
      "ledi": 7194,
      "zakazimiz": 7195,
      "oldir": 7196,
      "razme": 7197,
      "aytish": 7198,
      "qilmas": 7199,
      "sinip": 7200,
      "xod": 7201,
      "bulmayapti": 7202,
      "turdagi": 7203,
      "uyimga": 7204,
      "kamni": 7205,
      "tushmaydi": 7206,
      "over": 7207,
      "ovkat": 7208,
      "yozgi": 7209,
      "ochka": 7210,
      "ochroq": 7211,
      "uskun": 7212,
      "izla": 7213,
      "fekt": 7214,
      "oynavotti": 7215,
      "ishlarini": 7216,
      "pastki": 7217,
      "bunaqasi": 7218,
      "bunaqasini": 7219,
      "girt": 7220,
      "tiqib": 7221,
      "aksiyalarni": 7222,
      "xizmatlari": 7223,
      "berganingiz": 7224,
      "hursandmiz": 7225,
      "maydalanib": 7226,
      "qaror": 7227,
      "szlarga": 7228,
      "quvvatlash": 7229,
      "buzulib": 7230,
      "tokka": 7231,
      "airpodsga": 7232,
      "yorilgan": 7233,
      "mahsulotingiz": 7234,
      "tuwun": 7235,
      "taqqan": 7236,
      "adashmabman": 7237,
      "qismida": 7238,
      "axlat": 7239,
      "bolajonlarga": 7240,
      "punktiga": 7241,
      "oqartir": 7242,
      "ushab": 7243,
      "xususiya": 7244,
      "qolidan": 7245,
      "elektro": 7246,
      "achchiq": 7247,
      "priyatnaya": 7248,
      "xaridorga": 7249,
      "xaridorlar": 7250,
      "belgilangan": 7251,
      "toshken": 7252,
      "uylagandan": 7253,
      "olardik": 7254,
      "qizalogim": 7255,
      "katakon": 7256,
      "paypoqlar": 7257,
      "chiqararkan": 7258,
      "qolimda": 7259,
      "poluchila": 7260,
      "uylabman": 7261,
      "bambuk": 7262,
      "hammangizga": 7263,
      "ijobiy": 7264,
      "barchangizga": 7265,
      "shtativ": 7266,
      "comfortable": 7267,
      "batafsil": 7268,
      "130": 7269,
      "250": 7270,
      "atiri": 7271,
      "ever": 7272,
      "glo": 7273,
      "jor": 7274,
      "ost": 7275,
      "ohi": 7276,
      "rgan": 7277,
      "solsa": 7278,
      "uga": 7279,
      "uwa": 7280,
      "angiz": 7281,
      "makan": 7282,
      "orto": 7283,
      "china": 7284,
      "ramat": 7285,
      "lis": 7286,
      "liman": 7287,
      "yox": 7288,
      "judaaa": 7289,
      "mator": 7290,
      "kemagan": 7291,
      "yoqa": 7292,
      "yoqish": 7293,
      "yaxshisini": 7294,
      "safe": 7295,
      "urnat": 7296,
      "sust": 7297,
      "vax": 7298,
      "vauuuu": 7299,
      "engil": 7300,
      "yoqdirahmat": 7301,
      "tomo": 7302,
      "sobiga": 7303,
      "kutish": 7304,
      "persil": 7305,
      "marketa": 7306,
      "superspasibo": 7307,
      "deyapti": 7308,
      "tutib": 7309,
      "quyilgan": 7310,
      "kochest": 7311,
      "lganda": 7312,
      "star": 7313,
      "inaga": 7314,
      "rila": 7315,
      "rilmagan": 7316,
      "pulin": 7317,
      "bakal": 7318,
      "dagide": 7319,
      "oqlari": 7320,
      "jaa": 7321,
      "yetvoti": 7322,
      "doglar": 7323,
      "nevara": 7324,
      "shedi": 7325,
      "zaryadda": 7326,
      "turli": 7327,
      "xidini": 7328,
      "aleykumsizlarga": 7329,
      "topshi": 7330,
      "tushur": 7331,
      "kartani": 7332,
      "qizdir": 7333,
      "tana": 7334,
      "jit": 7335,
      "qolmas": 7336,
      "onalar": 7337,
      "lashka": 7338,
      "ushlashi": 7339,
      "batari": 7340,
      "kachestvaga": 7341,
      "ovozlariyam": 7342,
      "simdan": 7343,
      "iwlataman": 7344,
      "pichok": 7345,
      "aksin": 7346,
      "telya": 7347,
      "timni": 7348,
      "vorib": 7349,
      "garchilik": 7350,
      "oldinam": 7351,
      "ishlarilarga": 7352,
      "suri": 7353,
      "surilishi": 7354,
      "akalar": 7355,
      "uzukka": 7356,
      "ishonaman": 7357,
      "zoe": 7358,
      "tugagan": 7359,
      "punki": 7360,
      "qisqich": 7361,
      "xaliyam": 7362,
      "ichish": 7363,
      "stit": 7364,
      "sfatiyam": 7365,
      "oylagandm": 7366,
      "pepsidan": 7367,
      "tuwib": 7368,
      "qogozini": 7369,
      "minnatdorchiligimni": 7370,
      "reklamadagi": 7371,
      "ishlatilganga": 7372,
      "iwlatb": 7373,
      "berilsa": 7374,
      "kiyadigan": 7375,
      "judyam": 7376,
      "fiksa": 7377,
      "ulasam": 7378,
      "ocib": 7379,
      "kipriklarni": 7380,
      "ujasno": 7381,
      "xoxlaganimday": 7382,
      "bulila": 7383,
      "oliwni": 7384,
      "eshitiladi": 7385,
      "chiroli": 7386,
      "maktabga": 7387,
      "modeli": 7388,
      "loyik": 7389,
      "shanpun": 7390,
      "remishok": 7391,
      "jingalak": 7392,
      "posle": 7393,
      "vsyo": 7394,
      "konsiler": 7395,
      "sponj": 7396,
      "skromniy": 7397,
      "06": 7398,
      "amat": 7399,
      "bumi": 7400,
      "gol": 7401,
      "ruy": 7402,
      "skoy": 7403,
      "uchadi": 7404,
      "vish": 7405,
      "wma": 7406,
      "wni": 7407,
      "zr": 7408,
      "maya": 7409,
      "dali": 7410,
      "siri": 7411,
      "tilar": 7412,
      "yoniga": 7413,
      "kechikdi": 7414,
      "nishi": 7415,
      "yoqotib": 7416,
      "oylanib": 7417,
      "oludik": 7418,
      "ishadi": 7419,
      "uzimiz": 7420,
      "bulardim": 7421,
      "sifatidan": 7422,
      "otmen": 7423,
      "otstoy": 7424,
      "zurrrrr": 7425,
      "kelgunicha": 7426,
      "chadan": 7427,
      "ketdim": 7428,
      "beruvchilarga": 7429,
      "marketning": 7430,
      "qule": 7431,
      "chiroyliyakan": 7432,
      "bolmay": 7433,
      "bolshe": 7434,
      "arzime": 7435,
      "basakan": 7436,
      "dagisini": 7437,
      "yetgan": 7438,
      "haf": 7439,
      "have": 7440,
      "kichkinasini": 7441,
      "berama": 7442,
      "berasizmi": 7443,
      "xoyat": 7444,
      "zaryadla": 7445,
      "sebe": 7446,
      "sepi": 7447,
      "telefondi": 7448,
      "tovardan": 7449,
      "ikini": 7450,
      "hojat": 7451,
      "iwlab": 7452,
      "tushga": 7453,
      "kopik": 7454,
      "qizimni": 7455,
      "qolmagan": 7456,
      "qilganimga": 7457,
      "mall": 7458,
      "utka": 7459,
      "originalmas": 7460,
      "vashem": 7461,
      "krab": 7462,
      "surganda": 7463,
      "aldamasdan": 7464,
      "than": 7465,
      "ishonmagandim": 7466,
      "yangidek": 7467,
      "yopisharkan": 7468,
      "xizmatga": 7469,
      "tugarkan": 7470,
      "chunmadim": 7471,
      "natijani": 7472,
      "kaltaroq": 7473,
      "dorini": 7474,
      "sharlar": 7475,
      "deyman": 7476,
      "skidkala": 7477,
      "orqaga": 7478,
      "stick": 7479,
      "tirilmagan": 7480,
      "kuller": 7481,
      "namlagich": 7482,
      "prot": 7483,
      "muddatda": 7484,
      "asosan": 7485,
      "ajjoyib": 7486,
      "ynimga": 7487,
      "taqqanda": 7488,
      "tegsa": 7489,
      "malumotlar": 7490,
      "mmm": 7491,
      "doglari": 7492,
      "karobkadan": 7493,
      "ushlamas": 7494,
      "tovushi": 7495,
      "omadilarni": 7496,
      "massajyor": 7497,
      "bolajonlarimga": 7498,
      "pishirib": 7499,
      "shekili": 7500,
      "sovunni": 7501,
      "firmani": 7502,
      "telfonga": 7503,
      "fanar": 7504,
      "kilishim": 7505,
      "rasimdagiday": 7506,
      "qoldirdi": 7507,
      "yopilmas": 7508,
      "soriman": 7509,
      "oliwim": 7510,
      "barokat": 7511,
      "tugmalari": 7512,
      "shunaq": 7513,
      "flakon": 7514,
      "sredniy": 7515,
      "sroki": 7516,
      "sutkada": 7517,
      "shikoyat": 7518,
      "yaroqlilik": 7519,
      "mechta": 7520,
      "taqinchoq": 7521,
      "instagram": 7522,
      "3kun": 7523,
      "emasakan": 7524,
      "elon": 7525,
      "gq": 7526,
      "koldim": 7527,
      "mp": 7528,
      "mnogo": 7529,
      "omon": 7530,
      "qishga": 7531,
      "ruz": 7532,
      "uki": 7533,
      "uyam": 7534,
      "vni": 7535,
      "ӯr": 7536,
      "dira": 7537,
      "daga": 7538,
      "tiki": 7539,
      "tap": 7540,
      "tapi": 7541,
      "yoqmad": 7542,
      "oyini": 7543,
      "fat": 7544,
      "chizilib": 7545,
      "kisti": 7546,
      "boq": 7547,
      "vata": 7548,
      "uzb": 7549,
      "uzmga": 7550,
      "buling": 7551,
      "biraq": 7552,
      "kaning": 7553,
      "kelmabdi": 7554,
      "teshib": 7555,
      "kutu": 7556,
      "kushib": 7557,
      "kulimga": 7558,
      "alla": 7559,
      "bermayabdi": 7560,
      "tuf": 7561,
      "qulimga": 7562,
      "sizni": 7563,
      "koring": 7564,
      "rasmida": 7565,
      "leni": 7566,
      "omasakan": 7567,
      "yetvotti": 7568,
      "yetqizib": 7569,
      "wirin": 7570,
      "uvdi": 7571,
      "qildir": 7572,
      "sindirib": 7573,
      "sotmanglar": 7574,
      "ishiy": 7575,
      "xaj": 7576,
      "qoying": 7577,
      "pojal": 7578,
      "poco": 7579,
      "uvchilar": 7580,
      "yuqmi": 7581,
      "turganda": 7582,
      "oylamagan": 7583,
      "ganiz": 7584,
      "uylayman": 7585,
      "qaytarishga": 7586,
      "ishlatsam": 7587,
      "karli": 7588,
      "karochi": 7589,
      "magazini": 7590,
      "qizlarim": 7591,
      "qilgandm": 7592,
      "ishlamadiku": 7593,
      "lashtirib": 7594,
      "yozsa": 7595,
      "korsatar": 7596,
      "izlagan": 7597,
      "bombaaa": 7598,
      "bater": 7599,
      "yuboringlar": 7600,
      "ishlarizda": 7601,
      "yarm": 7602,
      "upakovkaga": 7603,
      "ishlaringizni": 7604,
      "chiqaryapti": 7605,
      "uzunroq": 7606,
      "sofka": 7607,
      "tiradar": 7608,
      "prin": 7609,
      "magazinlardan": 7610,
      "dizaynga": 7611,
      "sababdan": 7612,
      "maksi": 7613,
      "sochilib": 7614,
      "sochimga": 7615,
      "ozgarmadi": 7616,
      "ishchilar": 7617,
      "tanlaganim": 7618,
      "ishing": 7619,
      "garantiyasini": 7620,
      "originalini": 7621,
      "changyutgich": 7622,
      "mavsum": 7623,
      "kiprikni": 7624,
      "tozalamadi": 7625,
      "muzlat": 7626,
      "varianti": 7627,
      "kelganida": 7628,
      "korobkasi": 7629,
      "stress": 7630,
      "eshtil": 7631,
      "tezlikda": 7632,
      "tuxum": 7633,
      "kogoz": 7634,
      "9989": 7635,
      "siste": 7636,
      "parfyum": 7637,
      "svoi": 7638,
      "plyonka": 7639,
      "cobaltga": 7640,
      "devorga": 7641,
      "ketave": 7642,
      "uvlajnitel": 7643,
      "skotch": 7644,
      "aksincha": 7645,
      "31": 7646,
      "66": 7647,
      "88": 7648,
      "abi": 7649,
      "alay": 7650,
      "alati": 7651,
      "dum": 7652,
      "elan": 7653,
      "gg": 7654,
      "hari": 7655,
      "jib": 7656,
      "kka": 7657,
      "rgb": 7658,
      "sl": 7659,
      "uyat": 7660,
      "vro": 7661,
      "wr": 7662,
      "щa": 7663,
      "madani": 7664,
      "yaaxshi": 7665,
      "chqmadi": 7666,
      "siki": 7667,
      "tilaymiz": 7668,
      "jumis": 7669,
      "tad": 7670,
      "fake": 7671,
      "manti": 7672,
      "sux": 7673,
      "kiye": 7674,
      "bovoti": 7675,
      "qit": 7676,
      "qadi": 7677,
      "busin": 7678,
      "otmas": 7679,
      "tech": 7680,
      "kuda": 7681,
      "kulo": 7682,
      "kukun": 7683,
      "yugur": 7684,
      "yubka": 7685,
      "yedik": 7686,
      "yapsizlar": 7687,
      "marketdagilarga": 7688,
      "koshe": 7689,
      "konik": 7690,
      "mosh": 7691,
      "stv": 7692,
      "emasmi": 7693,
      "sizla": 7694,
      "bollaga": 7695,
      "boridi": 7696,
      "pati": 7697,
      "pasa": 7698,
      "ozgin": 7699,
      "labga": 7700,
      "xara": 7701,
      "xavfsiz": 7702,
      "kuruk": 7703,
      "buyurtmalarni": 7704,
      "salga": 7705,
      "uydagilarga": 7706,
      "ishlatgandim": 7707,
      "qizlarga": 7708,
      "votgani": 7709,
      "ochigi": 7710,
      "onajonimga": 7711,
      "sumlik": 7712,
      "obke": 7713,
      "korsatilmagan": 7714,
      "bilmagan": 7715,
      "bilmadm": 7716,
      "tinda": 7717,
      "zaryadiyam": 7718,
      "supee": 7719,
      "negativ": 7720,
      "versin": 7721,
      "iloxim": 7722,
      "yarkiy": 7723,
      "nukus": 7724,
      "shingizni": 7725,
      "rasimdegi": 7726,
      "xizmatlar": 7727,
      "yogni": 7728,
      "nimagadur": 7729,
      "olmayapdi": 7730,
      "olmayabman": 7731,
      "berishim": 7732,
      "vkusnya": 7733,
      "qoyilmaqom": 7734,
      "odat": 7735,
      "funk": 7736,
      "qilishingizni": 7737,
      "brag": 7738,
      "mokda": 7739,
      "sevib": 7740,
      "rardim": 7741,
      "kurinishiga": 7742,
      "efektini": 7743,
      "yetkazilgan": 7744,
      "nasatkasi": 7745,
      "180": 7746,
      "bolajonlarim": 7747,
      "imeidan": 7748,
      "imkoniyati": 7749,
      "service": 7750,
      "istagan": 7751,
      "istagandek": 7752,
      "xaftada": 7753,
      "shaxsiy": 7754,
      "strech": 7755,
      "raqamli": 7756,
      "mahsulotimni": 7757,
      "filtr": 7758,
      "junatgan": 7759,
      "malomeryat": 7760,
      "mayapt": 7761,
      "zaryadnigi": 7762,
      "myag": 7763,
      "erkaklar": 7764,
      "kopkogi": 7765,
      "xotinimga": 7766,
      "qorongu": 7767,
      "yuvarkan": 7768,
      "yaroksiz": 7769,
      "case": 7770,
      "bajaradi": 7771,
      "nokia": 7772,
      "lavanda": 7773,
      "ati": 7774,
      "aham": 7775,
      "bzaga": 7776,
      "mort": 7777,
      "omas": 7778,
      "ogandan": 7779,
      "plen": 7780,
      "phone": 7781,
      "wka": 7782,
      "yr": 7783,
      "mac": 7784,
      "matir": 7785,
      "diag": 7786,
      "dadam": 7787,
      "chomi": 7788,
      "lipu": 7789,
      "yopa": 7790,
      "shimi": 7791,
      "ekanligi": 7792,
      "tabr": 7793,
      "matta": 7794,
      "kesib": 7795,
      "oluv": 7796,
      "olurila": 7797,
      "saot": 7798,
      "manam": 7799,
      "manfa": 7800,
      "chidab": 7801,
      "urta": 7802,
      "kira": 7803,
      "kilar": 7804,
      "kiyar": 7805,
      "bosim": 7806,
      "qivoldim": 7807,
      "qadar": 7808,
      "sifatiham": 7809,
      "zurekan": 7810,
      "kelmayapti": 7811,
      "tefal": 7812,
      "ajoyim": 7813,
      "ajoyibbb": 7814,
      "yukori": 7815,
      "keldii": 7816,
      "nach": 7817,
      "mudim": 7818,
      "demak": 7819,
      "tufay": 7820,
      "kosh": 7821,
      "koli": 7822,
      "moz": 7823,
      "stra": 7824,
      "korb": 7825,
      "riq": 7826,
      "riy": 7827,
      "nokulay": 7828,
      "bordim": 7829,
      "arzin": 7830,
      "chiqsin": 7831,
      "pak": 7832,
      "oqlaydi": 7833,
      "rasmni": 7834,
      "omagan": 7835,
      "mel": 7836,
      "yetmagan": 7837,
      "yetmasdan": 7838,
      "yurganda": 7839,
      "razmerlarini": 7840,
      "ret": 7841,
      "qilmagan": 7842,
      "qiludm": 7843,
      "sining": 7844,
      "qoyibdi": 7845,
      "kurganim": 7846,
      "larniki": 7847,
      "yondi": 7848,
      "keraksiz": 7849,
      "ishlatgandan": 7850,
      "foydalangan": 7851,
      "martaga": 7852,
      "ochb": 7853,
      "trusi": 7854,
      "fit": 7855,
      "naushnikga": 7856,
      "telvizor": 7857,
      "duba": 7858,
      "kelmadiku": 7859,
      "shibti": 7860,
      "opamga": 7861,
      "velosi": 7862,
      "chiqmadiku": 7863,
      "vasheee": 7864,
      "iloj": 7865,
      "idiw": 7866,
      "yuvdi": 7867,
      "qilishdan": 7868,
      "ishlatishdan": 7869,
      "yozilgandi": 7870,
      "qolganini": 7871,
      "shunisiga": 7872,
      "qorin": 7873,
      "charx": 7874,
      "uchir": 7875,
      "karobkani": 7876,
      "beribsila": 7877,
      "ketadigan": 7878,
      "metrdan": 7879,
      "tushuntirib": 7880,
      "ogritib": 7881,
      "vommiz": 7882,
      "medikan": 7883,
      "pepsini": 7884,
      "zaryatchik": 7885,
      "kabelni": 7886,
      "sotuvda": 7887,
      "butunlay": 7888,
      "tegmasin": 7889,
      "qaytadan": 7890,
      "okala": 7891,
      "jiyanlarimga": 7892,
      "otkazish": 7893,
      "doimgide": 7894,
      "pishiq": 7895,
      "ikkilanmay": 7896,
      "junatishibdi": 7897,
      "kutilgandan": 7898,
      "fenni": 7899,
      "sepib": 7900,
      "traga": 7901,
      "xaqida": 7902,
      "buliwi": 7903,
      "tariflashga": 7904,
      "joylashgan": 7905,
      "kayfiyatim": 7906,
      "qiynaldim": 7907,
      "qanaqib": 7908,
      "oborsam": 7909,
      "xxxl": 7910,
      "larimizga": 7911,
      "metall": 7912,
      "zakasim": 7913,
      "aybim": 7914,
      "lyubi": 7915,
      "atrofida": 7916,
      "yuvilgandan": 7917,
      "korayib": 7918,
      "choziluvchan": 7919,
      "yuripti": 7920,
      "hayronman": 7921,
      "oynani": 7922,
      "xotirasi": 7923,
      "zamogi": 7924,
      "kaytaraman": 7925,
      "remeshogi": 7926,
      "samokat": 7927,
      "dvoyka": 7928,
      "diagnosti": 7929,
      "tufayli": 7930,
      "30000": 7931,
      "47": 7932,
      "51": 7933,
      "95": 7934,
      "ash": 7935,
      "ayam": 7936,
      "buzuk": 7937,
      "col": 7938,
      "dro": 7939,
      "fursa": 7940,
      "gish": 7941,
      "iya": 7942,
      "ichk": 7943,
      "kv": 7944,
      "lli": 7945,
      "mim": 7946,
      "oke": 7947,
      "qsa": 7948,
      "qini": 7949,
      "sd": 7950,
      "soldim": 7951,
      "ushin": 7952,
      "uladim": 7953,
      "aning": 7954,
      "madel": 7955,
      "diya": 7956,
      "shoq": 7957,
      "galo": 7958,
      "yash": 7959,
      "rasiz": 7960,
      "rachniy": 7961,
      "ekti": 7962,
      "yooq": 7963,
      "kalam": 7964,
      "tayor": 7965,
      "mate": 7966,
      "yoqda": 7967,
      "yoqqani": 7968,
      "olvoldim": 7969,
      "sapasi": 7970,
      "sus": 7971,
      "boga": 7972,
      "qah": 7973,
      "qala": 7974,
      "ishlaga": 7975,
      "masmi": 7976,
      "otr": 7977,
      "toje": 7978,
      "chatka": 7979,
      "yelim": 7980,
      "nab": 7981,
      "naga": 7982,
      "muda": 7983,
      "mubor": 7984,
      "atli": 7985,
      "uchinchi": 7986,
      "narsamas": 7987,
      "qoil": 7988,
      "arzmidi": 7989,
      "chiqish": 7990,
      "leman": 7991,
      "pali": 7992,
      "kungayam": 7993,
      "yokim": 7994,
      "yetmasakan": 7995,
      "wiy": 7996,
      "marketgayam": 7997,
      "razmerlariyam": 7998,
      "tirsam": 7999,
      "hammalarizga": 8000,
      "siniyam": 8001,
      "shevo": 8002,
      "xolasa": 8003,
      "narxni": 8004,
      "bolaveradi": 8005,
      "qoydm": 8006,
      "berishdan": 8007,
      "berishgani": 8008,
      "oyladim": 8009,
      "sotuvchila": 8010,
      "sovgasiga": 8011,
      "topil": 8012,
      "koplab": 8013,
      "kopkok": 8014,
      "jid": 8015,
      "kutganimdanxam": 8016,
      "qilganda": 8017,
      "boldila": 8018,
      "ochdi": 8019,
      "ochmadi": 8020,
      "batda": 8021,
      "iwlamay": 8022,
      "dugona": 8023,
      "arzimaydigan": 8024,
      "boshkasini": 8025,
      "quru": 8026,
      "fes": 8027,
      "yoshdan": 8028,
      "spor": 8029,
      "yopishmas": 8030,
      "orginalmas": 8031,
      "qilinsa": 8032,
      "baslari": 8033,
      "ulanish": 8034,
      "bln": 8035,
      "vapwee": 8036,
      "bolmaydigan": 8037,
      "pryat": 8038,
      "kichkintoy": 8039,
      "kechga": 8040,
      "xonada": 8041,
      "parasho": 8042,
      "videore": 8043,
      "choyshab": 8044,
      "iwlatvoman": 8045,
      "tegishli": 8046,
      "charchamelar": 8047,
      "alishtirsa": 8048,
      "gelni": 8049,
      "derjit": 8050,
      "togr": 8051,
      "kalonkasi": 8052,
      "shikarnoye": 8053,
      "mikser": 8054,
      "svetilnik": 8055,
      "omadini": 8056,
      "massajer": 8057,
      "xohlasa": 8058,
      "apple": 8059,
      "kelishini": 8060,
      "taraflama": 8061,
      "iwilarga": 8062,
      "kursatilgandek": 8063,
      "banki": 8064,
      "buyru": 8065,
      "issikkina": 8066,
      "black": 8067,
      "xavoga": 8068,
      "kochadan": 8069,
      "uynab": 8070,
      "teshilib": 8071,
      "quritib": 8072,
      "rahmaaat": 8073,
      "qizalog": 8074,
      "rezinasi": 8075,
      "ilibdi": 8076,
      "pochti": 8077,
      "nasadkalari": 8078,
      "plisos": 8079,
      "chaqalo": 8080,
      "tushirib": 8081,
      "yetkazip": 8082,
      "tikilishlari": 8083,
      "sinovdan": 8084,
      "butilka": 8085,
      "sayohat": 8086,
      "pudrani": 8087,
      "vkusnyashka": 8088,
      "1oy": 8089,
      "2xil": 8090,
      "adimi": 8091,
      "audi": 8092,
      "ew": 8093,
      "eman": 8094,
      "elas": 8095,
      "gda": 8096,
      "goq": 8097,
      "lt": 8098,
      "oganda": 8099,
      "omidi": 8100,
      "xayrli": 8101,
      "shda": 8102,
      "ordi": 8103,
      "chor": 8104,
      "silani": 8105,
      "siqib": 8106,
      "yobdi": 8107,
      "yozarkan": 8108,
      "kalar": 8109,
      "katish": 8110,
      "tah": 8111,
      "kelip": 8112,
      "nixoyat": 8113,
      "kigan": 8114,
      "kiydi": 8115,
      "uzga": 8116,
      "hammani": 8117,
      "ennik": 8118,
      "bugan": 8119,
      "busayam": 8120,
      "zurga": 8121,
      "tolashga": 8122,
      "telim": 8123,
      "micro": 8124,
      "kuli": 8125,
      "kuyilgan": 8126,
      "kushimcha": 8127,
      "bersela": 8128,
      "yuuu": 8129,
      "vodo": 8130,
      "nali": 8131,
      "deffek": 8132,
      "tuv": 8133,
      "qushib": 8134,
      "quvchi": 8135,
      "kola": 8136,
      "kovi": 8137,
      "kattasi": 8138,
      "kattalarga": 8139,
      "korlik": 8140,
      "korset": 8141,
      "qomadi": 8142,
      "qolishi": 8143,
      "qolayapti": 8144,
      "mahsulotda": 8145,
      "kontur": 8146,
      "boshla": 8147,
      "boshkasi": 8148,
      "yetmay": 8149,
      "yetmayabdi": 8150,
      "wiga": 8151,
      "aytishdi": 8152,
      "ozrok": 8153,
      "qatdan": 8154,
      "hammasiga": 8155,
      "reali": 8156,
      "sinmagan": 8157,
      "boshqalagayam": 8158,
      "tmasakan": 8159,
      "ishlashida": 8160,
      "yaxwimasakan": 8161,
      "seli": 8162,
      "ichidigi": 8163,
      "qoyishga": 8164,
      "tursin": 8165,
      "berishgan": 8166,
      "masaka": 8167,
      "kopchilik": 8168,
      "tanlangan": 8169,
      "yomonamas": 8170,
      "votudim": 8171,
      "votudi": 8172,
      "boldilar": 8173,
      "onalarga": 8174,
      "ushlarkan": 8175,
      "klassnoye": 8176,
      "olishlarizni": 8177,
      "tingizni": 8178,
      "mingli": 8179,
      "dux": 8180,
      "alikum": 8181,
      "bolsayam": 8182,
      "tozalirkan": 8183,
      "poddelkasi": 8184,
      "girchoq": 8185,
      "shunaqasini": 8186,
      "tavarim": 8187,
      "zakazal": 8188,
      "ipman": 8189,
      "tortish": 8190,
      "pristavka": 8191,
      "chasida": 8192,
      "foydalanishni": 8193,
      "kremi": 8194,
      "vaqtgacha": 8195,
      "kalg": 8196,
      "kolech": 8197,
      "ozimda": 8198,
      "olayotganda": 8199,
      "vaweee": 8200,
      "quvvatlagich": 8201,
      "tabrik": 8202,
      "aylanadi": 8203,
      "oziniki": 8204,
      "qldi": 8205,
      "parati": 8206,
      "mangla": 8207,
      "brakov": 8208,
      "tagidagi": 8209,
      "mashinada": 8210,
      "ingizlar": 8211,
      "padvotka": 8212,
      "moshinada": 8213,
      "toqroq": 8214,
      "grafi": 8215,
      "tasmasi": 8216,
      "etudim": 8217,
      "mashinani": 8218,
      "ketibti": 8219,
      "mijozga": 8220,
      "olmaysiz": 8221,
      "suratdagi": 8222,
      "avtomat": 8223,
      "yopilmaydi": 8224,
      "orginalini": 8225,
      "daftarlar": 8226,
      "aulot": 8227,
      "boladmi": 8228,
      "kupila": 8229,
      "masajor": 8230,
      "xojayin": 8231,
      "dilnik": 8232,
      "rejimda": 8233,
      "ganimizda": 8234,
      "kachstva": 8235,
      "oxirigacha": 8236,
      "minnad": 8237,
      "shnuri": 8238,
      "kungildagidek": 8239,
      "xafaman": 8240,
      "router": 8241,
      "arzimeydi": 8242,
      "muborak": 8243,
      "220": 8244,
      "7000": 8245,
      "900": 8246,
      "aba": 8247,
      "ape": 8248,
      "avay": 8249,
      "foy": 8250,
      "fre": 8251,
      "hur": 8252,
      "jina": 8253,
      "jil": 8254,
      "oki": 8255,
      "ometr": 8256,
      "obuv": 8257,
      "qt": 8258,
      "qum": 8259,
      "rul": 8260,
      "uydi": 8261,
      "wunga": 8262,
      "x6": 8263,
      "ydim": 8264,
      "zim": 8265,
      "zӯr": 8266,
      "anjom": 8267,
      "sher": 8268,
      "yada": 8269,
      "orka": 8270,
      "order": 8271,
      "yotarkan": 8272,
      "shimga": 8273,
      "judo": 8274,
      "kachon": 8275,
      "nish": 8276,
      "nida": 8277,
      "olme": 8278,
      "fair": 8279,
      "chiga": 8280,
      "raxm": 8281,
      "bosam": 8282,
      "qisi": 8283,
      "vauuu": 8284,
      "uzimni": 8285,
      "uzbeki": 8286,
      "eno": 8287,
      "bus": 8288,
      "bush": 8289,
      "bularni": 8290,
      "zip": 8291,
      "toz": 8292,
      "zapa": 8293,
      "chalarga": 8294,
      "meng": 8295,
      "tep": 8296,
      "ajoyin": 8297,
      "xiga": 8298,
      "aldoq": 8299,
      "bermima": 8300,
      "keldiyu": 8301,
      "nasi": 8302,
      "xamme": 8303,
      "marketke": 8304,
      "moщ": 8305,
      "modim": 8306,
      "korn": 8307,
      "puliyam": 8308,
      "boradi": 8309,
      "birhil": 8310,
      "hiddi": 8311,
      "cheska": 8312,
      "baxa": 8313,
      "konfe": 8314,
      "pada": 8315,
      "padelkasi": 8316,
      "omasa": 8317,
      "kunam": 8318,
      "ingliz": 8319,
      "likin": 8320,
      "ozro": 8321,
      "ozingiz": 8322,
      "tirgich": 8323,
      "ney": 8324,
      "uzumgayam": 8325,
      "mayaptiku": 8326,
      "beradimi": 8327,
      "xarakat": 8328,
      "berishlarini": 8329,
      "kiym": 8330,
      "hojayin": 8331,
      "yonmayabdi": 8332,
      "ganidm": 8333,
      "bittayam": 8334,
      "kopka": 8335,
      "tanish": 8336,
      "qold": 8337,
      "uzidek": 8338,
      "chamiz": 8339,
      "klassik": 8340,
      "ovurila": 8341,
      "barot": 8342,
      "ocharkan": 8343,
      "yili": 8344,
      "yuboribdi": 8345,
      "olishlarini": 8346,
      "ovozli": 8347,
      "ovozim": 8348,
      "ovozsiz": 8349,
      "piling": 8350,
      "kirni": 8351,
      "aaat": 8352,
      "veщ": 8353,
      "pechat": 8354,
      "surka": 8355,
      "aldap": 8356,
      "tortadi": 8357,
      "spf": 8358,
      "chiqardi": 8359,
      "birinchidan": 8360,
      "shoe": 8361,
      "xammasini": 8362,
      "ganimdaka": 8363,
      "almashtirsak": 8364,
      "casi": 8365,
      "imizdan": 8366,
      "formasi": 8367,
      "toldiradi": 8368,
      "zaryadkasiyam": 8369,
      "egasi": 8370,
      "polniy": 8371,
      "qludim": 8372,
      "tomonga": 8373,
      "yaxshmas": 8374,
      "ozgarib": 8375,
      "chegirmalarni": 8376,
      "ogirgina": 8377,
      "xizmatidan": 8378,
      "pragram": 8379,
      "saqlab": 8380,
      "oqidan": 8381,
      "yaqinlarimga": 8382,
      "olmaslikni": 8383,
      "mashinam": 8384,
      "karopkada": 8385,
      "achish": 8386,
      "termosni": 8387,
      "sotilar": 8388,
      "organib": 8389,
      "priyatni": 8390,
      "moshinamga": 8391,
      "planshetni": 8392,
      "yuborishipti": 8393,
      "vibrat": 8394,
      "tayyorlangan": 8395,
      "telifonga": 8396,
      "hec": 8397,
      "bervorip": 8398,
      "muloyim": 8399,
      "maxsus": 8400,
      "kopaytir": 8401,
      "qanaq": 8402,
      "kilishni": 8403,
      "kojasi": 8404,
      "marketing": 8405,
      "upakofkada": 8406,
      "arzirli": 8407,
      "jinni": 8408,
      "poluchil": 8409,
      "boshqarish": 8410,
      "tartibli": 8411,
      "osilib": 8412,
      "momiqqina": 8413,
      "dugonam": 8414,
      "dugonamga": 8415,
      "obichniy": 8416,
      "hammelaga": 8417,
      "ekonom": 8418,
      "barokatuh": 8419,
      "qozoni": 8420,
      "kolechko": 8421,
      "1razmer": 8422,
      "1hafta": 8423,
      "8000": 8424,
      "aq": 8425,
      "asalom": 8426,
      "bina": 8427,
      "bran": 8428,
      "dun": 8429,
      "dot": 8430,
      "dsam": 8431,
      "est": 8432,
      "etish": 8433,
      "eshti": 8434,
      "gde": 8435,
      "icha": 8436,
      "lr": 8437,
      "mdi": 8438,
      "mde": 8439,
      "oshiq": 8440,
      "ogoh": 8441,
      "palo": 8442,
      "qime": 8443,
      "skrab": 8444,
      "vt": 8445,
      "voldi": 8446,
      "ww": 8447,
      "wundan": 8448,
      "anc": 8449,
      "ant": 8450,
      "mabti": 8451,
      "mayopti": 8452,
      "laminat": 8453,
      "galov": 8454,
      "ligim": 8455,
      "titilib": 8456,
      "shipti": 8457,
      "shippa": 8458,
      "artel": 8459,
      "ekande": 8460,
      "kein": 8461,
      "olet": 8462,
      "saf": 8463,
      "ishlerkan": 8464,
      "chila": 8465,
      "kizar": 8466,
      "qivordim": 8467,
      "vali": 8468,
      "vafli": 8469,
      "gapla": 8470,
      "gaplaw": 8471,
      "ziyod": 8472,
      "kelgandan": 8473,
      "sifatni": 8474,
      "kush": 8475,
      "beribdi": 8476,
      "yus": 8477,
      "yulib": 8478,
      "yesa": 8479,
      "yepish": 8480,
      "tual": 8481,
      "tugar": 8482,
      "uchdi": 8483,
      "qomasakan": 8484,
      "qomela": 8485,
      "qotip": 8486,
      "noinsof": 8487,
      "noyabr": 8488,
      "bolmayabdi": 8489,
      "bolsangiz": 8490,
      "borligini": 8491,
      "arzimaskan": 8492,
      "razmera": 8493,
      "yetsa": 8494,
      "razmerli": 8495,
      "qilmayapti": 8496,
      "qilmadim": 8497,
      "profes": 8498,
      "chkini": 8499,
      "shundayam": 8500,
      "sovuk": 8501,
      "otlichna": 8502,
      "sotmela": 8503,
      "xala": 8504,
      "qoyganda": 8505,
      "kuri": 8506,
      "kurgan": 8507,
      "kurinadi": 8508,
      "berishsa": 8509,
      "hob": 8510,
      "ganizda": 8511,
      "uydan": 8512,
      "topgan": 8513,
      "toping": 8514,
      "karset": 8515,
      "qizdi": 8516,
      "jiha": 8517,
      "lashtiradi": 8518,
      "pastel": 8519,
      "sumkasi": 8520,
      "obyom": 8521,
      "izox": 8522,
      "yuboraman": 8523,
      "yuzimda": 8524,
      "lagandan": 8525,
      "nimadan": 8526,
      "iwlamas": 8527,
      "oynavoti": 8528,
      "kutganimdaqa": 8529,
      "suppper": 8530,
      "sotuvchigayam": 8531,
      "bolsada": 8532,
      "yaxshimaskan": 8533,
      "tozalashga": 8534,
      "garni": 8535,
      "podstavka": 8536,
      "tikish": 8537,
      "surot": 8538,
      "aldamela": 8539,
      "aytdi": 8540,
      "aytganimdek": 8541,
      "issiqda": 8542,
      "yoshgacha": 8543,
      "komfort": 8544,
      "kizlarimga": 8545,
      "sochda": 8546,
      "qilinganda": 8547,
      "etiborsizlik": 8548,
      "yillar": 8549,
      "berganman": 8550,
      "bergandm": 8551,
      "kaytarildi": 8552,
      "berdila": 8553,
      "vaktda": 8554,
      "boshqachasini": 8555,
      "osongina": 8556,
      "este": 8557,
      "ichdik": 8558,
      "olmadm": 8559,
      "muammolar": 8560,
      "gub": 8561,
      "5050": 8562,
      "ilganda": 8563,
      "shkaf": 8564,
      "quysa": 8565,
      "idishga": 8566,
      "aylanishi": 8567,
      "onamlaga": 8568,
      "konglimdagiday": 8569,
      "mangga": 8570,
      "taqsa": 8571,
      "choyni": 8572,
      "savdoga": 8573,
      "plastmasa": 8574,
      "xidlari": 8575,
      "ushlagichi": 8576,
      "uylaganimdanam": 8577,
      "256": 8578,
      "telifoni": 8579,
      "kuzga": 8580,
      "xitoyniki": 8581,
      "diyishdi": 8582,
      "qigandm": 8583,
      "bolganida": 8584,
      "mnga": 8585,
      "joylashdi": 8586,
      "produkt": 8587,
      "krossov": 8588,
      "larimizni": 8589,
      "ishonchni": 8590,
      "tulmadi": 8591,
      "zarari": 8592,
      "qolaveradi": 8593,
      "oshxonaga": 8594,
      "bosilib": 8595,
      "vazn": 8596,
      "ulgurmadim": 8597,
      "dskoy": 8598,
      "bilag": 8599,
      "deyishgandi": 8600,
      "dasturxon": 8601,
      "milli": 8602,
      "quyoshdan": 8603,
      "oynashyapti": 8604,
      "ornida": 8605,
      "tushadigan": 8606,
      "sootvet": 8607,
      "qoyardim": 8608,
      "prodavets": 8609,
      "samarqand": 8610,
      "shtuchka": 8611,
      "xorosheye": 8612,
      "pompa": 8613,
      "yuvadi": 8614,
      "jostik": 8615,
      "pulingizga": 8616,
      "fiksator": 8617,
      "velosipe": 8618,
      "lyubitelya": 8619,
      "uzbekistan": 8620,
      "2xl": 8621,
      "360": 8622,
      "atay": 8623,
      "dy": 8624,
      "ema": 8625,
      "ezil": 8626,
      "kmga": 8627,
      "kyn": 8628,
      "lyok": 8629,
      "luc": 8630,
      "nk": 8631,
      "oberdim": 8632,
      "poy": 8633,
      "pista": 8634,
      "tgan": 8635,
      "ucha": 8636,
      "vz": 8637,
      "vyor": 8638,
      "xunuk": 8639,
      "yq": 8640,
      "zdra": 8641,
      "orkali": 8642,
      "rativ": 8643,
      "lisini": 8644,
      "tig": 8645,
      "yone": 8646,
      "shil": 8647,
      "ekani": 8648,
      "karasam": 8649,
      "kelardi": 8650,
      "keladimi": 8651,
      "umga": 8652,
      "urun": 8653,
      "boyoq": 8654,
      "bowi": 8655,
      "boho": 8656,
      "boganiga": 8657,
      "onda": 8658,
      "qisib": 8659,
      "bumasa": 8660,
      "buxoro": 8661,
      "bilak": 8662,
      "otsen": 8663,
      "otten": 8664,
      "joystik": 8665,
      "zad": 8666,
      "rolik": 8667,
      "soc": 8668,
      "mij": 8669,
      "ketmayapti": 8670,
      "kupa": 8671,
      "bermasakan": 8672,
      "yurak": 8673,
      "yetish": 8674,
      "navo": 8675,
      "puper": 8676,
      "stor": 8677,
      "kattasiga": 8678,
      "qogirchoq": 8679,
      "iniyam": 8680,
      "borgan": 8681,
      "borish": 8682,
      "bormayapti": 8683,
      "birda": 8684,
      "birini": 8685,
      "chiqgan": 8686,
      "lez": 8687,
      "kunde": 8688,
      "qilamanki": 8689,
      "mezza": 8690,
      "boshga": 8691,
      "arzonro": 8692,
      "assalomualaykum": 8693,
      "doch": 8694,
      "ilka": 8695,
      "qilmanglar": 8696,
      "prob": 8697,
      "singa": 8698,
      "sindir": 8699,
      "ginalakan": 8700,
      "qoyishgan": 8701,
      "hosil": 8702,
      "mizda": 8703,
      "rangdagi": 8704,
      "masala": 8705,
      "foydalani": 8706,
      "tanga": 8707,
      "gliq": 8708,
      "qoldiku": 8709,
      "qolqop": 8710,
      "kichikro": 8711,
      "lashgan": 8712,
      "orasi": 8713,
      "yozb": 8714,
      "summa": 8715,
      "ochar": 8716,
      "ochganda": 8717,
      "utgan": 8718,
      "gildi": 8719,
      "bildirib": 8720,
      "yilib": 8721,
      "yitib": 8722,
      "naushnikdan": 8723,
      "pistol": 8724,
      "kirish": 8725,
      "dubay": 8726,
      "yatori": 8727,
      "sensiri": 8728,
      "tarakan": 8729,
      "idial": 8730,
      "idishni": 8731,
      "surgandan": 8732,
      "akamga": 8733,
      "bolibdi": 8734,
      "ishonmanglar": 8735,
      "bizning": 8736,
      "bittasida": 8737,
      "yogoch": 8738,
      "xaro": 8739,
      "qanaqadur": 8740,
      "xorosh": 8741,
      "oxshadi": 8742,
      "kitoblar": 8743,
      "atirga": 8744,
      "allohim": 8745,
      "ishlamaypti": 8746,
      "gupka": 8747,
      "isitish": 8748,
      "shirincha": 8749,
      "voldm": 8750,
      "mativiy": 8751,
      "safargi": 8752,
      "toldirarkan": 8753,
      "vatti": 8754,
      "ajin": 8755,
      "azgin": 8756,
      "sigib": 8757,
      "hodimlar": 8758,
      "qadoqlash": 8759,
      "polni": 8760,
      "chiqadigan": 8761,
      "1tasini": 8762,
      "kechki": 8763,
      "manashu": 8764,
      "parawok": 8765,
      "korsatvotti": 8766,
      "tomonlari": 8767,
      "burun": 8768,
      "yolgonchilar": 8769,
      "chetkiy": 8770,
      "qotmasdan": 8771,
      "kiyadi": 8772,
      "ingizdan": 8773,
      "juddda": 8774,
      "qilayotgan": 8775,
      "idishida": 8776,
      "idishini": 8777,
      "mijozlarni": 8778,
      "otzivlani": 8779,
      "cheki": 8780,
      "kuringandi": 8781,
      "klyu": 8782,
      "narhda": 8783,
      "maqtash": 8784,
      "ocen": 8785,
      "musiqani": 8786,
      "comment": 8787,
      "dastaf": 8788,
      "vabwe": 8789,
      "momilasi": 8790,
      "umaman": 8791,
      "xattoki": 8792,
      "insonlar": 8793,
      "gistrator": 8794,
      "oylaganimde": 8795,
      "shartno": 8796,
      "nechchi": 8797,
      "yigilib": 8798,
      "premi": 8799,
      "uzgarish": 8800,
      "atrof": 8801,
      "vibratsiyasi": 8802,
      "boshqaruv": 8803,
      "nersa": 8804,
      "purka": 8805,
      "qimirlab": 8806,
      "imeykadan": 8807,
      "qizarib": 8808,
      "sootvets": 8809,
      "yetayapti": 8810,
      "zapis": 8811,
      "mutla": 8812,
      "badanga": 8813,
      "omeyla": 8814,
      "polik": 8815,
      "yacshi": 8816,
      "qimoqchiman": 8817,
      "tekstura": 8818,
      "kistochka": 8819,
      "aqlli": 8820,
      "4g": 8821,
      "53": 8822,
      "6ta": 8823,
      "97": 8824,
      "abe": 8825,
      "ashu": 8826,
      "bz": 8827,
      "cka": 8828,
      "djet": 8829,
      "eer": 8830,
      "esp": 8831,
      "iah": 8832,
      "mdagi": 8833,
      "ous": 8834,
      "pdi": 8835,
      "qladi": 8836,
      "qlish": 8837,
      "sva": 8838,
      "stu": 8839,
      "small": 8840,
      "tmani": 8841,
      "urarkan": 8842,
      "xozi": 8843,
      "xalos": 8844,
      "zna": 8845,
      "dinam": 8846,
      "lagi": 8847,
      "chekan": 8848,
      "chkaga": 8849,
      "liki": 8850,
      "ship": 8851,
      "kasha": 8852,
      "matox": 8853,
      "olmelar": 8854,
      "erin": 8855,
      "fak": 8856,
      "fatiga": 8857,
      "sara": 8858,
      "look": 8859,
      "chistit": 8860,
      "urilgan": 8861,
      "kilishdi": 8862,
      "boyogi": 8863,
      "vatel": 8864,
      "qatta": 8865,
      "ishlatadigan": 8866,
      "yoqdisifati": 8867,
      "otkan": 8868,
      "joylarga": 8869,
      "zaqa": 8870,
      "soladigan": 8871,
      "kuum": 8872,
      "aldi": 8873,
      "nap": 8874,
      "muvaf": 8875,
      "tutadi": 8876,
      "kos": 8877,
      "uchta": 8878,
      "mobi": 8879,
      "rit": 8880,
      "qoshni": 8881,
      "rascheska": 8882,
      "nok": 8883,
      "salon": 8884,
      "befoyda": 8885,
      "baliq": 8886,
      "oqladi": 8887,
      "tarozini": 8888,
      "kund": 8889,
      "shaxar": 8890,
      "yetti": 8891,
      "aytar": 8892,
      "dosta": 8893,
      "likdagi": 8894,
      "qilsangiz": 8895,
      "hala": 8896,
      "proz": 8897,
      "prochniy": 8898,
      "ishir": 8899,
      "soatgacha": 8900,
      "sepochka": 8901,
      "buldik": 8902,
      "rasmdagidaqa": 8903,
      "vij": 8904,
      "vitamin": 8905,
      "ism": 8906,
      "ispol": 8907,
      "uyte": 8908,
      "topi": 8909,
      "topilar": 8910,
      "yaramadi": 8911,
      "jihatdan": 8912,
      "martadan": 8913,
      "pasro": 8914,
      "pastasi": 8915,
      "rasmdaki": 8916,
      "moqci": 8917,
      "bilmasdan": 8918,
      "yuboradi": 8919,
      "iwlami": 8920,
      "akses": 8921,
      "suvdan": 8922,
      "tint": 8923,
      "oynadi": 8924,
      "tasila": 8925,
      "osmon": 8926,
      "ostida": 8927,
      "yotgandim": 8928,
      "versa": 8929,
      "surish": 8930,
      "ixcam": 8931,
      "issiqlik": 8932,
      "jetip": 8933,
      "bizani": 8934,
      "tashladim": 8935,
      "15000": 8936,
      "yolg": 8937,
      "paytim": 8938,
      "degide": 8939,
      "chiqargan": 8940,
      "oyoqlari": 8941,
      "uchirib": 8942,
      "oxshayapti": 8943,
      "molod": 8944,
      "kozim": 8945,
      "isitadi": 8946,
      "tomonida": 8947,
      "ishlatilishi": 8948,
      "ekranda": 8949,
      "yerib": 8950,
      "aylantir": 8951,
      "buzilmagan": 8952,
      "kameraga": 8953,
      "futbolkani": 8954,
      "shampunni": 8955,
      "aytgancha": 8956,
      "braki": 8957,
      "karobkalari": 8958,
      "sababini": 8959,
      "yaxwmas": 8960,
      "aprel": 8961,
      "padarkasi": 8962,
      "plastmassasi": 8963,
      "bulganda": 8964,
      "buziq": 8965,
      "170": 8966,
      "uuuuu": 8967,
      "taxminan": 8968,
      "toldirdi": 8969,
      "surab": 8970,
      "xakida": 8971,
      "xakikiy": 8972,
      "kalit": 8973,
      "nosozlik": 8974,
      "hayda": 8975,
      "oshxonada": 8976,
      "rasmdigidan": 8977,
      "bosish": 8978,
      "qilodim": 8979,
      "skidku": 8980,
      "lanishiga": 8981,
      "atrofi": 8982,
      "almashtrib": 8983,
      "alishtirsam": 8984,
      "unamadi": 8985,
      "dostlar": 8986,
      "displey": 8987,
      "detallari": 8988,
      "jarayonida": 8989,
      "rasmdidaka": 8990,
      "upakofkasi": 8991,
      "qapqo": 8992,
      "qismlari": 8993,
      "namangan": 8994,
      "nachos": 8995,
      "muvaffa": 8996,
      "510": 8997,
      "doy": 8998,
      "dyum": 8999,
      "eg": 9000,
      "etadi": 9001,
      "etamiz": 9002,
      "fri": 9003,
      "iday": 9004,
      "klen": 9005,
      "lol": 9006,
      "luk": 9007,
      "mor": 9008,
      "obo": 9009,
      "ofar": 9010,
      "oci": 9011,
      "pt": 9012,
      "pora": 9013,
      "solsam": 9014,
      "slu": 9015,
      "ulay": 9016,
      "wh": 9017,
      "xr": 9018,
      "y6": 9019,
      "lasam": 9020,
      "laram": 9021,
      "lashadi": 9022,
      "cheka": 9023,
      "zorrahmat": 9024,
      "kacha": 9025,
      "kamga": 9026,
      "tada": 9027,
      "taqi": 9028,
      "matras": 9029,
      "matori": 9030,
      "kebti": 9031,
      "keguncha": 9032,
      "nimani": 9033,
      "yoqsam": 9034,
      "olmiman": 9035,
      "erish": 9036,
      "uncali": 9037,
      "bolarim": 9038,
      "boshim": 9039,
      "bomagur": 9040,
      "qiri": 9041,
      "qilama": 9042,
      "uzib": 9043,
      "qavat": 9044,
      "ishlamey": 9045,
      "otli": 9046,
      "rahmatt": 9047,
      "chatga": 9048,
      "tewi": 9049,
      "teshek": 9050,
      "milk": 9051,
      "allaykum": 9052,
      "bere": 9053,
      "berki": 9054,
      "beroli": 9055,
      "berdm": 9056,
      "yuradi": 9057,
      "voda": 9058,
      "yemadi": 9059,
      "siyasi": 9060,
      "lanmadi": 9061,
      "atmen": 9062,
      "dezo": 9063,
      "tukil": 9064,
      "aloooo": 9065,
      "sizning": 9066,
      "kormagandim": 9067,
      "nom": 9068,
      "bold": 9069,
      "bolti": 9070,
      "bolshoe": 9071,
      "borku": 9072,
      "birorta": 9073,
      "rasmlari": 9074,
      "maxga": 9075,
      "metali": 9076,
      "largayam": 9077,
      "assalomualekum": 9078,
      "oldini": 9079,
      "qulayliklar": 9080,
      "yetyabdi": 9081,
      "ayta": 9082,
      "ayiq": 9083,
      "razmerlar": 9084,
      "ilmayapti": 9085,
      "prostoy": 9086,
      "sovgani": 9087,
      "netu": 9088,
      "siniy": 9089,
      "sinimga": 9090,
      "ishizga": 9091,
      "xolagan": 9092,
      "qoysela": 9093,
      "yuqku": 9094,
      "lasla": 9095,
      "kursam": 9096,
      "aleykom": 9097,
      "yetkazb": 9098,
      "uylan": 9099,
      "uylagandek": 9100,
      "yahw": 9101,
      "topchik": 9102,
      "qizchamga": 9103,
      "qolmasdan": 9104,
      "yozing": 9105,
      "yozmayapti": 9106,
      "yozvor": 9107,
      "bardavom": 9108,
      "rasmdagini": 9109,
      "lanip": 9110,
      "yuzmga": 9111,
      "kaysi": 9112,
      "oppok": 9113,
      "yotganimda": 9114,
      "adikalon": 9115,
      "ishlariz": 9116,
      "pec": 9117,
      "yokida": 9118,
      "jem": 9119,
      "rasimdigi": 9120,
      "chiqarishlari": 9121,
      "olindi": 9122,
      "bergandik": 9123,
      "dormiz": 9124,
      "korsatilgandan": 9125,
      "vapweee": 9126,
      "kupon": 9127,
      "orqasiga": 9128,
      "unaqamas": 9129,
      "tashadim": 9130,
      "gust": 9131,
      "isitib": 9132,
      "xozirgi": 9133,
      "jonatishdi": 9134,
      "koldir": 9135,
      "qoyilsa": 9136,
      "polez": 9137,
      "shiqti": 9138,
      "dokonda": 9139,
      "dokonlarda": 9140,
      "mushug": 9141,
      "musorga": 9142,
      "tugul": 9143,
      "ushlagich": 9144,
      "komplektatsiya": 9145,
      "apte": 9146,
      "lamiza": 9147,
      "oqartirib": 9148,
      "kopirarkan": 9149,
      "kopirishi": 9150,
      "exti": 9151,
      "qidirish": 9152,
      "magnitli": 9153,
      "boglaning": 9154,
      "ohsha": 9155,
      "bossam": 9156,
      "konfetka": 9157,
      "belgilagan": 9158,
      "shovqinni": 9159,
      "dingiz": 9160,
      "detski": 9161,
      "solishga": 9162,
      "teshilgan": 9163,
      "qurilmasi": 9164,
      "inshaallah": 9165,
      "almawtirib": 9166,
      "metaldan": 9167,
      "brit": 9168,
      "viloyat": 9169,
      "daqiqada": 9170,
      "tashkilotchilariga": 9171,
      "ketkazdi": 9172,
      "jonatibsizlar": 9173,
      "filial": 9174,
      "kishkina": 9175,
      "ursad": 9176,
      "jonatishgan": 9177,
      "bervoribsila": 9178,
      "parfum": 9179,
      "kickinekan": 9180,
      "tungi": 9181,
      "prishlo": 9182,
      "xayronman": 9183,
      "markazi": 9184,
      "yanvarga": 9185,
      "spaget": 9186,
      "iwlawlari": 9187,
      "iwlatiwga": 9188,
      "rohmatullohi": 9189,
      "xarakteristi": 9190,
      "igrushka": 9191,
      "tapichka": 9192,
      "stvuyte": 9193,
      "supeeer": 9194,
      "dubai": 9195,
      "ichkari": 9196,
      "videoregistrator": 9197,
      "avaylab": 9198,
      "fairy": 9199,
      "professional": 9200,
      "luck": 9201,
      "pistolet": 9202,
      "teshekkur": 9203,
      "1tiyinga": 9204,
      "4k": 9205,
[...]
